/**
  ******************************************************************************
  * @file    network_data_params.c
  * @author  AST Embedded Analytics Research Platform
  * @date    Wed Oct  2 16:36:35 2024
  * @brief   AI Tool Automatic Code Generator for Embedded NN computing
  ******************************************************************************
  * Copyright (c) 2024 STMicroelectronics.
  * All rights reserved.
  *
  * This software is licensed under terms that can be found in the LICENSE file
  * in the root directory of this software component.
  * If no LICENSE file comes with this software, it is provided AS-IS.
  ******************************************************************************
  */

#include "network_data_params.h"


/**  Activations Section  ****************************************************/
ai_handle g_network_activations_table[1 + 2] = {
  AI_HANDLE_PTR(AI_MAGIC_MARKER),
  AI_HANDLE_PTR(NULL),
  AI_HANDLE_PTR(AI_MAGIC_MARKER),
};




/**  Weights Section  ********************************************************/
AI_ALIGNED(32)
const ai_u64 s_network_weights_array_u64[61145] = {
  0xbdea730dbe1a8d45U, 0xbd839c5abdaf9649U, 0xbcd9116cbd319db3U, 0xbb9d8584bc6cdfa8U,
  0x3c604c4c3b8d3139U, 0x3d4a70983cf25972U, 0x3dc37e5e3d942b58U, 0x3e1410b13df54b3cU,
  0x6678766886668768U, 0x8877767867878888U, 0x8786686887768876U, 0x8666687668887687U,
  0x6778667668777668U, 0x8878868666766778U, 0x8678768878667678U, 0x6877676686768666U,
  0x6766778666688877U, 0x7786666767667776U, 0x7677878766777786U, 0x8668778666867788U,
  0x8867877686777868U, 0x8677676787777676U, 0x6687786697867778U, 0x8688888867888986U,
  0x8788867867788777U, 0x6886688886876787U, 0x8866766766788668U, 0x6678668668877887U,
  0x6867868778667676U, 0x6686866866786677U, 0x7686666678867867U, 0x6678776766776776U,
  0x7667766766667668U, 0x6786686766776766U, 0x6867766676687667U, 0x7676766766877678U,
  0x7866766568666878U, 0x7676666777687676U, 0x8678886667767868U, 0x6687768678767678U,
  0x8787866777787777U, 0x7676786867767766U, 0x6778877768878777U, 0x6777666666866676U,
  0x6878776787866878U, 0x7766767768686768U, 0x6787666767888768U, 0x8786666878787668U,
  0x8787686787685776U, 0x7868877788678768U, 0x6878687778876776U, 0x6768786866778887U,
  0x6888887677767886U, 0x6768788768568786U, 0x6788867887878788U, 0x8877767776878776U,
  0x7878766688688876U, 0x8676678688667776U, 0x8877867666678878U, 0x7668686668886876U,
  0x6866778866677788U, 0x6778666888778677U, 0x8676877686987776U, 0x8787876768766788U,
  0x6766667678876777U, 0x7866686788768786U, 0x7886877787688887U, 0x8787878677888588U,
  0x5677766666766677U, 0x7668886876886888U, 0x6867776877687666U, 0x6687766866876776U,
  0x8867766876876776U, 0x7867685676867666U, 0x6676767676866887U, 0x7676776677787686U,
  0x6877686677868677U, 0x8788676786778877U, 0x7788676686686887U, 0x7767676876677896U,
  0x8776766686788686U, 0x6866878868877897U, 0x6787888668676867U, 0x8768868768787676U,
  0x7687786776667688U, 0x7766778677778677U, 0x8776688876678686U, 0x8868866686767778U,
  0x6766778887687686U, 0x6686666676768787U, 0x6666867686777766U, 0x6868766868866868U,
  0x6776687665786667U, 0x6866888775666676U, 0x8766768886777677U, 0x6886878877687768U,
  0x6777886876888676U, 0x7886676878778766U, 0x6668766888666776U, 0x6686688676776877U,
  0x7788676686676768U, 0x6788868767676686U, 0x7667866787677686U, 0x6878666868877766U,
  0x6667868677777666U, 0x8787667776686786U, 0x7688786676686866U, 0x7768776676868767U,
  0x7777688667878766U, 0x6688767686677788U, 0x8768688766786787U, 0x6768867788668867U,
  0x6876667577777666U, 0x7676687767777668U, 0x7768766776786767U, 0x7688768787767787U,
  0x6676877767787888U, 0x7676667788766887U, 0x6897878768768687U, 0x6688667786688767U,
  0x8888668768787766U, 0x7887777766888878U, 0x7776787687888677U, 0x6767768678666767U,
  0x7767786887788866U, 0x6666867677776768U, 0x6787886666886876U, 0x7786667888688876U,
  0x6766687878768668U, 0x8886786886678886U, 0x8767786678686677U, 0x6766878866667768U,
  0x7668776666588768U, 0x7687666688668677U, 0x7687786876668678U, 0x6667787877676686U,
  0x7667777887678767U, 0x6687786877787888U, 0x7767866768878868U, 0x8877886978787867U,
  0x8787677887767787U, 0x8777868877868868U, 0x8788788667866667U, 0x6686678766867787U,
  0x6768878767668667U, 0x6768687677787877U, 0x8786787696787668U, 0x6787688787966788U,
  0x8766778668666866U, 0x8877878687777677U, 0x6666668666788688U, 0x7766766667667867U,
  0x7867678787766687U, 0x6686686868667677U, 0x8767878686876766U, 0x8867787768768889U,
  0x8867777667686677U, 0x8766868666688778U, 0x6667676768667868U, 0x8668667667786777U,
  0x8678888877778667U, 0x8877678776876767U, 0x7687886876878667U, 0x8678676877766767U,
  0x6767677867778878U, 0x6879797768877778U, 0x7888667768677767U, 0x7686677686877666U,
  0x8767677668667688U, 0x7868886866787969U, 0x8777786868776788U, 0x8678868887787666U,
  0x6886678667667888U, 0x6686776777676778U, 0x7688776887867678U, 0x6866776788876667U,
  0x7677676688678778U, 0x6867877766766878U, 0x8788766776676886U, 0x8767766667776687U,
  0x7787667786686876U, 0x6886876668767886U, 0x8777888688778678U, 0x7876686876677976U,
  0x7686768868879787U, 0x8677678666878868U, 0x6687677688788786U, 0x8786766888688787U,
  0x7698876878676677U, 0x7777668788777879U, 0x8677666788787875U, 0x7876678686866678U,
  0x6866778768866776U, 0x8687677768877878U, 0x6787768888786666U, 0x6766767788667867U,
  0x7877866776767868U, 0x8788788888678877U, 0x6666676776868866U, 0x6878786868788686U,
  0x7766776777676787U, 0x6897866778868868U, 0x8778887898796669U, 0x7688787678767787U,
  0x7688688688786877U, 0x7666778886678876U, 0x6876688878887876U, 0x8977787768888668U,
  0x6786658668888778U, 0x7666678667677676U, 0x7666767777786768U, 0x7786767876666888U,
  0x8666767787668787U, 0x8868768776768686U, 0x8677787896686687U, 0x6677876666866888U,
  0x8887866666787877U, 0x7876677788878778U, 0x8886877778787776U, 0x6786888888986976U,
  0x7776679778886887U, 0x6666888968887776U, 0x7776876878679876U, 0x6666897776676887U,
  0x7787678886777688U, 0x7768688666768667U, 0x6866666667868886U, 0x7786767767898868U,
  0x8688867888587556U, 0x6888876867777768U, 0x7777686866776888U, 0x7776887666778867U,
  0x6687788777778688U, 0x8777876767868886U, 0x8768688887688878U, 0x6686666776678686U,
  0x8876667666878776U, 0x7787778786768866U, 0x8676778777886966U, 0x7787766666677876U,
  0x8686978676868766U, 0x7878788788888888U, 0x8786888688886886U, 0x7686686878686887U,
  0x8667867668876686U, 0x6887667788768887U, 0x6777786787688866U, 0x6766886676877786U,
  0x8878766776886877U, 0x6666867768876766U, 0x7668866888768877U, 0x6878688886778666U,
  0x6788867766666776U, 0x7868767787687676U, 0x7668778876886886U, 0x6686688767767867U,
  0x9878677876698766U, 0x8888878786667678U, 0x8886887766676776U, 0x7776667786868687U,
  0x7868868787877668U, 0x8867766668688676U, 0x7787676667877786U, 0x6686678878677866U,
  0x8686677778876868U, 0x6667988677687767U, 0x7676878666887688U, 0x8667668678888876U,
  0x6778687767786767U, 0x6667668677676777U, 0x8678878667886868U, 0x7766877866876678U,
  0x6876788678866886U, 0x6676767766777866U, 0x9688768877867666U, 0x6867767687778877U,
  0x6766766678688868U, 0x8776867666687768U, 0x7687778877868678U, 0x7687888878676877U,
  0x7686666888766886U, 0x6667886687888878U, 0x7766886686878666U, 0x8766867686677666U,
  0x6776766897678868U, 0x7676767776678775U, 0x8766687686877887U, 0x6677886876766886U,
  0x7878767686786686U, 0x8788866867686886U, 0x7787667887788777U, 0x6766877877776766U,
  0x8868676677776776U, 0x6666668766767869U, 0x8666788777876978U, 0x7786766868687767U,
  0x8876886877877668U, 0x6787686687686778U, 0x6887786676868778U, 0x6876668668667667U,
  0x7677866766767676U, 0x6888667688888668U, 0x6877877868776766U, 0x7686776787679767U,
  0x8786676776567587U, 0x6686787787767666U, 0x7787666876666886U, 0x6767886776768667U,
  0x6676886877786867U, 0x8686668866678688U, 0x6668768676887886U, 0x6669898876767886U,
  0x8768768877697868U, 0x8676878668677868U, 0x6766778668788778U, 0x6878678887667687U,
  0x7778787688778867U, 0x7878788788677886U, 0x8867866866686787U, 0x8888677866688887U,
  0x8868768668788676U, 0x7677868777776887U, 0x7768788988689787U, 0x7686766876887786U,
  0x6667878887787688U, 0x6786788686868776U, 0x6768768786666666U, 0x7766867686667677U,
  0x7777786776677686U, 0x6666788678676687U, 0x6968686888876887U, 0x7886867668677787U,
  0x7786767876767778U, 0x6876688777776687U, 0x7977766866676666U, 0x7877776668868788U,
  0x6768776787687668U, 0x7686777776678868U, 0x7776877768867676U, 0x6866676688768677U,
  0x8678667876867868U, 0x6886868887888786U, 0x6666766676677656U, 0x6687687877878787U,
  0x6778788676877787U, 0x8778678877888666U, 0x6767767887876676U, 0x6876878878877788U,
  0x6768686778768876U, 0x6686886786788888U, 0x7768677788666678U, 0x7977878679687676U,
  0x7668778878687686U, 0x6667777678676667U, 0x6676667567677688U, 0x6878766787667675U,
  0x7787776678767767U, 0x7667768788677887U, 0x7767667688588676U, 0x6876667688877677U,
  0x7666886986776777U, 0x7768768686866678U, 0x7766666878887887U, 0x7887677866887868U,
  0x6686778876668678U, 0x7767788676888688U, 0x7766887687677688U, 0x6686678668876766U,
  0x6787886768678677U, 0x8866876787668778U, 0x8878867867868676U, 0x8778776867667868U,
  0x8578886788768667U, 0x8868778876766558U, 0x8686786686776768U, 0x6767675666878867U,
  0x8776867666776867U, 0x8686676876786767U, 0x6886887888886677U, 0x7656668768786666U,
  0x6767686868668677U, 0x6778787666667778U, 0x6766867868876866U, 0x6888787766776867U,
  0x8678887768766688U, 0x6866888877775867U, 0x6877678667688876U, 0x8668886888778677U,
  0x8767768876888886U, 0x6676778866777778U, 0x6669888876886867U, 0x7855678767585787U,
  0x6678668676686667U, 0x7878677666766668U, 0x6878887878558666U, 0x7787887886676778U,
  0x6667767788787877U, 0x8677788888667668U, 0x5767666868889868U, 0x8878678767877686U,
  0x6786767888678687U, 0x6777767677666668U, 0x7668876778867898U, 0x8768676878867886U,
  0x7886886888777667U, 0x6866676767876988U, 0x6788767778768687U, 0x7697778666868667U,
  0x7767777776776877U, 0x6656867667786798U, 0x8677766758787575U, 0x8766678678678866U,
  0x7878786867778877U, 0x7766787667776578U, 0x7677777687886766U, 0x6778768687787876U,
  0x7666876878768866U, 0x6768777677668776U, 0x8777876677788767U, 0x8686688777868666U,
  0x6688778867966887U, 0x7766887867676666U, 0x7886768866676686U, 0x8887786889899977U,
  0x6777666778878896U, 0x7667777987866677U, 0x8768786978896876U, 0x6886977868787977U,
  0x8867867876668666U, 0x6786676687676887U, 0x6676767878668677U, 0x8677676788677887U,
  0x7887786666666768U, 0x7778868767687666U, 0x8766878578778868U, 0x6779878887778777U,
  0x6876778667888787U, 0x8887867888766686U, 0x6676788878668886U, 0x8886666887777868U,
  0x6676667787686786U, 0x8678888676766866U, 0x6677667768987776U, 0x7786668878678667U,
  0x7888767886888877U, 0x7687678866786898U, 0x6667866868698676U, 0x7887677876887877U,
  0x8676868678866878U, 0x7769876767866686U, 0x8699767988776776U, 0x8667768678886688U,
  0x8676686768767778U, 0x6786688666776667U, 0x6686877786866776U, 0x6886856787889667U,
  0x7767787868666866U, 0x7666676786676667U, 0x6887876867767776U, 0x6686766786666666U,
  0x8687677766767887U, 0x7868768766668787U, 0x7677777788668677U, 0x8768887688887686U,
  0x7878969667887888U, 0x7668867566679677U, 0x6778766867778766U, 0x7786888788688786U,
  0x8779768768677687U, 0x8777666787766987U, 0x8666876767877687U, 0x8678777678666667U,
  0x7667787767667678U, 0x8698868988888867U, 0x8868867655866888U, 0x6887686866686666U,
  0x7768766667686667U, 0x7876776668767887U, 0x7667876787677867U, 0x7767876668766978U,
  0x7786766777786867U, 0x7778687788868887U, 0x6667887866987796U, 0x7879778688666878U,
  0x6667688676776677U, 0x7777666886667867U, 0x6876889687877878U, 0x6867678876686787U,
  0x9668767866688777U, 0x6666788767877866U, 0x7766768766676868U, 0x6867677766768777U,
  0x6686768686678677U, 0x7867667776866777U, 0x8886866687788668U, 0x7788676768887767U,
  0x7666678787666776U, 0x6698776767787876U, 0x6676768688867868U, 0x7866888876668867U,
  0x8866678788668868U, 0x6867776769767766U, 0x6756876878878686U, 0x8768667868766677U,
  0x6888797876688768U, 0x8888978799767676U, 0x6796768696778768U, 0x7698877667787886U,
  0x7676877777868677U, 0x7686867766668766U, 0x6776876866656778U, 0x8767677766666686U,
  0x6678686777787666U, 0x7688776676686687U, 0x8777688867768677U, 0x6786868877876878U,
  0x6879668876887788U, 0x6888666677767686U, 0x8788887776678877U, 0x8777667768887666U,
  0x8877888776787676U, 0x7667676668679867U, 0x7887786866887867U, 0x7666766687978777U,
  0x7687766677668666U, 0x9769896787686766U, 0x7787689688878688U, 0x6777767777777768U,
  0x7687778767778678U, 0x7888776676877867U, 0x7667788666887768U, 0x8768778668776688U,
  0x6677667687766877U, 0x7767778678776766U, 0x9866676888876677U, 0x8687769678869788U,
  0x7687676666767886U, 0x8776877888776678U, 0x7786787777787787U, 0x6776688688687887U,
  0x6786678786668868U, 0x7687686777888869U, 0x8676777777798889U, 0x6766767686668776U,
  0x8887776788778767U, 0x7676878779697878U, 0x7778888876768687U, 0x8777667776877686U,
  0x6667887676778778U, 0x8688667777788977U, 0x7687866868767788U, 0x8677788888676888U,
  0x8666666788667778U, 0x8668896676685866U, 0x8687787676868867U, 0x6777767867666768U,
  0x8876897866676867U, 0x7768888678676778U, 0x8767779668877876U, 0x6877678686866666U,
  0x8688888888668766U, 0x8866867788977988U, 0x6687667677666676U, 0x7988777778776667U,
  0x8767868876968889U, 0x6676687886776677U, 0x6687766877668876U, 0x8787766668866866U,
  0x8766767888688877U, 0x6788768787868668U, 0x7878797988776788U, 0x7677867787888768U,
  0x7787787797666987U, 0x8667887687778886U, 0x8687677667766888U, 0x7776886866888878U,
  0x8988876676866788U, 0x8876777676777868U, 0x7888887678888877U, 0x7667888668677787U,
  0x6876686577678676U, 0x6867788767766576U, 0x7777888786886768U, 0x7877786668766798U,
  0x8877786768888766U, 0x7676866886868868U, 0x9669776777867866U, 0x8866667768678688U,
  0x6686788868886876U, 0x6786886877887866U, 0x6867777678877888U, 0x7667987988688977U,
  0x6768777866777668U, 0x6768868678878788U, 0x8788688666887776U, 0x6688776777876778U,
  0x7766667776777886U, 0x9866776896788986U, 0x6688676887769696U, 0x8777786676687867U,
  0x9757766766868786U, 0x9868688666877777U, 0x6768777687678678U, 0x6867668788676678U,
  0x6788768788788677U, 0x7786878677866886U, 0x7866786676776677U, 0x8888786868887666U,
  0x7888787887666877U, 0x8887798867866866U, 0x8666887666667888U, 0x7866786867768868U,
  0x8776686776788687U, 0x7887678889866878U, 0x7778667768676869U, 0x7768888677686868U,
  0x6776889776669877U, 0x6777869698787766U, 0x7677786667876767U, 0x5767776675766788U,
  0x7877688878786866U, 0x7866676667578666U, 0x7666877778887876U, 0x8666688676676766U,
  0x6686686867676876U, 0x7686687677876786U, 0x8766786768777878U, 0x6767787688666886U,
  0x7876887778887867U, 0x7878676786768868U, 0x7768866667666867U, 0x7668787866678686U,
  0x9978686878678767U, 0x6877667668686699U, 0x7698669778668767U, 0x8788688888897888U,
  0x7767767886787686U, 0x6777687687786787U, 0x8686778777887688U, 0x7786869888687787U,
  0x8866688787688667U, 0x8686676677777568U, 0x6868768867866687U, 0x7676777676888676U,
  0x7767677767688886U, 0x6886778667877666U, 0x7686667667668668U, 0x7778788668887877U,
  0x7676778876876788U, 0x7788678786877686U, 0x7678787678666666U, 0x7768867878676687U,
  0x7767766688667979U, 0x6879978787878877U, 0x6776877886676777U, 0x7666766566766577U,
  0x6787667776867878U, 0x7666788777767866U, 0x6666667678789867U, 0x7888768867788886U,
  0x8777887787786877U, 0x7868777677687786U, 0x8777687677888677U, 0x8667768887776876U,
  0x8768866687678776U, 0x8676686668877676U, 0x6866678877866887U, 0x8666766686677788U,
  0x6788767788678687U, 0x6778888776866676U, 0x6768879786687786U, 0x7887888868676687U,
  0x8876677777887868U, 0x7667686876768868U, 0x8688667666766877U, 0x7776868778775666U,
  0x8667866878786766U, 0x6676877677876777U, 0x6888768886767676U, 0x8668877888766668U,
  0x7666766886687687U, 0x7667688668788666U, 0x6667787677888888U, 0x6777866688876877U,
  0x7766686877877876U, 0x7677867767877886U, 0x6877867786767868U, 0x8868676887766887U,
  0x6888788886676677U, 0x6886778796868887U, 0x8867669888686777U, 0x9867668986877867U,
  0x7856687767569867U, 0x8786778775766766U, 0x8876666767656686U, 0x6888687778897666U,
  0x7688777666866876U, 0x6666666787786887U, 0x8676677777888677U, 0x7687877686878766U,
  0x8687886787676687U, 0x6667678667767787U, 0x6667867676686877U, 0x7887676887786788U,
  0x5878667778657667U, 0x7868767678776665U, 0x8666688678667786U, 0x9788787677768787U,
  0x6666988798877778U, 0x6778878768867876U, 0x7668868667877887U, 0x5657765666877767U,
  0x8776676677765785U, 0x7686666676768578U, 0x7787778666668888U, 0x6878666767676876U,
  0x8777686866786688U, 0x6667676678886867U, 0x6878867686677788U, 0x7778888678677688U,
  0x6666776776877886U, 0x6767676777877678U, 0x7778878686876776U, 0x7686666876878867U,
  0x7677668678676866U, 0x8886768768768786U, 0x8676687876888778U, 0x6886788787786876U,
  0x8966778676887987U, 0x6778688776767796U, 0x7767667676865665U, 0x5676658877778677U,
  0x7886786667888867U, 0x7668686877667768U, 0x6868668867666867U, 0x8776778676776677U,
  0x8777677787677886U, 0x8687896777868868U, 0x6778766686676878U, 0x6777888767877777U,
  0x8778777876867877U, 0x6577868777868767U, 0x6777665587567877U, 0x7886676678876678U,
  0x6768787787868676U, 0x6887767686777887U, 0x6776788686778766U, 0x8778778788977888U,
  0x7887867666757766U, 0x6656677767568896U, 0x7668577576678786U, 0x9678978878777867U,
  0x7887677886766686U, 0x8876768687777677U, 0x8667787667768866U, 0x6776676888766776U,
  0x6686679867666766U, 0x6768786768778677U, 0x7686887687866767U, 0x8788688887767868U,
  0x8688868668877888U, 0x7676878666688666U, 0x8667888866666757U, 0x7687768778766887U,
  0x8766787687777687U, 0x8667696986787687U, 0x7866768967776878U, 0x7778578687887676U,
  0x6776686667775687U, 0x8769898666876877U, 0x7877967888678997U, 0x8868888766777776U,
  0x8666676786688688U, 0x7688876888788866U, 0x8878787768778667U, 0x6878677887887696U,
  0x8678767767676667U, 0x8867786868866866U, 0x7767677889876767U, 0x7686878867677776U,
  0x6776676868666688U, 0x8767878676667567U, 0x7778785676766667U, 0x7768767767678668U,
  0x8869778777788778U, 0x7786767786988798U, 0x6666657578966678U, 0x7866667675676656U,
  0x7877668966677776U, 0x6787767887868887U, 0x6887868788788766U, 0x7867767766687866U,
  0x8868776668778788U, 0x6686776878878686U, 0x8688676776777788U, 0x6668866877887778U,
  0x8777678668776876U, 0x8867778886788788U, 0x6776676886867586U, 0x7886776788888776U,
  0x7876876766687768U, 0x6777865786686677U, 0x6776767658767676U, 0x9687687767668768U,
  0x8576888787888786U, 0x5788667757666668U, 0x8968877766665776U, 0x7796777787898677U,
  0x7678768887667978U, 0x8687867776787876U, 0x6767888786887688U, 0x7868688777868866U,
  0x8887868788678786U, 0x6866796876687676U, 0x6867687667768776U, 0x6676768786768866U,
  0x5766788876788667U, 0x8676867687666787U, 0x6676667768666676U, 0x7676786778788777U,
  0x7665776777777666U, 0x8778876777867677U, 0x7888878786699898U, 0x6778777687888788U,
  0x8767667677776676U, 0x7787678667876856U, 0x8869988879888766U, 0x6677668687778689U,
  0x7887876687776777U, 0x6766776866676788U, 0x7676877768688778U, 0x6866767687876776U,
  0x7667686876887786U, 0x8787677868686877U, 0x6778678876886787U, 0x6678666866886666U,
  0x6788686667676777U, 0x7677778678768876U, 0x6866866767786756U, 0x6878776665766676U,
  0x6788587758768876U, 0x8786667766787887U, 0x6887668877778887U, 0x6678877668677688U,
  0x6677666778786878U, 0x6866688678777889U, 0x7868667877878787U, 0x6666778668786686U,
  0x7666777867686766U, 0x6887886777687887U, 0x6876887888987678U, 0x6878676866776678U,
  0x6677878678677676U, 0x6888869777878866U, 0x8776866668866788U, 0x8778777666686778U,
  0x8776768668767866U, 0x6766657675665886U, 0x6766886856676787U, 0x7667766786556857U,
  0x8879876888768667U, 0x8766768887867686U, 0x8868977887688886U, 0x8867667877766878U,
  0x5586556678878866U, 0x8767778676677766U, 0x7877878876766686U, 0x7788668866676678U,
  0x6868667767867868U, 0x8776688868867766U, 0x7668886686677876U, 0x6768877667688868U,
  0x6778867866877667U, 0x8688687766888677U, 0x6768678776778876U, 0x6678877686778787U,
  0x8667686677666677U, 0x7667878876778588U, 0x6778666776777868U, 0x6888777778678787U,
  0x7776767678867767U, 0x7967786778986678U, 0x6668768867768777U, 0x7765876777566786U,
  0x6867788668867768U, 0x7866867786668667U, 0x8888666868667876U, 0x8887766766776866U,
  0x7676876686686678U, 0x8886688766787667U, 0x6677868778686786U, 0x6776776777777686U,
  0x8778788768768787U, 0x5676666677668666U, 0x8587677678788686U, 0x7666668888667866U,
  0x7587667688857688U, 0x8888676766677765U, 0x7787898867878787U, 0x7696677777897969U,
  0x6678676686677667U, 0x8767888866787776U, 0x9876668887868678U, 0x7686877677677669U,
  0x8677887887888686U, 0x8676776786666767U, 0x6777767888766666U, 0x8666678888777786U,
  0x6786868886888788U, 0x7686686676986676U, 0x7768867877678777U, 0x7886687776777868U,
  0x7686778666887777U, 0x7576786688886668U, 0x6876678878868866U, 0x7866688767766677U,
  0x7868676879667667U, 0x6878768666866686U, 0x7668786888767977U, 0x7878876776686667U,
  0x7667888688878866U, 0x7688868678777678U, 0x8688767778778688U, 0x8766767666788777U,
  0x6678688768867886U, 0x6876688887768888U, 0x6877988778786766U, 0x8688687676677767U,
  0x7666767876978787U, 0x8777886666788867U, 0x6865667777886666U, 0x6866766866666786U,
  0x8766778677677886U, 0x7685677686587888U, 0x8766687866767677U, 0x8768686986676676U,
  0x6787776778776666U, 0x7778576688786777U, 0x7678668788787668U, 0x7689788876878768U,
  0x8786788987787786U, 0x7667787687788867U, 0x8686777676767776U, 0x7866867886778686U,
  0x7677686767788886U, 0x6768668867866678U, 0x8868978686668667U, 0x8886777778888966U,
  0x8687666668868887U, 0x6688676677686676U, 0x6888886787685788U, 0x6886686768677666U,
  0x7877867657887777U, 0x6787866988788868U, 0x8868677666768786U, 0x6666687766766668U,
  0x7677768776777776U, 0x6677867887978778U, 0x8768667888776878U, 0x8676876667767687U,
  0x8676786677877776U, 0x8768776667667776U, 0x7776876886667877U, 0x6866867876878887U,
  0x8778767866877887U, 0x7768787686897667U, 0x6668667787788766U, 0x8668668676877676U,
  0x7677668775786688U, 0x8787777688666786U, 0x6866768868766787U, 0x8666686688656776U,
  0x6767779786777876U, 0x6778875786788687U, 0x8777678666767775U, 0x6788786766887667U,
  0x8677677868788688U, 0x7686867666687886U, 0x7876687887866678U, 0x6666667696887786U,
  0x8668866677668778U, 0x7676886776886666U, 0x8788787687676777U, 0x8686778878688666U,
  0x8868866867787677U, 0x7867688687677888U, 0x7868677778687666U, 0x7877676786686677U,
  0x8877688676766767U, 0x8866687768676786U, 0x7866667667868787U, 0x8686877668776778U,
  0x6867686766786668U, 0x7788686787567878U, 0x7776787777776787U, 0x6776887766688677U,
  0x7677878668887787U, 0x8878688886696886U, 0x6768778677668877U, 0x7777776876668767U,
  0x7676888788786867U, 0x6886776877867676U, 0x6786878766688767U, 0x7766787867787866U,
  0x6767886777866778U, 0x7777686878876768U, 0x6767797768768587U, 0x7776666788776877U,
  0x6788787787668767U, 0x7887768768866778U, 0x8776866789876867U, 0x6767676676767786U,
  0x7696876767766878U, 0x9678888667776768U, 0x8688788666787687U, 0x8677867666779696U,
  0x8777679887666876U, 0x6687666666676888U, 0x8868787776887876U, 0x6786778778868988U,
  0x6786768686688668U, 0x7786686676667876U, 0x6777686778776678U, 0x8866767777886676U,
  0x6666787768786777U, 0x8867877766787666U, 0x7666767668877786U, 0x7776665667768576U,
  0x7776678776866766U, 0x8667667877668687U, 0x6688886686756867U, 0x9878778677866866U,
  0x8888796787978667U, 0x7777668896668766U, 0x8867667689776878U, 0x8866668668786678U,
  0x6667678777766677U, 0x6867867666668788U, 0x7867687666678887U, 0x6788687777878687U,
  0x8778888876686878U, 0x6786766677666696U, 0x8768788877666687U, 0x6669768667776787U,
  0x7666677887777776U, 0x8686766767878685U, 0x7778766677788866U, 0x6886787677786676U,
  0x6768768677976667U, 0x7668687766867877U, 0x6668867778877776U, 0x7778786676777768U,
  0x6766775577668898U, 0x8788766688778887U, 0x7776666868789968U, 0x8766886778676767U,
  0x6686788766888687U, 0x7786778876867888U, 0x8667686688867888U, 0x6787878676788866U,
  0x8788777666778867U, 0x6868776666677776U, 0x6787768677678676U, 0x6876788786786686U,
  0x6868858876776667U, 0x8668787678888787U, 0x7678796768887858U, 0x6756767666786687U,
  0x6779688777686667U, 0x8898789977676878U, 0x8888876866667898U, 0x6797787787678688U,
  0x8788678868898767U, 0x6687778667888677U, 0x8788866768787788U, 0x6776878867777678U,
  0x6876868686676866U, 0x7666878688676787U, 0x7686677768887777U, 0x6768767678666767U,
  0x7686686766888668U, 0x7867667789877667U, 0x5867766687666868U, 0x6766866687878667U,
  0x7668767688667676U, 0x8876786667866866U, 0x7977767777786686U, 0x8788768878876666U,
  0x8698868668786868U, 0x8779877786898879U, 0x7979669776798776U, 0x7667687869668896U,
  0x7768766777666676U, 0x6667777866768678U, 0x7687868677867787U, 0x6876666777788786U,
  0x6678877888767687U, 0x6867868688786677U, 0x7887676867886866U, 0x8776868878876687U,
  0x7876668768866768U, 0x8676666666686776U, 0x5878666678687778U, 0x7686677887886666U,
  0x8787667776867787U, 0x7766668668758776U, 0x6766867866677868U, 0x8686788886688867U,
  0x9878977899667979U, 0x6887677787867778U, 0x8667877688788787U, 0x8777888678776677U,
  0x9776877776767676U, 0x6668777777676667U, 0x7668787876766676U, 0x7678777686678767U,
  0x8666886788888668U, 0x7776867676886686U, 0x6876968886976687U, 0x8757686766677778U,
  0x7686676768868688U, 0x8786668687887787U, 0x6777768766568676U, 0x7788666778696768U,
  0x8767688786667866U, 0x8868778767866887U, 0x8777866898688878U, 0x8887678668688787U,
  0x7888788767978766U, 0x6686676868888677U, 0x6776677877886767U, 0x6866877768887767U,
  0x7677868686687678U, 0x8887777687777777U, 0x8777687688787887U, 0x8778686776766676U,
  0x6768678776767766U, 0x9978878677696776U, 0x7688878766676887U, 0x7896877876778768U,
  0x6668768876777678U, 0x6687867778878669U, 0x5678778668868879U, 0x7878866696887878U,
  0x8996796798777866U, 0x8665966776786867U, 0x8786787877688786U, 0x6776787867779768U,
  0x8668776787689768U, 0x6687676686876768U, 0x7888667687667877U, 0x7886766686867676U,
  0x6786776678886766U, 0x8676787686776766U, 0x7878676768886786U, 0x7678678868687768U,
  0x7798886868668867U, 0x7866876677888688U, 0x8687678876766678U, 0x7676657768688687U,
  0x8897676687787676U, 0x8866666665787777U, 0x6897687778688667U, 0x7888786786786686U,
  0x8678685888869877U, 0x9767678778677768U, 0x6866687688766789U, 0x7868666776676877U,
  0x7886886887676687U, 0x7786876788768676U, 0x6687867868786688U, 0x8677868787676678U,
  0x8886868787868778U, 0x9788978686786668U, 0x6887798777878666U, 0x7776666768687888U,
  0x6768687766777778U, 0x8676667687777888U, 0x7766667667666687U, 0x8766768867677867U,
  0x9976687767767567U, 0x8677796876678788U, 0x6877667868687787U, 0x6788787766768768U,
  0x6778887778877888U, 0x6666677787768777U, 0x7876676778656768U, 0x7776786877777687U,
  0x6878676887867778U, 0x6666687778868767U, 0x9867866786866778U, 0x8667878876687668U,
  0x8788788668888678U, 0x8667776779876666U, 0x8768888668887866U, 0x8687886668887678U,
  0x8678566686566868U, 0x8778678777787757U, 0x6767667668878877U, 0x8688877677796867U,
  0x8876978878868887U, 0x6767788788687778U, 0x6887668668998889U, 0x8677786678868667U,
  0x7666888776676776U, 0x7786766787686675U, 0x7787867766677776U, 0x7888876776766668U,
  0x8788766876676887U, 0x7787777678777677U, 0x6686667876886668U, 0x8677678778667676U,
  0x7886688767668876U, 0x6678675765768886U, 0x7678866888676776U, 0x7775866886677767U,
  0x7868897668678777U, 0x7667767767676886U, 0x7978776668768677U, 0x7787766776677886U,
  0x8978676679789878U, 0x7887577766676987U, 0x8786678768677777U, 0x7768866866668668U,
  0x8677887687668777U, 0x7876876886868788U, 0x7777678878868787U, 0x6866667867867767U,
  0x8886786887788668U, 0x8878878768886866U, 0x7876898677787778U, 0x8787888689687868U,
  0x7666888867767697U, 0x8688687766878576U, 0x6886787766656676U, 0x6887697787876888U,
  0x6667886868667776U, 0x8788668898788876U, 0x8668877776886776U, 0x7687988667888897U,
  0x8878786777766677U, 0x8888788666867878U, 0x6878877777687766U, 0x7777868788667786U,
  0x7876877878766667U, 0x7666686768686867U, 0x8666786877768876U, 0x6688766887767886U,
  0x8767776767886878U, 0x6877686878667776U, 0x7687666786886877U, 0x6777686768775586U,
  0x6676678886877676U, 0x7879877768667666U, 0x8888887788687788U, 0x8797767776866678U,
  0x8788777886777786U, 0x9679777768887688U, 0x7866866687988768U, 0x8788778867775676U,
  0x6888866868776877U, 0x8766688768686677U, 0x6677877678886667U, 0x8786888767678886U,
  0x6776867866667868U, 0x7866887778668867U, 0x7788977676867687U, 0x6886877787778877U,
  0x8787867668887888U, 0x7788678676678876U, 0x8876687666786686U, 0x6888766668678686U,
  0x9687888766787768U, 0x8767866668766888U, 0x7678778887776778U, 0x8876867867667877U,
  0x8778666887876776U, 0x7767867887776887U, 0x6798778878666776U, 0x8777676768677877U,
  0x8766777867776676U, 0x7768688778866868U, 0x8888887686777668U, 0x6677686778667866U,
  0x8888867886686687U, 0x8877786787877678U, 0x7667866777668888U, 0x6778688776778766U,
  0x7768767787689686U, 0x6766667666788786U, 0x8878886678876768U, 0x6768776778866777U,
  0x7677867678677787U, 0x7779786877766868U, 0x6887879888786887U, 0x7978766866686967U,
  0x6767686877668897U, 0x8666677788688888U, 0x6666668687888766U, 0x7668667777677676U,
  0x8678687677686666U, 0x8886786877686787U, 0x6877788777777776U, 0x8676786666787768U,
  0x6867786787786796U, 0x8896767778868766U, 0x7666887766767677U, 0x7886876886668667U,
  0x8868586666876878U, 0x7887878666666878U, 0x7877688778678896U, 0x8778887878777678U,
  0x7767688876887878U, 0x7788866868887786U, 0x8866868688875768U, 0x7687768776768876U,
  0x6878766866666777U, 0x8687867676666666U, 0x8788668677776777U, 0x6778777877768678U,
  0x6667678777887776U, 0x7966886788686666U, 0x6788768796767786U, 0x8888888767867666U,
  0x6666877876887866U, 0x6678776888886668U, 0x8668768677877677U, 0x6866778686868776U,
  0x8868666877867876U, 0x6776788687868676U, 0x7788669887867777U, 0x8867668677888666U,
  0x7776876876866668U, 0x7796766666887677U, 0x6878876676877787U, 0x6787666677756778U,
  0x8866877666676866U, 0x8868767768787868U, 0x7778667787686688U, 0x6768886778886888U,
  0x6886987877677766U, 0x8887767678766788U, 0x7866868788667686U, 0x6888687686886788U,
  0x7676789677766878U, 0x6788767878788768U, 0x7687867776877787U, 0x7688666788666768U,
  0x8767698766877786U, 0x6787786987789777U, 0x6688867868778787U, 0x8666789987686767U,
  0x6576886676678868U, 0x8666766686688868U, 0x8666668866678767U, 0x6866868777877677U,
  0x6777688667878689U, 0x6876678867788887U, 0x6678688878878787U, 0x7768676667678666U,
  0x8788667667766787U, 0x7787767687768766U, 0x6678676769778887U, 0x6666877677786786U,
  0x6687867877875778U, 0x7767688887887787U, 0x7877788788877868U, 0x8767788888898677U,
  0x6866786778976667U, 0x6668876688869787U, 0x8888669868776887U, 0x6887868779867786U,
  0x6887876677666778U, 0x7687776886687687U, 0x6766866767887868U, 0x8766876867778768U,
  0x7776776667776776U, 0x6667667686676667U, 0x8868868688877868U, 0x6766886886688787U,
  0x7777786866787788U, 0x6676876787887766U, 0x7877876788678766U, 0x6768877667789776U,
  0x7867888887766767U, 0x6767788787666887U, 0x7796777997888878U, 0x7977869886867878U,
  0x6877876777799667U, 0x6676788867876667U, 0x6867877777768685U, 0x7666787888668866U,
  0x7868868866877678U, 0x8667787868766677U, 0x7766666768866776U, 0x6768868687687876U,
  0x7866888888868666U, 0x7868777866879667U, 0x6678787768876878U, 0x7678666767677877U,
  0x8777676667678867U, 0x6687888686767867U, 0x8886786676786668U, 0x7767767677688787U,
  0x7778666786776878U, 0x6888787868888677U, 0x8689767777777777U, 0x8769778676886678U,
  0x6677776686686767U, 0x8886665767688587U, 0x7767676866667866U, 0x8777767687667776U,
  0x7868666766676667U, 0x7666886667686767U, 0x8778767676767668U, 0x8678878887766687U,
  0x8868668666886768U, 0x6768787668887868U, 0x8678867777678867U, 0x7888686788867696U,
  0x8686767766667676U, 0x7667768668677978U, 0x6878686866897886U, 0x8887879766686787U,
  0x6688778866787887U, 0x6686968768676888U, 0x8776877677778888U, 0x7768786788887866U,
  0x6677686687667766U, 0x7888666876666768U, 0x7776786766778678U, 0x6688668767688687U,
  0x7887676688788766U, 0x8777686768667678U, 0x8887786768767687U, 0x6877788866687867U,
  0x8878778866778686U, 0x9666886666676866U, 0x7876677777867766U, 0x6776776687667688U,
  0x7768888768788797U, 0x7786876678878889U, 0x6676768688866866U, 0x8697778877978868U,
  0x7777677888766787U, 0x6768676778768897U, 0x6668676666687787U, 0x6687876766668678U,
  0x6668776877678878U, 0x7877678876876877U, 0x7667867788866678U, 0x6668788877868667U,
  0x7777788786886766U, 0x6876677667887766U, 0x8668768886878777U, 0x7687787776877777U,
  0x7687787888667678U, 0x7667786678678987U, 0x6686886886777676U, 0x7787668888867676U,
  0x7666768878877877U, 0x7887667886786676U, 0x7887868696666887U, 0x7687666686866766U,
  0x8889867776887887U, 0x6777677767766767U, 0x7867787867886767U, 0x6868788678888767U,
  0x8686878867867666U, 0x8787788666886666U, 0x8766876767687668U, 0x6777777667877777U,
  0x8778888668876878U, 0x7777886676767887U, 0x7786867877666689U, 0x7868867677877886U,
  0x8898868677688666U, 0x8678778778768687U, 0x7686867677686696U, 0x7777876868866666U,
  0x7677786876677887U, 0x6766766688866677U, 0x6778687876866768U, 0x6766768689767776U,
  0x8776688666676877U, 0x7787676868866768U, 0x8668866776866877U, 0x6668686766676668U,
  0x7687687677768878U, 0x6787686767876686U, 0x6666866686776767U, 0x7687878766667868U,
  0x7876976778686867U, 0x8688877976776786U, 0x7678787668688767U, 0x8767776867766887U,
  0x8697686866678776U, 0x7688778676888768U, 0x8888887876778878U, 0x6666877887678867U,
  0x6676766687868667U, 0x7866767866668876U, 0x6868878768787688U, 0x8778778686867666U,
  0x6867767888677768U, 0x6878666668777877U, 0x8786768676876676U, 0x8766676686676768U,
  0x7867768866876777U, 0x6788888776687868U, 0x6677866777777667U, 0x7877867867668767U,
  0x7678876887777667U, 0x8866887676776676U, 0x6866787767766676U, 0x8887678878868666U,
  0x7776686766778878U, 0x6668867676768667U, 0x6886788676886876U, 0x8687678867686887U,
  0x7887866888678687U, 0x8887776787878868U, 0x8776866787686768U, 0x6888788878866677U,
  0x7787767878867768U, 0x6766766686677677U, 0x8668776778676876U, 0x7888766876886876U,
  0x6857666678678768U, 0x8887867796686878U, 0x8688697876776688U, 0x8686888867888879U,
  0x7686688776667876U, 0x8878868887777688U, 0x8878866776676877U, 0x6677768676677678U,
  0x6878688678967897U, 0x7867766878676688U, 0x6686688677576787U, 0x7686686788777686U,
  0x8766886876788787U, 0x8787666867788888U, 0x8867678768786888U, 0x6688766686688788U,
  0x6787868776786788U, 0x7888666768667777U, 0x7668678578667877U, 0x6868677777787676U,
  0x7687776876888967U, 0x8987866768676787U, 0x6886868768867696U, 0x8887686866677867U,
  0x6877887878688868U, 0x7896778787887878U, 0x7678678667877668U, 0x8888768787878688U,
  0x6686676887878776U, 0x8687687778887677U, 0x8766777867687678U, 0x8687687686768867U,
  0x8676768877687876U, 0x7688867678868686U, 0x7676686676678767U, 0x6676686677767766U,
  0x6867787768767668U, 0x5787667686865886U, 0x8767686786766888U, 0x6867768786777776U,
  0x6677767797786886U, 0x7667668886787876U, 0x6866667888678868U, 0x6667686887778878U,
  0x6776778886786678U, 0x8887878776977788U, 0x6878676888778777U, 0x6887668688778687U,
  0x7767768776667677U, 0x8766887778678766U, 0x7876866789687867U, 0x6687668767678687U,
  0x7776788887667687U, 0x8876677768676688U, 0x7768778666786886U, 0x8667688578667866U,
  0x8866667786768876U, 0x7866866766688767U, 0x8787766877776666U, 0x9988887888787766U,
  0x7866887887688666U, 0x8878786666878686U, 0x8877677966676886U, 0x8876888667867687U,
  0x6777766668668686U, 0x6668787777878776U, 0x6787667767788888U, 0x7678886866878687U,
  0x6878688876767768U, 0x7688886886866768U, 0x7878787776876777U, 0x8866688776788686U,
  0x8686876768766677U, 0x8778667766668868U, 0x7687867878776886U, 0x8776886686787877U,
  0x8678687767766777U, 0x8788878768887877U, 0x7687686778986687U, 0x8686767686788697U,
  0x7787776667778868U, 0x6766766866668688U, 0x7686887776668776U, 0x6677888786786786U,
  0x6687768887677666U, 0x8886888876668678U, 0x6866688776677888U, 0x8788866768888778U,
  0x8876788676888686U, 0x7567778888888667U, 0x8868866878786768U, 0x7686688876688678U,
  0x7767778867886877U, 0x6788788886757668U, 0x6888886666688776U, 0x9886778687767867U,
  0x8677866666766888U, 0x7668977797969666U, 0x7867776778866888U, 0x6687886687686688U,
  0x8868786776868787U, 0x7677677688767767U, 0x7687868677866888U, 0x8776666668668666U,
  0x8877866667878867U, 0x8886768767866868U, 0x7677868768688778U, 0x7786788666676786U,
  0x7768766876866676U, 0x8667666867676778U, 0x6766776666777888U, 0x6866688868886878U,
  0x8778886866686888U, 0x8887877668768688U, 0x8788766677866876U, 0x6888667787787687U,
  0x8668887687786887U, 0x8867888777866676U, 0x7766867878876868U, 0x8668776866678766U,
  0x7666766666787667U, 0x6667866778886677U, 0x8667666767676687U, 0x6666876768866866U,
  0x6868687778667676U, 0x7687778888877686U, 0x8868868888768678U, 0x8667866676667787U,
  0x7768776886776686U, 0x7887868867886886U, 0x6877768687766776U, 0x7866867667767786U,
  0x8766777767778688U, 0x8767686676676877U, 0x7666768668687886U, 0x6877778676868878U,
  0x7887776878786877U, 0x6788776766667678U, 0x6768877868667876U, 0x8688868788877678U,
  0x6768776768688787U, 0x6887686766777787U, 0x7668897767767686U, 0x8887667866866778U,
  0x6867767687686688U, 0x7877787868666876U, 0x6676678678668887U, 0x6677777676668786U,
  0x7666867776867886U, 0x7868777766866876U, 0x8867676877687576U, 0x8777677666868687U,
  0x8797878878788767U, 0x7768876788877766U, 0x8868887868886787U, 0x7878768896889876U,
  0x7686776676777688U, 0x8776768668677788U, 0x8867777888777878U, 0x6888676686888686U,
  0x8788668668766677U, 0x8686766786888667U, 0x8686786676876787U, 0x7686687666678766U,
  0x7687777678667678U, 0x8886687886876878U, 0x7878867786687887U, 0x6866686776877687U,
  0x8768776777877786U, 0x8666877786776886U, 0x6876876888786768U, 0x8777788676878766U,
  0x7687867878679777U, 0x7886878688677678U, 0x6686686878777889U, 0x8677787888888768U,
  0x6768687876688877U, 0x6677876667668688U, 0x6766788786686787U, 0x6667777666868868U,
  0x7687678886776668U, 0x7787687878676776U, 0x7886666866787888U, 0x7886666867666678U,
  0x7668877868667766U, 0x6677767788778686U, 0x7768687776786788U, 0x7787686766787676U,
  0x7677777776868667U, 0x7769878668787676U, 0x8886878788767878U, 0x7667887887868888U,
  0x7969686789868868U, 0x7787678689986777U, 0x8888668867868867U, 0x8876867867868666U,
  0x8688686677666666U, 0x6876778887667766U, 0x7877877688786768U, 0x7876867866888667U,
  0x6776676696876676U, 0x7668867686886777U, 0x7677877677676687U, 0x6887867686676778U,
  0x8678776686878767U, 0x6666686766788767U, 0x6667666687787686U, 0x6678877866886768U,
  0x7687868687787866U, 0x8867677688788886U, 0x7667677887788866U, 0x6679868767786678U,
  0x6778976678667668U, 0x8777868778666669U, 0x8768877878888777U, 0x6877866668678876U,
  0x6788698887867766U, 0x7886878668767868U, 0x9668887686888866U, 0x6767666768768766U,
  0x6867668876778866U, 0x8767786768687668U, 0x8876686688778677U, 0x6776778676688768U,
  0x7676666678686786U, 0x8688676786887767U, 0x7866657787867678U, 0x7777778886887668U,
  0x7867886766787886U, 0x8787667669868677U, 0x8667878878676666U, 0x7867778676887968U,
  0x9788776868887877U, 0x6778868666866788U, 0x8876666797778776U, 0x8686778677868767U,
  0x7877787666686877U, 0x7788686876778766U, 0x6666768776766888U, 0x7888866766666686U,
  0x8778667888766688U, 0x7668788667878666U, 0x6687686788866766U, 0x6666867688678677U,
  0x8666776668668776U, 0x6688866677786887U, 0x6777887777877788U, 0x8666886777868787U,
  0x8767888978788779U, 0x6766878876777677U, 0x7768768769888867U, 0x7787668667889888U,
  0x7876778787867776U, 0x6676678777866668U, 0x7878688778766886U, 0x6688868786667668U,
  0x8788876678678667U, 0x7767686867868677U, 0x7886877868666767U, 0x7868866786679868U,
  0x6876697878777676U, 0x6667886888667778U, 0x7788767787866686U, 0x8886878988688777U,
  0x6887777776877887U, 0x7877666788867676U, 0x8786686788767667U, 0x7686786668677887U,
  0x7788776676669866U, 0x6877868867667778U, 0x6788676786688888U, 0x7676768786677888U,
  0x8776788668786876U, 0x6767877687886667U, 0x8886676777666766U, 0x6786686677777668U,
  0x9886868786888787U, 0x7666767766787676U, 0x7867667867697667U, 0x7887667667778876U,
  0x6887667678767777U, 0x8866767687668667U, 0x6766867767878787U, 0x6787686677766768U,
  0x8688797687766888U, 0x7877888866776767U, 0x6768886787778767U, 0x7886788676976887U,
  0x7677868876678788U, 0x6766688877777687U, 0x6766878778786887U, 0x6678768787786887U,
  0x8766766786666886U, 0x7867676788878767U, 0x6868777778777678U, 0x7688878776776667U,
  0x6668776867888666U, 0x7677786877776767U, 0x7766888766867768U, 0x7666667888787877U,
  0x7786667678688667U, 0x7866777686886877U, 0x8878677787676686U, 0x8868868787767677U,
  0x7688786766667896U, 0x7667668777768867U, 0x7688688777868878U, 0x7878786886878688U,
  0x7686878766676787U, 0x6887666776776766U, 0x6766678668887888U, 0x8888778686667786U,
  0x7777866667866667U, 0x6678688687778667U, 0x7688688886768788U, 0x7776867866678667U,
  0x8877877866797777U, 0x8776788666768976U, 0x6676766677676768U, 0x6668886678677886U,
  0x7877886876666678U, 0x8786766897668877U, 0x6686767866667686U, 0x7788867766768786U,
  0x7776688766667688U, 0x6867877876868686U, 0x7876888887666866U, 0x8767677767887888U,
  0x8877777766866766U, 0x7676786667668886U, 0x6676887668866867U, 0x7887666667878687U,
  0x8778888668866688U, 0x6667666776788667U, 0x6866868886877677U, 0x7766878678778886U,
  0x7766676767876676U, 0x7886767867878777U, 0x8766776766777767U, 0x7666677766877866U,
  0x8876668676878666U, 0x7866868867787787U, 0x8877668877777879U, 0x8876766867786887U,
  0x8767666778878677U, 0x7786886687776678U, 0x8887767687866666U, 0x6888868778668678U,
  0x8868778776787687U, 0x7867786788677878U, 0x6766788767876876U, 0x7667677767766767U,
  0x6798888676877677U, 0x7668766767878668U, 0x6677888688667877U, 0x6566757578767566U,
  0x8887786666768776U, 0x6668786766686868U, 0x869a899989799789U, 0x9968777787868896U,
  0xa999899789689877U, 0x8666677889778899U, 0x7977978888865789U, 0x7969878988898879U,
  0x7967779767779766U, 0x6977777987979897U, 0x7878688696879676U, 0x7898987888888887U,
  0x7889a87a98886797U, 0x7a78687679679768U, 0x7788888877797868U, 0x5589869977778666U,
  0x7878676577775677U, 0x6675657767678787U, 0x5656776666856667U, 0x7876576766688677U,
  0x9588796667686677U, 0x6879887a78797788U, 0x8778666676777889U, 0x9998777997799997U,
  0x6788779778898879U, 0x8978798997777898U, 0x979988a888a89979U, 0x88999779aaa79aa8U,
  0x8988988898699999U, 0x8779898877989787U, 0x989a779977877686U, 0x6888886886997899U,
  0x8666867867868677U, 0x7786856867777868U, 0x8876656575667876U, 0x8768677776767766U,
  0x7576757665866857U, 0x6678877576575665U, 0x6765777676798768U, 0x6986867868677796U,
  0x88878977a9889868U, 0x9778978788889899U, 0x8688979899a87978U, 0x9978889989698979U,
  0x9998877767887677U, 0x9899898787969999U, 0x8aa7989a797997a7U, 0x788799877897878aU,
  0x8899678868688798U, 0x9897879a78778878U, 0x766998978897867aU, 0x6677957899797978U,
  0x7698998778696666U, 0x9777767886686878U, 0x7676756667756868U, 0x6675565676577567U,
  0x6778998756877775U, 0x8967665778867679U, 0x8789798996997868U, 0x9879986878998879U,
  0x9898798868797987U, 0x9978779797787999U, 0x8866888798899879U, 0x7668768876876777U,
  0x7886986878776668U, 0x6689897869676788U, 0x7878877798967797U, 0x8996777977898879U,
  0x779989979a9a9979U, 0x9977a889a9899a79U, 0x8878968876787796U, 0x7668677786788777U,
  0x7887889898888797U, 0x5765656566677797U, 0x6676755758766567U, 0x6796885766877868U,
  0x7866886866876686U, 0x7899666887676769U, 0x8aa9797889797898U, 0x9989977779987799U,
  0x6877999798a99977U, 0x8878766666986866U, 0x7776688797897766U, 0x6767789878677677U,
  0x6787757888886787U, 0x7876667678866776U, 0x998888a99a788989U, 0x98aa789787968998U,
  0x88977988899a99a7U, 0x7866867576986768U, 0x6786678786887689U, 0x6668677967977997U,
  0x5876565557676656U, 0x7878677675856678U, 0x8876567576767675U, 0x6787797979977878U,
  0x9899996768687777U, 0xa8977888a8988987U, 0x9699778769899868U, 0x6766776678767997U,
  0x9777588775766686U, 0x867878a89889a778U, 0x8889976987787989U, 0x655557789677a9a6U,
  0x8866788688666778U, 0x7797997998789a89U, 0x978989a9887789a7U, 0x9978879999999989U,
  0x9978977867686798U, 0x8866877765677996U, 0x6666888677665756U, 0x7786586556857777U,
  0x7676876788876776U, 0x8988769577768667U, 0x9887887698976878U, 0x8788788898788898U,
  0x8988889888878788U, 0x88686767778867a9U, 0x9886676768577776U, 0x9878887779779788U,
  0x5786865777988889U, 0x8798779777787686U, 0x9666979987888797U, 0x8688576657765569U,
  0x9989899768886867U, 0x8878889787898789U, 0x8678899999778888U, 0x8988677667787868U,
  0x8778776778896978U, 0x8878678787768688U, 0x8868687777786575U, 0x7866788969677686U,
  0x6788799879868679U, 0x8778886778786896U, 0x8978887768799777U, 0x6689877877999979U,
  0x8878677767687868U, 0x6887688689799879U, 0x8867898998776868U, 0x8675787758668776U,
  0x7887899677896866U, 0x8698776668657687U, 0x7556786667767788U, 0x7899778778885866U,
  0x999988767677869aU, 0x6667676666667787U, 0x7677998988768877U, 0x6676876977869978U,
  0x7675768867867657U, 0x8679768777567776U, 0x8787878987767989U, 0x88a8878a99776778U,
  0x7987976678897788U, 0x6967888978879897U, 0x7786766678757768U, 0x6867787767979868U,
  0x5676657766866877U, 0x8786867676768677U, 0x9667776688986687U, 0x7877886868888887U,
  0x8778777686578788U, 0x7767679767989887U, 0x7698787887767787U, 0x8887879777897696U,
  0x6877788989768679U, 0x7867956897999998U, 0x7896798989689777U, 0x7687677777665576U,
  0x7899997a68686768U, 0x6778789999778778U, 0x9799799999789687U, 0x8997769779677987U,
  0x7678566787877686U, 0x8768798868886686U, 0x7878666767855688U, 0x9786698766776667U,
  0x6779667667679978U, 0x7767978787878987U, 0x5776667888798678U, 0x6668668767677886U,
  0x6676887887887776U, 0x8886687678788687U, 0x9779997768977979U, 0x7788877678788998U,
  0x8898777776558786U, 0x7688788877777797U, 0x6755666766857678U, 0x7878698797886865U,
  0x6687769788787978U, 0x6778799787977777U, 0x8867667686668979U, 0x8668577768666876U,
  0x8668777688778968U, 0x9778796668566666U, 0x7977999966878678U, 0x6687887888666969U,
  0x9997868876886867U, 0x8778878668877668U, 0x6586776667687787U, 0x6665666786666765U,
  0x9878878688686688U, 0x8678968866788899U, 0x6686677866878887U, 0x7979668678877866U,
  0x5576767786878899U, 0x7766567556575665U, 0x7778978868989897U, 0x8797676787788999U,
  0x7879796886888877U, 0x8678666667687667U, 0x6669767679767766U, 0x7778776785767665U,
  0x9888676767886766U, 0x8979989787787979U, 0x9776867777666977U, 0x7988668888798987U,
  0x6769687787889988U, 0x7667578765778868U, 0x7758877768656756U, 0x7697597868778687U,
  0x6776789877887787U, 0x9667676778768766U, 0x6779867997678876U, 0x5555567667678886U,
  0x9888666667574566U, 0x79a9877888877898U, 0x88a9788897688998U, 0x8786867898769779U,
  0x6886766786657867U, 0x5665585675556576U, 0x6667867877666577U, 0x8799668777976778U,
  0x989897a789988877U, 0x7797977988888798U, 0x7897798997989988U, 0x8777677768887686U,
  0x7757766787767788U, 0x7788687666855867U, 0x6888867777777666U, 0x7777776699968788U,
  0x7899777788686788U, 0x8877878988876978U, 0x7665655656657686U, 0x6658877787796655U,
  0x9788998987998667U, 0x7787868789697677U, 0x8678688768865698U, 0x6666567777778575U,
  0x7766865675677666U, 0x7687976677866886U, 0x7788798677778868U, 0x887888787989a998U,
  0x9899998878987777U, 0x87877988798997a9U, 0x7688767666668699U, 0x8876766786677789U,
  0x7766585675578678U, 0x6888688676766667U, 0x8788767877877977U, 0x9898799a87878968U,
  0x9669986876788787U, 0x5867775786557776U, 0x7887976777766767U, 0x8688697678878668U,
  0x9879877889788867U, 0x7767788665767666U, 0x6655878767576765U, 0x8789967776785787U,
  0x8798898987767668U, 0x987898978a878789U, 0x8876999887798889U, 0x7889887889879968U,
  0x787877999a978989U, 0x7977878788967978U, 0x5876566666588986U, 0x6879876756567668U,
  0x7879866685666777U, 0x9879686877986787U, 0x9989979998887797U, 0x6688878997976989U,
  0x7677758967886786U, 0x8879867969877888U, 0x8777676668977987U, 0x7686788787788787U,
  0x7555576568897778U, 0x7886686886576676U, 0x9989789966677897U, 0x8897798789876778U,
  0x9987979879999997U, 0x8688898767789687U, 0x7999887978878778U, 0x8888888987788897U,
  0x8767677786678978U, 0x6866779688999767U, 0x6868566656765686U, 0x7777677878666785U,
  0x6866667777997989U, 0x799a878678a99878U, 0x8888986877687788U, 0x8876786778676778U,
  0x6777777887877677U, 0x9979887897899797U, 0x7687886577899798U, 0x6767666856766667U,
  0x8787779777776877U, 0x8998977897778688U, 0x9798987978987987U, 0x8768779989879977U,
  0x6677767868766866U, 0x8777897777769988U, 0x7776988687899877U, 0x8787788886879769U,
  0x8866757777986787U, 0x7897866576577685U, 0x7968776788686766U, 0x7978866988786678U,
  0x8976778887779988U, 0x7586778666676789U, 0x6787798978767776U, 0x8768687685868665U,
  0x8777669868867967U, 0x7556756887776986U, 0x7778868686667665U, 0x9877977986677886U,
  0x8778799889977778U, 0x9777799968898778U, 0x7778788979778989U, 0x7899a88988777976U,
  0x7768897886797878U, 0x8788987997897676U, 0x6868977689699988U, 0x6786688876887878U,
  0x9879776776658587U, 0x6987776678676878U, 0x6677767778787776U, 0x7686898778779868U,
  0x9767766767666776U, 0x5777688889788878U, 0x7877687876657586U, 0x8867678788977867U,
  0x6787788865676966U, 0x9877697789786678U, 0x7779777978897796U, 0x9788989787767978U,
  0x7998976889878888U, 0x9997789879698978U, 0x98898888798aa76aU, 0x7887886767976789U,
  0x7988676766897897U, 0x6967779986879797U, 0x7658688568868667U, 0x7769776767556677U,
  0x6886566877778778U, 0x6787678766676878U, 0x6777796767867979U, 0x9879678566875887U,
  0x7876676875867666U, 0x7787886879786766U, 0x8777788996878796U, 0x6768687678788856U,
  0x8786778979678779U, 0x6786688878688887U, 0x7688789877887688U, 0x8775778677777767U,
  0x997a978688a98667U, 0x7886987767986987U, 0x7797877777776877U, 0x8667787788876676U,
  0x7789689789777777U, 0x7767867999776677U, 0x8876779868766676U, 0x6668856777787568U,
  0x8986977989888886U, 0x8686767676998987U, 0x7666667687687878U, 0x7787678886655856U,
  0x8876788687676696U, 0x6886689768888688U, 0x6897785798766977U, 0x7877986988877876U,
  0x7687878667769787U, 0x6966787896777977U, 0x78699a7759897667U, 0x6998866978768788U,
  0x8776767998697988U, 0x9766699889687877U, 0x6968786857658876U, 0x6967977779687979U,
  0x8775767776787897U, 0x6768889876686757U, 0x8888676556776676U, 0x9967888896687796U,
  0x8666786666797686U, 0x7876778667767877U, 0x8878878786677667U, 0x7788897767867676U,
  0x7789678877676686U, 0x7898886977689676U, 0x8866879878696887U, 0x7998776a87688887U,
  0x8658678657768797U, 0x7778867889787879U, 0xaa98598996578875U, 0x7677898866997589U,
  0x8766869799868878U, 0x8977986986776676U, 0x7676787978887887U, 0x8577676778878889U,
  0x8778978787885656U, 0x8666666665777788U, 0x7877778778779798U, 0x7768668797686787U,
  0x8877677788776688U, 0x8666867767899878U, 0x7876677678876878U, 0x7896797765768775U,
  0x8669889876787978U, 0x7977968798987887U, 0x665867a787798879U, 0x8a98875a67766756U,
  0x6554569986689898U, 0x779999a858986747U, 0x7767857769859779U, 0x78879677a9679767U,
  0x7868997679896775U, 0x6689776778898668U, 0x6567777868856788U, 0x6885569696778656U,
  0x9688789787667665U, 0x9798896777888798U, 0x8676688676668886U, 0x8988876876868666U,
  0x8967868866976797U, 0x7778766776766877U, 0x6677878676796678U, 0x7867887787876788U,
  0x8789897786868897U, 0x8988765676898987U, 0x968589aa88aa9978U, 0x7568988647768569U,
  0x58879767766567a9U, 0x7767676878887888U, 0x7767678967797887U, 0x8686667779878756U,
  0x8768787767786977U, 0x6585588765888776U, 0x8778666577779988U, 0x6798989788998767U,
  0x8986678787778887U, 0x6798868787885776U, 0x6876779997787667U, 0x8897699986896686U,
  0x7867687777678776U, 0x8686996977877797U, 0x9896877778887878U, 0x9679999878987787U,
  0xaa87576777778877U, 0x9968887667798787U, 0x8698977799966a98U, 0x8696565675578785U,
  0x8879976776786567U, 0x7767676888998779U, 0x6879766788688878U, 0x6997697696887978U,
  0x6868788658867777U, 0x6776687787987898U, 0x8898898877787988U, 0x6867998879788786U,
  0x8897886886888868U, 0x6787677896787799U, 0x87667877778a7988U, 0x6698898997877766U,
  0x6798888677989988U, 0x8968669768889966U, 0x6777988987779897U, 0x989a999558787566U,
  0x4a6754747995a89aU, 0x9986385465768996U, 0x6556678689797689U, 0x6779885867766868U,
  0x8887685667668988U, 0x9798898897978688U, 0x7869878787787799U, 0x8878786578865698U,
  0x7898888867766897U, 0x7788999999898878U, 0x6668676687889766U, 0x9888796977667667U,
  0x8769768689679679U, 0x7967586888987898U, 0x6786877976799788U, 0x8778887787898769U,
  0x8a98987687768798U, 0x8767798768878987U, 0x6988996a69876799U, 0x89a74a7585689996U,
  0x899a89a779888687U, 0x578765786864978aU, 0x79a7899877776967U, 0x8867667756688787U,
  0x7769989787787998U, 0x8789866997667886U, 0x9998695585676688U, 0x8989778867769787U,
  0x7887688686786878U, 0x7676877887689887U, 0x7678787877776867U, 0x8799899887686667U,
  0x7989797887668677U, 0x8678787778789989U, 0x8667798798767867U, 0x9677799777886877U,
  0x4777656668766778U, 0xa887779ab9698787U, 0x8889aaa97967ba9aU, 0x97a9b96a89a89aaaU,
  0x9986678875769986U, 0x676799a898997868U, 0x8767666776876587U, 0x7887668787776879U,
  0x6877878866778878U, 0x9889977778889689U, 0x7777786688677666U, 0x8767686687787786U,
  0x6868686676667586U, 0x7887867787898778U, 0x66776776a8897777U, 0x8666988798887766U,
  0x7686878978768986U, 0x8867666876787797U, 0x588666968a999889U, 0x8a885a7677887987U,
  0x979aaaa8aabba979U, 0x7aaaaa7a89879899U, 0x9aa9899aaa9aaaa8U, 0x977889a758569786U,
  0x7886788789995977U, 0x6888686778876786U, 0x9878777697679768U, 0x7867876869888877U,
  0x7876887998775677U, 0x6876676668788768U, 0x6576768666788978U, 0x7977966776676656U,
  0x8887696688778776U, 0x8669866765889678U, 0x7768787989878898U, 0x7989996688769696U,
  0x7987786866877688U, 0x6887577685869a99U, 0xa7889a9979688869U, 0x96a998a9aabb8b9aU,
  0xbba87a99b95a7644U, 0x7677899a7999a799U, 0x7899988797987997U, 0x78887776857779a8U,
  0x9777677868887776U, 0x9788779868897879U, 0x7686868788866899U, 0x8968889897987676U,
  0x8999877688988868U, 0x8756676665557698U, 0x6777867798776786U, 0x8678987988689787U,
  0x9788877877866768U, 0x9976998989879798U, 0x9888866877777877U, 0x7889787976686677U,
  0x8666787777799888U, 0x89a9976989766778U, 0x6575a8ab65a99aaaU, 0xa7b9bba859669959U,
  0x677767567797869aU, 0x7899679999887977U, 0x6666786767766596U, 0x8899998669878668U,
  0x8797986898977879U, 0x7665677996668786U, 0x6666779667889987U, 0x7679678878677889U,
  0x8768678788878867U, 0x6767867966666678U, 0x69788598a9978978U, 0x7897897897789996U,
  0x7899978698799797U, 0x6676778777977689U, 0xa967999768776666U, 0x6676665877757688U,
  0x7978999aba7a7996U, 0x8889797668977759U, 0xa9bb988a89857899U, 0x77865878676589a9U,
  0x78878987789a8978U, 0x6878777668667577U, 0x7898789797879667U, 0x8986999878699998U,
  0x7998777676787696U, 0x8776876879777798U, 0x8976677678877976U, 0x8687999866776876U,
  0x7998866788768678U, 0x9799767867679878U, 0x7979899879999887U, 0x7986767879969797U,
  0x7777567767768668U, 0x6977789879a77778U, 0xa9978987777699a7U, 0x7796aaa85988a99aU,
  0x5976654755334465U, 0x9a98a7ab778788a8U, 0x8879689959668779U, 0x6776887798978989U,
  0x8897685767766765U, 0x9878887997787969U, 0x8897797699768899U, 0x8998877776668997U,
  0x8788888867868776U, 0x8977986788788867U, 0x7679866769969898U, 0x7897999868886667U,
  0x9889979988877676U, 0x8999798979788978U, 0x6776898889789798U, 0x8968667665767765U,
  0x9996587689989897U, 0xaa6a999889988788U, 0x577775879aa78a99U, 0xa987697764567795U,
  0x76679a98989b998aU, 0x9899987889a9997aU, 0x7667576685667789U, 0x6877786887887768U,
  0x9999998979798979U, 0x8998998877777968U, 0x9887998968876886U, 0x6776667767766878U,
  0x6979767997889799U, 0x9876688896898979U, 0x8887869698888989U, 0x8879988997978769U,
  0x8896787988988796U, 0x8757688787677969U, 0x7998575875557775U, 0x8997988868888777U,
  0x688788678aa99aaaU, 0x55554565a999a986U, 0x555655aa49765455U, 0x8a98898989866999U,
  0x88997a8a997999a8U, 0x6668787567767577U, 0x7779668787677668U, 0x7889998879879999U,
  0x9698788977687997U, 0x7667989777896576U, 0x6688977997676767U, 0x7997779799869998U,
  0x9987998688769789U, 0x87789866678879aaU, 0x9778788877888789U, 0x9666879886879979U,
  0x5777667767877777U, 0x9799787866557555U, 0x989a987997886668U, 0x8a87695896969aa7U,
  0x6456665446569688U, 0x5a68655588886967U, 0x88978988a7878998U, 0x54647697899aa779U,
  0x7777576568665655U, 0x7889976669787767U, 0x9989689789999979U, 0x7667779668798689U,
  0x8667676699a77868U, 0x8878888979689888U, 0x7587879978987889U, 0x68aa989987876868U,
  0x8876687897766766U, 0x7797798898997878U, 0x6866677867767679U, 0x6665667776666877U,
  0x5867876777665756U, 0x8a7697aa757778a8U, 0xa9a9a9a86a98a888U, 0x87a8775999977798U,
  0x78a96887a67aa989U, 0x86989a9898899968U, 0x676654646777968aU, 0x7688766678855565U,
  0x9789886776688878U, 0x7798688789888779U, 0x7776768788778887U, 0x7876877887779888U,
  0x7899677898998887U, 0x777667666698889aU, 0x6878699a99988778U, 0x8896797669989787U,
  0x6868888898769799U, 0x7686668867867777U, 0x5755655465776556U, 0x9976767797687767U,
  0x7668698899987686U, 0x7a76868787a98a8aU, 0xbaa7689778699779U, 0x99878998787987a9U,
  0x878988888aa86898U, 0x7676766656566586U, 0x8868667678865675U, 0x8789797977686867U,
  0x8776676778999787U, 0x9898797888777797U, 0x9878899888799669U, 0x6788899899a88899U,
  0x7868678765879878U, 0x776798768798a999U, 0x7999766798778877U, 0x5786768697667679U,
  0x7665756575778778U, 0x7955755565655657U, 0x87989a88797aaa89U, 0x699a976978957779U,
  0xa7a8695598999897U, 0x8858788678795466U, 0x999a999998a67999U, 0x55859678a9a98aa8U,
  0x7876576765565564U, 0x7886576665667666U, 0x9778886867678676U, 0x8797789979889797U,
  0x9679888858667679U, 0x7989786896788696U, 0x9987888898789888U, 0xa698998669677777U,
  0x8799966867667678U, 0x7987687888798898U, 0x6685878588888866U, 0x6758856668776758U,
  0xaa89696687668685U, 0x769a98878999a8a9U, 0x9997779a96988a86U, 0x7657868889899789U,
  0x7a9a97699897898aU, 0x89998888a9989aa9U, 0x8866757687988998U, 0x8565868857687566U,
  0x8877778766655675U, 0x9989997797688887U, 0x8566789877779867U, 0x769698998a696776U,
  0x9a97776867786667U, 0x7787878687769898U, 0x7788987988987869U, 0x9997999988886867U,
  0x6886889687777779U, 0x5766855786755667U, 0x5766575796878786U, 0x999a886755698566U,
  0x7968a87999a999a9U, 0xa95a676578877989U, 0x989aa76a977566a9U, 0xaa9a788998787996U,
  0xaa8779a9aa99a998U, 0x9756888676789769U, 0x6778757789666679U, 0x6786756866756666U,
  0x9778878768888667U, 0x7766858989976787U, 0x8987668877798987U, 0x9666877778886868U,
  0x8968977778787668U, 0x87668686887a8a87U, 0x8689778979886876U, 0x7676676877767898U,
  0x7687766685765587U, 0x9868688556678568U, 0x7999998887766799U, 0x98887889978a9ba9U,
  0x7999a68998867989U, 0x9a898989997a8989U, 0xa99989a999a8a99aU, 0x675788a7aa889699U,
  0x6699866778978798U, 0x8876666877679977U, 0x8766866785886756U, 0x6987877898887778U,
  0x6766867887788976U, 0x8887988889897968U, 0x6777777978986688U, 0x7a997a8667887668U,
  0x9978798777857698U, 0x6788866897867969U, 0x7765767788767866U, 0x8799688668677666U,
  0x7867777867877987U, 0xa99989997a788796U, 0x999a88a7a8a888a8U, 0x89a9889aa9899a97U,
  0xa97aaaa88999878aU, 0x9799a79a999999a9U, 0x8667878797998997U, 0x8a99799a97887787U,
  0x6576577678778789U, 0x7776877767867657U, 0x7896897797888886U, 0x8978768766878866U,
  0x6987767865886897U, 0x8776887897899799U, 0x8577a99788668568U, 0x6889676978766775U,
  0x6866776785688878U, 0x8688686577786877U, 0x897aa979a9a89879U, 0x6797697785667698U,
  0x7669a9989a889979U, 0x99a9899997988978U, 0xa6888aa869788699U, 0x999a9a9a9aaa899aU,
  0x89897799a7999aa9U, 0x8678767768688688U, 0x898a9a97a99a9878U, 0x5866667768888899U,
  0x8666675665776667U, 0x7778987869789777U, 0x7898889978656777U, 0x7997877787897667U,
  0x7778888689987789U, 0x587887669a977987U, 0x8777879796678877U, 0x6766757756566567U,
  0x9978987787987687U, 0x6797976686968a99U, 0x7987786968697978U, 0x998aa9aa8a9a889aU,
  0x98aa99a889a97897U, 0xabb99999aaa799aaU, 0x8a88789a9aaaabbaU, 0x8677787868879779U,
  0x7897679978676687U, 0x7799879889998799U, 0x6587667867778986U, 0x8777686756755586U,
  0x6587776987766886U, 0x7787869988996657U, 0x8689877787678886U, 0x79878886888789a9U,
  0x6665675677769988U, 0x7868877878898787U, 0x6868576856566867U, 0x8879789796779898U,
  0x6677877989789998U, 0x9997688686578668U, 0x97879a997aa98889U, 0xaaaa999a999689a9U,
  0xa9baaaaaaabaabaaU, 0x756789888898aa89U, 0x5576757667878898U, 0xa987898877776566U,
  0x7978789997998868U, 0x7766657788799687U, 0x8968687877665656U, 0x5868569886877777U,
  0x8777688758787669U, 0x8977868979787868U, 0x9a99798786677888U, 0x8768868668678677U,
  0x6566676678866777U, 0x7987979777666676U, 0x8a8877899879a689U, 0x676887a9978a9888U,
  0x9988988868686868U, 0x8988a9a9a9889aaaU, 0xbccbabaaaa7a99a9U, 0xa78a9999a9abbabbU,
  0x7778977778878aa8U, 0x8687698666588668U, 0x9788a9877887a979U, 0x9989979877997999U,
  0x6765677776989889U, 0x8777697976766867U, 0x7877676776689876U, 0x7699986878656898U,
  0x8666777678886776U, 0x8666779778966877U, 0x6878767978878687U, 0x7665667668556966U,
  0x9999999997999867U, 0x8787678778888789U, 0x78a7a9a999a98979U, 0x8898977797657779U,
  0xaa9989a9998a9a98U, 0xaabbbcba9bbba879U, 0x8888968799a9aaaaU, 0x6697698866798689U,
  0x86778aa85a788658U, 0x8a767697889689a8U, 0x88a999788a89a99aU, 0x78567858787888a7U,
  0x8869986787999678U, 0x8998988876665677U, 0x8686686866576887U, 0x6688677586878667U,
  0x8967767698977976U, 0x6687878777878988U, 0x8988896656768586U, 0x9766a78989a9a9a8U,
  0x97a7aa888788998aU, 0x9689687899788889U, 0x8a9a7a8799a89a89U, 0x98999a9a89a9a9a9U,
  0x9a99abaaabaa9aaaU, 0x89877698977988a7U, 0x897987889a989998U, 0x9789798977996999U,
  0x779889a796997966U, 0x8898799989799988U, 0x6868867777677786U, 0x6698978877988978U,
  0x5666687987686677U, 0x9677887786686856U, 0x9878767897786887U, 0x8996777887569789U,
  0x5577567768878989U, 0x999a997988776657U, 0x887896769789a8a9U, 0x979999a99a558675U,
  0x9978978899987788U, 0x99876989aa9a8a9aU, 0xab99979aba89aa99U, 0xa9876978899aaaaaU,
  0x9999a99978677899U, 0x798977989899a899U, 0x5679799766787688U, 0x7788879897888676U,
  0x8788999989999899U, 0x8887867677878787U, 0x6687569989799798U, 0x7677887879889778U,
  0x8998669889786676U, 0x9999978686688875U, 0x7789877779788656U, 0x6675677777766787U,
  0x9aa89aaa99988896U, 0x8778589688989989U, 0xa999898789968768U, 0x986a7889989678a6U,
  0x9aa8aaa9aa99a789U, 0xa99b8a899aa9ba99U, 0x988899aa99a97799U, 0x999aaa9999aaa99aU,
  0x8899796769a78a88U, 0x7797778776556675U, 0x9899969698895777U, 0x7877988998a8aaa9U,
  0x8877887877766788U, 0x9889667656789978U, 0x7789676687787797U, 0x5787777776668777U,
  0x7777867987776667U, 0x7687868879766868U, 0x7988668768868676U, 0x6657999899aa9788U,
  0x79a9987878766767U, 0x8987899886687897U, 0x98a8785656787976U, 0x8798a99999aa9a9aU,
  0x768689a989778988U, 0xa99a99a988997977U, 0xa9778587aa9a97aaU, 0x79877679665577a7U,
  0x8967676676989889U, 0x9aaaa99987766598U, 0x68676677889799a8U, 0x8677988868977758U,
  0x6789898767877877U, 0x8986677778788776U, 0x8656888868788789U, 0x7779557687889978U,
  0x8876697886787898U, 0xa68a888776866878U, 0x8768978777a78a99U, 0x6987567798676676U,
  0x9588987787758656U, 0x9967889958877566U, 0x89a998aa888a9878U, 0x7a88678888767998U,
  0x879a987999a998aaU, 0x9869865678678988U, 0x97a7788787888889U, 0x7788774678767788U,
  0x89a99a9988668986U, 0x767776667678a699U, 0x5878777798786977U, 0x8698788896688888U,
  0x7767999689988778U, 0x7886756867967888U, 0x6898586776789776U, 0x7686668886899988U,
  0x7899a89989978877U, 0x6885869968578798U, 0x9497555466778568U, 0x8667899999494545U,
  0x88a7995895796665U, 0x998aa9a9aba9aa99U, 0x998a788998989789U, 0x9878999a999aaa99U,
  0x6556668888775967U, 0x7876676788887755U, 0x6767767996679788U, 0xa69a88a8887a7786U,
  0x8866777756868779U, 0x8787677876778787U, 0x7986767768869699U, 0x7678768989766999U,
  0x7887896778868786U, 0x8778998677887566U, 0x6668686687669779U, 0x78a7899aa898a988U,
  0x97789a88878a7964U, 0x6686474454566686U, 0x77977789aa8a7788U, 0x89668896aa789689U,
  0x7685a7aaa99a9a99U, 0x787767888999a879U, 0x8767996866a98a98U, 0x9797676686788886U,
  0x69768976564544a6U, 0x865657767789a79aU, 0x768986799a996989U, 0x6677869766867666U,
  0x8868788766898666U, 0x9978786668777799U, 0x8678879998788798U, 0x9666989867777856U,
  0x7778786878777777U, 0x9aa9686776765787U, 0x665767856679a89aU, 0x8767957699886898U,
  0x5698975565876666U, 0xa8aa77899689999aU, 0x9a98897776977787U, 0x997a878697a99998U,
  0x9a87678787877997U, 0x97789977a99a78aaU, 0x6857447859667977U, 0x6557899878665566U,
  0x8877765589867875U, 0x88868768a889aa7aU, 0x7877886888785786U, 0x6887788987676887U,
  0x8786687866567886U, 0x7666887877777867U, 0x7887866689966677U, 0x6676799876887887U,
  0xa89aaa7869866778U, 0x8568967677866588U, 0xaa98999978796898U, 0x7978555776888979U,
  0x8798797656879799U, 0x9a898a7776867698U, 0x9899a88989999a9aU, 0x9888998689797788U,
  0x7897989799766699U, 0x898aa96a66986877U, 0x87996888a889899aU, 0x8a99896896666888U,
  0x8778689768878779U, 0x5867876888668789U, 0x6788879998686766U, 0x9679666878786757U,
  0x6966666777886999U, 0x9977587687676768U, 0x7778666689789699U, 0x677aa6899aa88866U,
  0xa9697588a7998897U, 0x8677aa7a56a9a99aU, 0x8968675545768855U, 0x55747889aaaa79a6U,
  0x999aa97a87567566U, 0x8777998899989998U, 0x998aaa7867887989U, 0x4645457589aa9a87U,
  0x9978a6aa68474556U, 0x99a9a88698a9aa9aU, 0xa89a8a8a67888678U, 0x8996768866987679U,
  0x5575768898799777U, 0x7857768576787667U, 0x8988966879868766U, 0x8767866665679797U,
  0x7866878886687557U, 0x6667887668687678U, 0x789757889799aa77U, 0xba9baa786788879aU,
  0x7865969969957aabU, 0xba99799879675797U, 0x786777665589b8abU, 0xa9a87ba8a9698979U,
  0x6976578788997789U, 0x88a9a88aa7689699U, 0x6688775578889886U, 0xab99aa9baa8a9968U,
  0x67759a686878b8aaU, 0x9689a79a99799877U, 0x8878898679879888U, 0x6677667767777876U,
  0x6898766677887888U, 0x7676879788688698U, 0x5767776887766687U, 0x7677968676767976U,
  0x8a79687788878998U, 0x956866755678a59aU, 0x899ab88aa9997876U, 0x6785989a79547aa6U,
  0x885676a888999669U, 0x8878889866787889U, 0x989abaa99b99986aU, 0x76866786667688a9U,
  0x797a877788778657U, 0x79a99a99876889a7U, 0x8899abaaa978b89aU, 0x6679775586966798U,
  0x97667697a89a8a78U, 0x9687879779788888U, 0x5697977966655696U, 0x7677688997687786U,
  0x6678887877776667U, 0x7877776788766866U, 0x9886879889899967U, 0xa779898788767887U,
  0x8999985679764899U, 0xab7a788987696794U, 0x978a79b689899769U, 0x77779889aaa98a66U,
  0xa97a989987796877U, 0xa9a98799a9a97aa9U, 0x8877987967687797U, 0xaa9a789aa8aa7769U,
  0xb8ababa8799a9868U, 0x789989588786879aU, 0xaa98787677666785U, 0x9798897787789799U,
  0x6588768977787988U, 0x5665578877675775U, 0x5665577768896758U, 0x8767868888777665U,
  0x8885578677676886U, 0x7776768677879979U, 0x7698a77899787887U, 0x687757aaa7979896U,
  0xb889ab7867779689U, 0x8aaa98799a8866abU, 0x57768777a7aa9aaaU, 0xabbab99a99976766U,
  0x76888aaab89abaaaU, 0xaa8b987778776676U, 0xb69aa9b8999aa8aaU, 0x7867a59ababaab87U,
  0x9988787968689979U, 0xa8898a8898799866U, 0x8896766976877779U, 0x5765567687688787U,
  0x6866786876769787U, 0x6766556667665667U, 0x9776768786686798U, 0x7778867765785576U,
  0x6869667797998998U, 0x6876787876777966U, 0x675799aa99aaa779U, 0x768a9978aaa89a79U,
  0x89a788ba8b888876U, 0x89a9799998989899U, 0xa898babbaa9a8897U, 0x797899987798999aU,
  0x9968a999a8998878U, 0x9a8aa66879b79a98U, 0x788556aaa89999b8U, 0x977897997669869aU,
  0x7986867899797986U, 0x8666888978689987U, 0x6569775665678657U, 0x6778858666766666U,
  0x9777688857576867U, 0x6578977767968888U, 0x9779687868766756U, 0x5886566976987996U,
  0x8989669766989798U, 0x9977957798875699U, 0xaa9947aaa8686895U, 0x878899b6aababa9aU,
  0x78988a7777967768U, 0x897a8786a8aaa999U, 0x696677979a8699a8U, 0xaaba7a9977997989U,
  0x8a999aaa76899aa8U, 0x7669687877877966U, 0x9869756799898865U, 0x7887996887589a88U,
  0x7556776787978987U, 0x6765858687675567U, 0x7775767665688766U, 0x8767986868877876U,
  0x5855856788675878U, 0x9799977987776786U, 0x9787676687898899U, 0x6798786755756688U,
  0x88787776958a7787U, 0xbbbb9aa979aaaa9aU, 0x88989798998868bbU, 0xbb9a8a7788668996U,
  0xa8aa988a99a9a9baU, 0x98a9889778767697U, 0xaaaaaa9999a9a99aU, 0x8689aa9979a9977aU,
  0x7768968789675889U, 0x99978967576778a6U, 0x9888978768777688U, 0x6666865786877796U,
  0x7677686767579868U, 0x8889887777667687U, 0x8887878876798697U, 0x6877557666677676U,
  0x7889979799888676U, 0x7798687878877898U, 0x9969568878687685U, 0x9868769767868577U,
  0x8a99988988a79a99U, 0x7688868977677797U, 0x9aaaaa9a89866765U, 0x66a7a9a989888998U,
  0x8885986878864575U, 0xaa799aa9aaa97a65U, 0x588898789a8879aaU, 0x9997998686797969U,
  0x8877778676677677U, 0x8898979997788868U, 0x8666665664677777U, 0x9886686667766786U,
  0x8676877687786899U, 0x6685767796897697U, 0x7878566855768667U, 0x8799997997798979U,
  0x6896668797686796U, 0x8799aa7a878a8779U, 0x869897aa89776689U, 0x878666889a989776U,
  0x8a86677678556656U, 0x9899998999a9aaa8U, 0x668897a898988887U, 0x5976567585886966U,
  0x879977776878a888U, 0x886875778766a889U, 0x678697777899a79aU, 0x8887788976776777U,
  0x6667689797778777U, 0x6668677677576565U, 0x6878868888776678U, 0x7867786798777686U,
  0x7778567767979789U, 0x8777857778566687U, 0x6878899998799988U, 0x9796887676768878U,
  0x67a98a9a79678777U, 0xa99aa98898987778U, 0x7657779779799aaaU, 0x8a89999876565666U,
  0x9889999799a9a99aU, 0x8887768776787977U, 0x9779676866767666U, 0x8888978888999a6aU,
  0x7679789879786986U, 0x6788697688786779U, 0xa897888998879977U, 0x6565668677789988U,
  0x6666666876767766U, 0x7677776665768886U, 0x8777788675878776U, 0x5686665787677877U,
  0x9977768765876655U, 0x978898897999a998U, 0x9789897989988777U, 0x7797889778688787U,
  0x7566797797776776U, 0x5787587677577767U, 0xa889988999996766U, 0x8879886886779978U,
  0x7866778879789777U, 0x6757776768885667U, 0x6888765665778877U, 0x9868688886977888U,
  0x7687766789988688U, 0x767888a778889787U, 0x7878775568766697U, 0x7896677865667587U,
  0x8767677666678556U, 0x8889666786666686U, 0x6685667678668866U, 0x9797777866686767U,
  0x9889769887889789U, 0x8986888797698997U, 0x7857689888978786U, 0x6676678976579777U,
  0x8977886667656576U, 0x86667687988a9aa8U, 0x9877868889798887U, 0x669777a989877998U,
  0x8888886a75668667U, 0x8878898866756686U, 0x9968878669767768U, 0x7897887768787697U,
  0x5689979889988799U, 0x6776768657675576U, 0x7556888867766668U, 0x6678687678657788U,
  0x7787678888787767U, 0x5567558576767668U, 0x9888878986768778U, 0x7877896888979997U,
  0x6667676788a98788U, 0x8698899688687766U, 0x5775559878668768U, 0x7979799898666666U,
  0x9766588787687799U, 0x8799999798989787U, 0x9878888779998779U, 0x9698786888879878U,
  0x6577658977799678U, 0x67787788a9685875U, 0x88888899a8987999U, 0x5564558776678997U,
  0x9767875677787867U, 0x5778778798688797U, 0x8896678686877878U, 0x9688976888869686U,
  0x6766664567566877U, 0x8998887777776686U, 0x9998999899789998U, 0x6666778899a68989U,
  0x4575567978766875U, 0x8976787857666555U, 0x8769a68999788978U, 0x9876668768868566U,
  0xa7a98a9a89686778U, 0x6797a8aa89877978U, 0x6696888777578787U, 0x9677887756668567U,
  0x7889889899979988U, 0x978879889798a898U, 0x7865555666666689U, 0x8677a68987795568U,
  0x8896798967878676U, 0x6676889779867769U, 0x6576679887867767U, 0x7766686685676877U,
  0x98a8888978788779U, 0x7a77898997889878U, 0x6866766885769a88U, 0x8567767675688655U,
  0x887a878999897888U, 0x8667867788897a99U, 0x7677778776678677U, 0x8889988979977997U,
  0x9899779987789897U, 0x6867796678765565U, 0x7898889968775789U, 0x9988899787989997U,
  0x7665888797a79878U, 0x6775686768676768U, 0x8765676785668768U, 0x7777898779898999U,
  0x7777866879979987U, 0x6756657887667788U, 0x8668768767668786U, 0x99a8898899866877U,
  0x7987787988878798U, 0x96888a98988aa688U, 0x8899989799988768U, 0x7786689887999a99U,
  0x7768679797788896U, 0x8999996976887577U, 0x9aa8a9a977689896U, 0x878999a989a99888U,
  0x9999787696989879U, 0x9879788877669989U, 0x9688879999987878U, 0x6666775768767778U,
  0x7667878677787757U, 0x8997786677677588U, 0x888767887888787aU, 0x6767867675886776U,
  0x6656577577888768U, 0x7668755778686769U, 0x9876888787689768U, 0x8878977986699879U,
  0x9999a98989979878U, 0x99a8879997797a98U, 0x6879878779679769U, 0x5567676877878879U,
  0x8999777777787676U, 0x7977979668998778U, 0x998aa99898898799U, 0x9797879799988997U,
  0x8a98787799779789U, 0x677888779979a988U, 0x8788787766767677U, 0x7777686676766657U,
  0x7769788889967687U, 0x6968877777777888U, 0x7666677757877766U, 0x7766765565867688U,
  0x6766676777767686U, 0x8798777899877978U, 0x7687779696899697U, 0x7997988aa9997988U,
  0x9779999887878769U, 0x9899a98978798989U, 0x7676868886767787U, 0x9788899967678888U,
  0x9889977798879888U, 0x897977a897889998U, 0x8899978999777778U, 0x98789979a9998987U,
  0x8686668876898797U, 0x7667787676778878U, 0x6987776877686667U, 0x6887797886688877U,
  0x9678878788976787U, 0x7787788798876676U, 0x7885666785787676U, 0x7676886757568776U,
  0x6898789869997888U, 0x7876887977869676U, 0x97899a9787898788U, 0x9799999987999979U,
  0x7797898989899887U, 0x7867888867988679U, 0x998a997878699898U, 0xaa99a999998a9aa9U,
  0x897978768998a799U, 0x8987789788787797U, 0x8887698986788889U, 0x7657785755767668U,
  0x6967577687756688U, 0x9787699988697788U, 0x5786889668799688U, 0x6787979877788788U,
  0x8778998786798866U, 0x6876876657767688U, 0x6789766776555699U, 0x7688698897769869U,
  0x7687688699967788U, 0x8788767979887678U, 0x9798898797787777U, 0x9888789999977977U,
  0x8876776679887987U, 0x99977a8689978886U, 0x7997899878997888U, 0x8977886678977888U,
  0x9998877879886687U, 0x8656798878787799U, 0x6775886866978755U, 0x8876776896788676U,
  0x7679799778976667U, 0x7768866867675677U, 0x5666658695779778U, 0x7789779677787678U,
  0x6768688778556665U, 0x7888688677788675U, 0x9887786787987668U, 0x7867767688777878U,
  0x9968679996878866U, 0x8977777867887976U, 0x7999788877979777U, 0x7978788789989979U,
  0x8878778798779798U, 0x9678777999979988U, 0x7989886878878977U, 0x9767788887797998U,
  0x8888786767766769U, 0x6876775566576877U, 0x7666788687698886U, 0x8776756787976776U,
  0x6785766868768676U, 0x6876665756879768U, 0x5566886667677789U, 0x9888677888576765U,
  0x8687888657666758U, 0x7678798687886777U, 0x6886787678878666U, 0x6789778778786878U,
  0x9767778679799788U, 0x8987899797998889U, 0x8778998777777887U, 0x8997777997977788U,
  0x6879987789999887U, 0x9999878999886887U, 0x5699976989887999U, 0x7867869787786666U,
  0x9678888878676767U, 0x8657876766978877U, 0x6666786666687878U, 0x7557777776668768U,
  0x7878987868778768U, 0x5777888786879867U, 0x7689887678756566U, 0x6969968868776677U,
  0x6798768887886877U, 0x6667678688787768U, 0x8768698666878686U, 0x8769976989887877U,
  0x7799977778777878U, 0x8796787979898967U, 0x9899989968978887U, 0x9989667986888767U,
  0x7897987989776777U, 0x9757766886668686U, 0x8768775767769866U, 0x7777776867766768U,
  0x8658778765688788U, 0x6667876866867675U, 0x5767665657755887U, 0x8768786796887968U,
  0x5657767588789787U, 0x6789777767685657U, 0x7898698767566757U, 0x6886997679977869U,
  0x8778977689877677U, 0x8778967778876997U, 0x7998968977886786U, 0x9796899777779988U,
  0x8997888799797789U, 0x7878877879788867U, 0x7789787888788798U, 0x8676687696897877U,
  0x7668999778857577U, 0x7777557656566677U, 0x9977667887688766U, 0x8677666566668688U,
  0x7757766889788887U, 0x7887877867778886U, 0x8889886876889789U, 0x7576656756868966U,
  0x8687887988787765U, 0x6777687858678776U, 0x8998787887978878U, 0x7976988786697879U,
  0x9696769977879887U, 0xa899989899898887U, 0x877797988899998aU, 0x9877889887788778U,
  0x8989997797879878U, 0x9786797988988897U, 0x7766688576796687U, 0x7776756766867998U,
  0x8876689976677886U, 0x9677789778689697U, 0x6686769867886876U, 0x7765567775667767U,
  0x7866677688878676U, 0x7875667678767786U, 0x7867787766576686U, 0x7587989978988865U,
  0x7697766776657667U, 0x9996887977967867U, 0x7866696796987778U, 0x9789879989888776U,
  0x777989777a999789U, 0x8888768899897999U, 0x7997777998797889U, 0x8887878978988878U,
  0x6566777867779777U, 0x879a779868765868U, 0x6675678866576677U, 0x8978876677875755U,
  0x8777866567879777U, 0x6776867776588766U, 0x7876766665676776U, 0x8666868768785788U,
  0x6758566576566776U, 0x7875557566666677U, 0x579886999aa76975U, 0x8686666765567887U,
  0x7699777667786687U, 0x6797898888878777U, 0x9988797977979877U, 0x978997777a778987U,
  0x7979897978787779U, 0x8799979979878979U, 0x7788878788988889U, 0x8767756678877768U,
  0x6786578787898888U, 0x6877766556557656U, 0x6788687657765577U, 0x8888868698688789U,
  0x6655666756666668U, 0x7779757876778786U, 0x5867787566668977U, 0x7556666686578676U,
  0x7777566666766867U, 0x799779aa989a7886U, 0x8867878656767758U, 0x9777798799967898U,
  0x9897987877798787U, 0x9977799789888999U, 0x7977788999899898U, 0x7779888969876887U,
  0x6787987987889998U, 0x5766665768988787U, 0xa98889a878686887U, 0x6677758566787668U,
  0x8768785757886668U, 0x6667676766686668U, 0x7776878866787775U, 0x6757555576776867U,
  0x6987877866668667U, 0x8788766577665677U, 0x6676667667858877U, 0x5875767767666777U,
  0x85698a9889898656U, 0x6868765787866767U, 0x8887799677878788U, 0x7898888679899869U,
  0x9797796889987887U, 0x7998779897987987U, 0x6789677987899899U, 0x6868867998977988U,
  0x7a87676666587876U, 0x667776867799a789U, 0x6875677686767787U, 0x9786769786789767U,
  0x5875767676797677U, 0x7567666765867676U, 0x6696786766556675U, 0x8678677688776878U,
  0x5776655677677786U, 0x8786787786777766U, 0x5676879769776768U, 0x88998689a8898867U,
  0x7877775766587775U, 0x7768767887776688U, 0x6879777876976877U, 0x9878989789897877U,
  0x8887787878777688U, 0x7976668667877697U, 0x7666577787798786U, 0x887aaa8888875656U,
  0x7567767678677689U, 0x6896697777667756U, 0x7876867876666678U, 0x5878686699997888U,
  0x6676658786766667U, 0x6675767778788578U, 0x9988978866988876U, 0x7887876788878696U,
  0x8767776565867866U, 0x7776857667667868U, 0x698579a999877555U, 0x8767586568767657U,
  0x7988757787776886U, 0x8778676866788998U, 0x9678788898979998U, 0x7697977699668787U,
  0x8986577796688877U, 0x9888888787868576U, 0x6667768797a78978U, 0x5665767675666768U,
  0x6888687667677655U, 0x98a9697777976696U, 0x66756569877998a7U, 0x6787687675777677U,
  0x7788776786877868U, 0x98986a8786787788U, 0x7788567687778768U, 0x7667557566757668U,
  0x7667787766689968U, 0x887a788969767757U, 0x5668856787766678U, 0x6786687788778785U,
  0x9678879658868557U, 0x7987778786998879U, 0x6786767677876977U, 0x9666777757886677U,
  0x798889789a987878U, 0x8758766585867786U, 0x5666666566757777U, 0x9967777877888756U,
  0x7867787988978877U, 0x8887568555779888U, 0x7767666786668686U, 0x9878776656576786U,
  0x8769869888888688U, 0x6677777787777668U, 0x7667575755565565U, 0x7555868688798668U,
  0x8897668677766666U, 0x7686566798779987U, 0x5655768757767558U, 0x6788666789766876U,
  0x6786767886567886U, 0x8889668778669776U, 0x8999896889868778U, 0x7655688867666787U,
  0x7775556656876765U, 0x6868667556565655U, 0x6896777686587676U, 0x6887777786976778U,
  0x8688867865755668U, 0x6697685678676686U, 0x7777798667885766U, 0x8767788688675765U,
  0x6766776676787788U, 0x7756867757575576U, 0x6879988878886877U, 0x7876666676757776U,
  0x97889896999a8878U, 0x7868666766777668U, 0x9997797876876676U, 0x8778776888869768U,
  0x8979878889988989U, 0x7687667878789997U, 0x6787878686768658U, 0x7556756688756867U,
  0x6988676666766755U, 0x6768696787778667U, 0x7688967968767868U, 0x6676777756575775U,
  0x8666766778665857U, 0x8887968777876665U, 0x9798786676888788U, 0x7555676768789779U,
  0x5866676767675677U, 0x6787789686779687U, 0x7866756667677688U, 0x8977969997786877U,
  0x7686575865688995U, 0x8558886575768668U, 0x8798766969966877U, 0x8676786896688897U,
  0x6756668757868578U, 0x7686966768666667U, 0x5676675787557676U, 0x8798888777675665U,
  0x7669878998967788U, 0x6977866787876687U, 0x5866556587765866U, 0x7776667898776778U,
  0x7789797978668667U, 0x8899899686778868U, 0x5576756577778897U, 0x8686687858777766U,
  0x9787899867777688U, 0x5757766666666788U, 0x6777688855666786U, 0x7669999888799677U,
  0x8979987967886689U, 0x8697898889688787U, 0x8777767768677888U, 0x6677967878766866U,
  0x7786768776578685U, 0x6756657776666577U, 0x8668767776767755U, 0x7767679998888878U,
  0x6667675567876565U, 0x6656655676757776U, 0x8666667766656668U, 0x7688868878878667U,
  0x8677977877767768U, 0x5566557876657767U, 0x5578666666687865U, 0x6699978867676777U,
  0x6565768866778877U, 0x8797867877766665U, 0x7a78977779776787U, 0x787779887798a897U,
  0x6788888666799787U, 0x6778767666776655U, 0x7565666785698886U, 0x8777667876557756U,
  0x6576675667767787U, 0x7887566786877776U, 0x7656688676679778U, 0x6656557665666656U,
  0x7675567657566656U, 0x6867776577765767U, 0x7868968776757877U, 0x6777686787867786U,
  0x6656776586868788U, 0x5777667675656576U, 0x9867888656557675U, 0x6679887678788876U,
  0x7678776687667867U, 0x8887888667787887U, 0x7678689788699878U, 0x6777769778875667U,
  0x7655576786778766U, 0x6676775767555767U, 0x8857667776856756U, 0x7687767566569787U,
  0x8657867587888888U, 0x6675777667877666U, 0x4656566765667777U, 0x7555555765565456U,
  0x6777577565577655U, 0x5557767986765767U, 0x9889878866856677U, 0x7778766556675876U,
  0x6557666665657565U, 0x7757577577785657U, 0x5767857689677899U, 0x8676677888768876U,
  0x8866776858567658U, 0x7668886688967979U, 0x6685776787887878U, 0x7866666767567756U,
  0x6666766668665686U, 0x7889686667677765U, 0x8668776766788788U, 0x5667757586778868U,
  0x5576655566667756U, 0x6565565566656566U, 0x6646565644565666U, 0x5776564575655676U,
  0x8656688678766757U, 0x7668769967967688U, 0x8887888678677666U, 0x6877566566566765U,
  0x6879687776675686U, 0x7875678766888775U, 0x6557787776877678U, 0x8887886686767676U,
  0x6686666767586895U, 0x5575876778566677U, 0x7776566667666767U, 0x7685686787696687U,
  0x7756866667666665U, 0x6778667786775678U, 0x7545656555756676U, 0x5765556665775575U,
  0x6554555555565565U, 0x6556655666654465U, 0x8675756575646565U, 0x7978666776678888U,
  0x6888778789877688U, 0x6767876788776675U, 0x6967667765765775U, 0x6877767868677677U,
  0x7768686768786878U, 0x7566766777877775U, 0x6867578785795675U, 0x8777876668877666U,
  0x8787655666555666U, 0x6776556777657565U, 0x7787767676685865U, 0x6769777666957676U,
  0x6686788676777898U, 0x5656765767567656U, 0x4555566676456566U, 0x6657656455564655U,
  0x5665755556566575U, 0x6666566656576655U, 0x8896887877776686U, 0x5777678868998769U,
  0x7588978878776675U, 0x6866668676668775U, 0x6566665868665677U, 0x7678675876788668U,
  0x8875678685686776U, 0x6687867755887667U, 0x7776665686756757U, 0x5667776677756755U,
  0x5667786866666666U, 0x6866766755676777U, 0x9996786787767979U, 0x6655768567868568U,
  0x5556565556655757U, 0x5566555555665555U, 0x7776787866686867U, 0x8666766666666777U,
  0x7876778686666878U, 0x7666687867786668U, 0x6766766878778787U, 0x7878786888676678U,
  0x8867888667688786U, 0x7766887867776688U, 0x8868866676867666U, 0x8667768686787676U,
  0x7677768676766876U, 0x8868678777766867U, 0x7667676876867686U, 0x6687666766768778U,
  0x7776788876676688U, 0x8766788677678777U, 0x6688867786768886U, 0x6876786776776876U,
  0x7867767678887666U, 0x8867778868786688U, 0x7878887768877766U, 0x7686886777768768U,
  0x7786876788877688U, 0x6687876866767866U, 0x6776687687666667U, 0x6667666776667666U,
  0x6776868878677767U, 0x7788868667787666U, 0x6786686686777887U, 0x6886676688687766U,
  0x8777776776868787U, 0x6667766688866766U, 0x8768866667886786U, 0x6768886886778867U,
  0x8778667788786687U, 0x6888686868887677U, 0x8887677786786768U, 0x6868668676686777U,
  0x8866767677778668U, 0x7867686788676667U, 0x6787767768867877U, 0x6677866878866766U,
  0x8678876686676667U, 0x7887887687778876U, 0x8668787688777876U, 0x7666687686788787U,
  0x7667878667688688U, 0x6678676686867768U, 0x6687778686887786U, 0x8767777688887787U,
  0x6878666767666686U, 0x6776777867887666U, 0x8667787677868676U, 0x8788867677768868U,
  0x6666668668688787U, 0x7687888867666677U, 0x6886786877867876U, 0x7678888686867678U,
  0x6876767887876877U, 0x8766778766767766U, 0x6777877677776868U, 0x6887787786677877U,
  0x7767888866878866U, 0x8877866868776878U, 0x6667887887888667U, 0x6867788686768776U,
  0x6666887687878876U, 0x8777876867667876U, 0x7686688678767868U, 0x6786866686888667U,
  0x7886677678866677U, 0x8777678766866888U, 0x6867766767778776U, 0x6667867778887886U,
  0x7686766887686886U, 0x7766676768667876U, 0x8886687678786688U, 0x6887667686677766U,
  0x8677877868778867U, 0x8776778777867767U, 0x8776776666686667U, 0x6667677768766666U,
  0x7877777787767786U, 0x7867766686686768U, 0x7787777788667677U, 0x8666687677668886U,
  0x8887878868876776U, 0x6676768678666887U, 0x6678788887778666U, 0x8688687866878777U,
  0x6886877866688688U, 0x8888768877666776U, 0x6688687766768677U, 0x7876887687786867U,
  0x6677676677777686U, 0x6867777767677887U, 0x6788768866768776U, 0x8868766678878666U,
  0x6878886868886687U, 0x7876776686777887U, 0x6866787686687776U, 0x7667687688667768U,
  0x7688878877676866U, 0x7667776667778777U, 0x6666878788776866U, 0x7866677866787786U,
  0x8776768688867888U, 0x8787678667788666U, 0x7688776878778876U, 0x6868866878667686U,
  0x6877878876886667U, 0x8877868678677786U, 0x8676866868786878U, 0x7778866668866686U,
  0x6778876866776666U, 0x8788878778777768U, 0x8887788878786866U, 0x7786867686768778U,
  0x7877677686676767U, 0x6887866866788787U, 0x7866786767666887U, 0x6686787686876886U,
  0x7686878866666668U, 0x8766886877666887U, 0x7688668887788678U, 0x8776686677776888U,
  0x8877867866768887U, 0x6776686677687666U, 0x8688676877668868U, 0x6767667687676688U,
  0x7768766768886787U, 0x7877866666886667U, 0x6687676776876767U, 0x6886668876667766U,
  0x7868777666676686U, 0x8886866676878667U, 0x6877867767668867U, 0x8767668668686867U,
  0x6668877766667868U, 0x6878778876886868U, 0x8867876887666686U, 0x7688766677666868U,
  0x6666878886666668U, 0x8768868686768668U, 0x6677876768687776U, 0x6877868677676877U,
  0x7668768768766867U, 0x8686667868668776U, 0x6887688676788686U, 0x6668866787786688U,
  0x7768786888766888U, 0x7687667777888767U, 0x6668886888666888U, 0x6878787676888776U,
  0x6686888666786666U, 0x8878686887788788U, 0x7678767687788766U, 0x8886876786887886U,
  0x8887866668778668U, 0x6767678868888787U, 0x6687686766888676U, 0x8778876668666676U,
  0x6677868886767767U, 0x8777787866676876U, 0x8668677768777776U, 0x6766687776867768U,
  0x6666867786677877U, 0x7877867778888877U, 0x6766877667867877U, 0x8676676686887766U,
  0x7668878678867776U, 0x7867678676886668U, 0x8666786667777666U, 0x7886768668877878U,
  0x8677867786666668U, 0x7686887788767666U, 0x7788886866768878U, 0x8866886676666787U,
  0x6766686876676878U, 0x7676777778667687U, 0x8676878778767877U, 0x8678688868866787U,
  0x6766866888777778U, 0x7767677686887888U, 0x7887666776878768U, 0x8777878877778886U,
  0x7686866668887868U, 0x8677786777877767U, 0x8788766878687768U, 0x6886867778668677U,
  0x6866786766868768U, 0x7676676888876667U, 0x8878666766768887U, 0x6786777787766687U,
  0x6767868678666667U, 0x7766677766768877U, 0x8766786787688666U, 0x6677766788878887U,
  0x7686676667676878U, 0x7876766667778888U, 0x6778877788876888U, 0x7867786887676886U,
  0x6886877777686767U, 0x7786867668788687U, 0x6667767666676766U, 0x6776876678667868U,
  0x6887767688687767U, 0x8868868787678776U, 0x7686678766676866U, 0x8766666778667678U,
  0x6688668677778666U, 0x6886688866686667U, 0x8887676868676887U, 0x6868667676768877U,
  0x7767766678886887U, 0x6678787886768668U, 0x7766787776687888U, 0x8668667766867676U,
  0x6677688886886768U, 0x8776787688776786U, 0x6686876688788667U, 0x6668776867866676U,
  0x8867686787687768U, 0x7667786676686666U, 0x6888678866778787U, 0x6876786777886667U,
  0x8676678677787668U, 0x7668887888668786U, 0x6666766876878668U, 0x6666866688666778U,
  0x6687878687677866U, 0x8777867887786788U, 0x6787787768768768U, 0x6668688666776888U,
  0x8776666766766766U, 0x8886787888768766U, 0x7686767666868686U, 0x7688678876668666U,
  0x7886886686887667U, 0x7866788688687768U, 0x6788676677786676U, 0x7677768777668678U,
  0x8667666688668688U, 0x7686877676667687U, 0x6867676876777878U, 0x7867676876768686U,
  0x7787787668688867U, 0x6886867867667877U, 0x7766666667786676U, 0x8866686778776866U,
  0x6688667877868686U, 0x6776677766877688U, 0x8886778868686888U, 0x6788677776676768U,
  0x6886687887676888U, 0x6686666668668766U, 0x8786877676766878U, 0x7677686786866668U,
  0x8666788878776667U, 0x7867668767886787U, 0x6777687887866888U, 0x8787687867676876U,
  0x6677768768866786U, 0x8676878677888668U, 0x7878776776876878U, 0x6688676768876868U,
  0x7676678666866688U, 0x8678877788676876U, 0x6878787777866868U, 0x7668676678777868U,
  0x8787676766776886U, 0x7667667886776868U, 0x7667866787867868U, 0x8676776677866766U,
  0x6678878777687666U, 0x8666768678677676U, 0x8887767777776767U, 0x7886776687787676U,
  0x6767868767768666U, 0x6767888877868686U, 0x8867767876677666U, 0x7876787777888876U,
  0x7766777786667867U, 0x7887688678688887U, 0x6888778676688686U, 0x8867688667677667U,
  0x7886866667876886U, 0x7667878868668878U, 0x6677668878667777U, 0x6767687786776888U,
  0x7666886888786666U, 0x6767887786878786U, 0x7888676776676886U, 0x7888766868767668U,
  0x6788768676886768U, 0x7788688766787867U, 0x7787668677668777U, 0x8776678677888667U,
  0x6676686666676767U, 0x6778878768768868U, 0x7677776788766866U, 0x7868887668678768U,
  0x8766766667678778U, 0x6687676866868867U, 0x6668876877878876U, 0x7786678876667687U,
  0x7868868776876667U, 0x8667767788668768U, 0x8788786868766876U, 0x6676866666866888U,
  0x7776668787786767U, 0x6776766787788786U, 0x8666667877888668U, 0x7667668866768676U,
  0x7666667766867688U, 0x8886788876767887U, 0x7666767787666888U, 0x7867876776888677U,
  0x7678766776886878U, 0x8768678886768778U, 0x7887778788887667U, 0x6866776776778767U,
  0x6668866687887868U, 0x6687888778867777U, 0x8877887687687767U, 0x8678888776677666U,
  0x8876886887887878U, 0x7687866876787867U, 0x8777787688777866U, 0x7777677786778876U,
  0x8677666686788687U, 0x7867678777778668U, 0x7677887676878776U, 0x7766787777767767U,
  0x8686866678786868U, 0x7866888878768867U, 0x7676686788668766U, 0x7766668777868767U,
  0x8878677766688688U, 0x6667677667866777U, 0x7666868677878788U, 0x7877786786887666U,
  0x7677867668666767U, 0x7887768786668888U, 0x6876768877667777U, 0x6767676866777687U,
  0x6668868776886668U, 0x7877766667667667U, 0x6878686887867678U, 0x8867688688688887U,
  0x7877776667666668U, 0x6786676676666887U, 0x8778768668888878U, 0x6786666877686667U,
  0x7666667777766876U, 0x6687886787786868U, 0x7876787687777778U, 0x6777676876786886U,
  0x7886668876787686U, 0x6766888878887666U, 0x6666687877867766U, 0x7887688667768668U,
  0x8767777668888886U, 0x7766688877687666U, 0x7876866887777886U, 0x6677677666768688U,
  0x7876887878788687U, 0x8878666777887878U, 0x7787886666766777U, 0x8778688666666766U,
  0x7668868766868778U, 0x7767666766878777U, 0x7886787878866688U, 0x8786668886776786U,
  0x7786677688766878U, 0x7666677688786768U, 0x6786866868777776U, 0x6767788866677687U,
  0x6786866686668878U, 0x8767877766777667U, 0x8676876788887678U, 0x8666666867786877U,
  0x7877768677676876U, 0x7867666676667878U, 0x8668886767767787U, 0x7766678687686678U,
  0x6687768877668888U, 0x7777777668678867U, 0x7788667867777677U, 0x8887766788786766U,
  0x7767666687676687U, 0x6776688777768877U, 0x6666678887668667U, 0x6766777867868877U,
  0x6666778688676866U, 0x7788877866777878U, 0x7778667786687888U, 0x7867768767866667U,
  0x8787886766877786U, 0x7778888886788788U, 0x7668866777876866U, 0x7888667787877888U,
  0x6868677778876666U, 0x6877676878667688U, 0x8667788667777776U, 0x7686788887777767U,
  0x6687666868786876U, 0x6878886686686787U, 0x7766888677676888U, 0x8667786777667778U,
  0x8788678786887667U, 0x6677888667766788U, 0x7877787677888666U, 0x6687668776786767U,
  0x6778768767776677U, 0x8766676868668877U, 0x6867867677866686U, 0x6868888877877668U,
  0x7686686887786787U, 0x8668866876887678U, 0x7768766677776667U, 0x6668868687687766U,
  0x8776888886666867U, 0x6676768776677768U, 0x7687788887776886U, 0x7766687778766887U,
  0x6687878867786787U, 0x7787886676868678U, 0x7767868766677888U, 0x6878766768767676U,
  0x7886676676778767U, 0x8768886876878786U, 0x7886778878866866U, 0x7667667876788688U,
  0x7686767876678666U, 0x6786668678767876U, 0x6788876778868886U, 0x8667886777786677U,
  0x7776766678778787U, 0x6678667887667678U, 0x8878887868866776U, 0x6876787668668776U,
  0x8876677877677678U, 0x8668668677666676U, 0x6687866687767878U, 0x7868667686678868U,
  0x6776868768788786U, 0x6777687788887878U, 0x8767876868668667U, 0x7868677767788686U,
  0x7868766788688667U, 0x8787878886688668U, 0x7786687668866878U, 0x6677668776667767U,
  0x8688668667766786U, 0x7668888688877768U, 0x6688776866687867U, 0x7777666786776686U,
  0x8877887666776777U, 0x6866876677676686U, 0x6768667666767786U, 0x7668666766887686U,
  0x8888666776676868U, 0x6866867886886787U, 0x7877667876777878U, 0x6887888788776777U,
  0x7677766667676686U, 0x8868676877767667U, 0x7866778766876787U, 0x8786667877678688U,
  0x7886667876866877U, 0x7676866786677688U, 0x7768768767868766U, 0x8866687678886768U,
  0x8767887686777686U, 0x6686886688668866U, 0x6767887666677888U, 0x7887686866766766U,
  0x7776888867787678U, 0x7786788767866788U, 0x8666676686768666U, 0x6768878866867678U,
  0x7867686886677767U, 0x8686768768687766U, 0x7777668768888766U, 0x8886666687686887U,
  0x8868877667878867U, 0x6676687676667686U, 0x6886878686676676U, 0x7688786887786868U,
  0x7676878687768878U, 0x6668886786668766U, 0x6888877676776678U, 0x7787666668766787U,
  0x7878766877667776U, 0x6866867878666666U, 0x6767866688677788U, 0x7768667766888687U,
  0x7688676877778878U, 0x8668776888866768U, 0x6686766767676778U, 0x6878666687878768U,
  0x7866678768866666U, 0x8866767677776666U, 0x8868868878877867U, 0x7866676888677768U,
  0x8776678778886676U, 0x8667688768876786U, 0x8768776877686867U, 0x6778866767877687U,
  0x6778668686688787U, 0x8768877888777778U, 0x7677687667866767U, 0x7687777666668877U,
  0x7766687786666776U, 0x7887667666676768U, 0x7886766676668687U, 0x8767667778877888U,
  0x7888667666676886U, 0x6766866666677687U, 0x6766686688886668U, 0x8688687667676668U,
  0x6888686787777676U, 0x6787777888887786U, 0x7688788768688888U, 0x8776687776678866U,
  0x8667886766678877U, 0x8776768876886768U, 0x7768676787667668U, 0x6776686787888888U,
  0x7788676688866876U, 0x8787868678888866U, 0x8867776866888888U, 0x6886866686687678U,
  0x8668888868678768U, 0x8786668686766668U, 0x7768768766888788U, 0x6877667767686776U,
  0x7776886776776887U, 0x6666867867666686U, 0x8767877768678686U, 0x7766687668787877U,
  0x6876868866866777U, 0x8688678777878877U, 0x7766688767866867U, 0x6688678776867677U,
  0x7877686666867886U, 0x7668677676767678U, 0x8668878867877677U, 0x7677686787777768U,
  0x6687787868677878U, 0x7688786688686677U, 0x7688778688886767U, 0x6878776676767676U,
  0x6676686687877676U, 0x8678887666686667U, 0x8867866768876678U, 0x8666677878767687U,
  0x7666687776686676U, 0x8686786866677868U, 0x6678887667777776U, 0x6768667767677768U,
  0x8886666667666776U, 0x7687888886887677U, 0x6776778867786767U, 0x8668866777877776U,
  0x7667787867677766U, 0x6666667868876687U, 0x8677676876678887U, 0x7668668886676766U,
  0x6787666887668666U, 0x8786776868677768U, 0x8866866686686876U, 0x8876776878767687U,
  0x7876886686866786U, 0x6876677668767776U, 0x6777887668886878U, 0x6866776878868777U,
  0x7677676878767878U, 0x7776868666888766U, 0x6876767887876866U, 0x6877667676887886U,
  0x8768766776867866U, 0x8886667786866687U, 0x8688667788787676U, 0x8888866768786687U,
  0x7876886868877766U, 0x6767886887876668U, 0x8776666876878786U, 0x6687786686877678U,
  0x6776866668687868U, 0x7786788766788676U, 0x7888688768788766U, 0x7887668788768768U,
  0x7877877787777888U, 0x8686767888677777U, 0x8688776767787776U, 0x7666766888668677U,
  0x6687787876767868U, 0x8686876688878666U, 0x7688788867766678U, 0x6878777778887868U,
  0x6876768678777877U, 0x8677677786768876U, 0x6676777876686866U, 0x6767677868688776U,
  0x8878776788777687U, 0x6787886877768768U, 0x8677668688766788U, 0x7686867886886877U,
  0x8767677788877768U, 0x8787888677678887U, 0x7766767878768777U, 0x6767866867676768U,
  0x8876876866677876U, 0x8688777888868768U, 0x6866666867678687U, 0x7878678778668868U,
  0x7768886778768668U, 0x8886868668888778U, 0x7777877877788677U, 0x6676766888787767U,
  0x8866868867778866U, 0x6688676688666887U, 0x6688666866767768U, 0x6768787788678778U,
  0x7667866788668667U, 0x6678887868766676U, 0x8768778786877878U, 0x8687687887876776U,
  0x8687867688776888U, 0x7866886788877686U, 0x6866876886667666U, 0x6677866667678878U,
  0x8668768666767777U, 0x6876868788876888U, 0x7668767686668686U, 0x6787878767788777U,
  0x8867686766786686U, 0x6766667778668688U, 0x6886786686877867U, 0x6687766668788768U,
  0x8686666776787677U, 0x6678868876888668U, 0x6887887687786677U, 0x6787888688678688U,
  0x6867678788767666U, 0x8677678677887867U, 0x7676876676867668U, 0x7886667886867786U,
  0x7867786667667787U, 0x8687787668688766U, 0x8876778786667868U, 0x8786678667866786U,
  0x8766886766767867U, 0x8886666787888666U, 0x8886776767877767U, 0x8677877686688767U,
  0x6786686787888778U, 0x7767676867666777U, 0x6776666887787766U, 0x8678666767867678U,
  0x7786787768786778U, 0x7678767668877687U, 0x8876886867878677U, 0x7776677668667686U,
  0x6688886867887668U, 0x6766676686886686U, 0x7687666686666667U, 0x7866668766766868U,
  0x6686786778687776U, 0x7678768686878877U, 0x7676766766676667U, 0x8877687666686676U,
  0x7787887688888688U, 0x6667767687878667U, 0x7687678876776667U, 0x7767777778877787U,
  0x7868667766767676U, 0x6867686777668766U, 0x6678777666876686U, 0x6876868677676667U,
  0x6766867886676866U, 0x7766678888877687U, 0x6867667687666778U, 0x6777676887686866U,
  0x7688766868886868U, 0x6666787766687667U, 0x6788866688668676U, 0x6678778667776667U,
  0x7766778667678876U, 0x6667686666776788U, 0x7878777686786687U, 0x8688887768877666U,
  0x7666877776686878U, 0x8687876777866768U, 0x6687687887867687U, 0x8677666687688686U,
  0x7787678676768666U, 0x6768887888686878U, 0x7677867686888868U, 0x8767686676777886U,
  0x7667677766867768U, 0x6877767668667676U, 0x8786886688867676U, 0x7788678778678778U,
  0x7866677688678867U, 0x7886687787886667U, 0x6778686678866867U, 0x6778878787687886U,
  0x6867688867867678U, 0x6668678687867878U, 0x7667878686676677U, 0x8776888776776866U,
  0x8886788878667867U, 0x8867768878786787U, 0x7676687787887666U, 0x7886676677677787U,
  0x8668667778866677U, 0x7787888868687776U, 0x7686686788767766U, 0x7878686866788667U,
  0x6878677778668668U, 0x6667767776788787U, 0x8767868667777787U, 0x7676677787887878U,
  0x7877788667667767U, 0x7688867788666887U, 0x7766668776686786U, 0x6677778876876867U,
  0x7887668766877677U, 0x7766877686776778U, 0x6788887776666776U, 0x7777778766786766U,
  0x8668676877876676U, 0x7786776776878776U, 0x6668777867776868U, 0x8787867676886777U,
  0x6787888768878766U, 0x6767786668887787U, 0x8788868787787788U, 0x8768886787666877U,
  0x7677787866767767U, 0x7876676876786867U, 0x7676867888766878U, 0x7876886666686867U,
  0x6687668868666678U, 0x6777687786768666U, 0x7786768768767766U, 0x7888666777687777U,
  0x7878768666866668U, 0x8667686676877868U, 0x6787667678688676U, 0x7676876667687686U,
  0x6886766866666767U, 0x7766867678687688U, 0x8867668768676867U, 0x6887766666678688U,
  0x8688677777677868U, 0x7888866887866876U, 0x7776667676876878U, 0x7667778766686886U,
  0x6788866677777687U, 0x8687877777678688U, 0x6777686788686678U, 0x8877888686766687U,
  0x6676778678868878U, 0x7676776887766887U, 0x7667687767666878U, 0x7777877686876786U,
  0x7876776776777766U, 0x6887868878886678U, 0x6676667877786886U, 0x6887768876876888U,
  0x6667777868766888U, 0x7667878688686677U, 0x8676666686867676U, 0x6767888687768687U,
  0x7666778788877878U, 0x8868687666867876U, 0x6788766668877786U, 0x6778767786666888U,
  0x6678678668867887U, 0x6668778688687878U, 0x7866668677886666U, 0x6778687868677876U,
  0x8766876766767676U, 0x6776676867677766U, 0x7767776666867786U, 0x7676667777877686U,
  0x8676677876777868U, 0x6768676767776888U, 0x6786777778788867U, 0x6877668767878678U,
  0x6768886667686777U, 0x6766667666866767U, 0x6677766687778677U, 0x6886786867767686U,
  0x6887777887686676U, 0x6868786786688788U, 0x6868766677787767U, 0x8866776667768767U,
  0x7668676676876777U, 0x7668866786867666U, 0x7776777868668878U, 0x7776866876787868U,
  0x7778876786666766U, 0x6868886867677776U, 0x8787767867666867U, 0x7766766776777886U,
  0x6788786686867788U, 0x8777876786777886U, 0x7668787878676766U, 0x6666887688866666U,
  0x8677878688667776U, 0x7886886677678787U, 0x8878677776776687U, 0x7687787677866867U,
  0x6676868766766866U, 0x6678676768678667U, 0x7778686776776667U, 0x6868667768778768U,
  0x6776766687776786U, 0x6788878677868888U, 0x6668677687688768U, 0x8876887666676687U,
  0x7678677778788686U, 0x6877686886878676U, 0x7777666766768778U, 0x8676778878868786U,
  0x7686877768768767U, 0x8886866868768686U, 0x8677677767666868U, 0x7666877666787776U,
  0x6877778777876688U, 0x7677677668866777U, 0x7786888678666677U, 0x8686777887676886U,
