/**
  ******************************************************************************
  * @file    network_data_params.c
  * @author  AST Embedded Analytics Research Platform
  * @date    Fri Oct  4 07:30:11 2024
  * @brief   AI Tool Automatic Code Generator for Embedded NN computing
  ******************************************************************************
  * Copyright (c) 2024 STMicroelectronics.
  * All rights reserved.
  *
  * This software is licensed under terms that can be found in the LICENSE file
  * in the root directory of this software component.
  * If no LICENSE file comes with this software, it is provided AS-IS.
  ******************************************************************************
  */

#include "network_data_params.h"


/**  Activations Section  ****************************************************/
ai_handle g_network_activations_table[1 + 2] = {
  AI_HANDLE_PTR(AI_MAGIC_MARKER),
  AI_HANDLE_PTR(NULL),
  AI_HANDLE_PTR(AI_MAGIC_MARKER),
};




/**  Weights Section  ********************************************************/
AI_ALIGNED(32)
const ai_u64 s_network_weights_array_u64[6846] = {
  0xbc65e88d3d754d6dU, 0x3d4e8dbe3d7a8d57U, 0xbdbc4d683daa2525U, 0x3e58c7193e474468U,
  0x3e4688cb3cde332fU, 0x3c99c8f63dee43d9U, 0xbcf508e83e3b7a36U, 0x3c82a103bcc20950U,
  0xbd56152f3cd327e4U, 0x3d11eb72bdbab88dU, 0x3ce131923c08f9f2U, 0x3e1d85713ddcd8b4U,
  0xbc825a51bd26c178U, 0x3cc6c0313e66fd4dU, 0x3e172b6ebd800a1fU, 0xbd5bc34c3d81deeeU,
  0x3d08f4623e415a35U, 0x3dfea3bebd82dea1U, 0xbe21b2fabcaa104aU, 0xbdf66d31bcdc430eU,
  0x3e22d1ecbc960de3U, 0xbdbf9d54bc6f58e4U, 0xbd3e2cf23d21bedeU, 0x3e25ccd8bd4c8f78U,
  0x3d4fd35f3e37c9c1U, 0x3d4de7113e32a8c8U, 0xbce204633e538181U, 0xbdd413b8bdcdf5b4U,
  0xbe3af293bcf67c0eU, 0xbc16ebc9bd978186U, 0xbe1759c1be3b0157U, 0xbe282c1cbd73cabdU,
  0xbe02ee2b3c975732U, 0x3d7bbc45bd3986e3U, 0xbce8967fbe0cb017U, 0xbdaa59bebd9a0c4dU,
  0xbd4f10acbd70ec00U, 0x3d64ab6ebd36fdb9U, 0x3d9e8958be069548U, 0x3cb9a86bbd2ca23eU,
  0x3e2cf1f83e0464a1U, 0x3d4254f03d4e593eU, 0xbd3a0c853c950228U, 0x3d50dafc3e285e8eU,
  0x3e0d5feebd0c0bc7U, 0x3e094a483df303feU, 0x3e543e503e34b929U, 0x3be9068f3aaa8314U,
  0xbdc209ab3d8cdc17U, 0xbc4549b03db933faU, 0x3e3bf1bcbdb4f1fdU, 0x3df7de773d61285fU,
  0x3e444c823e17f74eU, 0xbcef81503e51effcU, 0x3da80effbda9e0c2U, 0x3e15713e3e05aeb3U,
  0x3df2cd143df10424U, 0x3d8fa3cc3e4585c4U, 0x3e36a8a5bd5704fdU, 0x3d0a98393e21cf07U,
  0xbb696c0f3d78b2b6U, 0x3d4e381dbd711f28U, 0x3d337e4abd7b5759U, 0x3e0be9c03cf0d5bfU,
  0x3da2a0683d6a520eU, 0x3e374d853dd05c23U, 0x3d48dbddbdda8039U, 0x3d52842fbd3a9c52U,
  0x3e3998c13cc9ef4fU, 0x3d1ce1eb3cc9cd07U, 0xbded80283e212747U, 0xbe497745bd9edb19U,
  0x3d8601eb3c1bba36U, 0x3c9c57543d4afdc7U, 0xbe1f09bfbe26f8caU, 0x3e0ac4103de9e31eU,
  0x3ce047e33df542a3U, 0x3dfd1deb3e146dadU, 0x3e027dc2bb302402U, 0x3aebad553def1131U,
  0xbda520633e57e851U, 0x3d45ae753dc1ca36U, 0xbddce9443caedbf0U, 0x3e0c2a9d3d860095U,
  0x3def61643d4daf29U, 0x3cf4760f3e3dac10U, 0x3ddbb1a9bd853d4fU, 0xbde8a5a43d558cafU,
  0xbe055421bdd5a634U, 0x3e323f3e3dc42274U, 0x3d9e25513d626518U, 0x3e33d2ec3d82cc1bU,
  0x3dfbcc28bdbff558U, 0xbd65f28bbd887315U, 0xbb5899b53deea8b1U, 0xbd0f60d53e2bc275U,
  0x3d19adfa3d8bf206U, 0xbd08fceebd96e662U, 0x3da1aa4c3da809e0U, 0x3db7ed8b3d94313cU,
  0x3dc2ba35bd314a22U, 0x3ce1098dbddd825dU, 0x3e3792593e1b86f2U, 0x3e0609c63dbfe476U,
  0x3e01a184bb3dfcb9U, 0xbdc6d3743dfd2d31U, 0x3e1bf3c63e1c7e87U, 0xbdc541de3e25c27fU,
  0x3d624a6dbd4d6b3dU, 0x3c9d1cb5bd585316U, 0xbdb41bc7bb8ef4a0U, 0x3d836b03bd942c21U,
  0x3b2c3ec3be11df9bU, 0x3d3058fc3c08802bU, 0xbd35f1e83dc3557aU, 0xbcff0308bdc04003U,
  0xbdb9f001bdda5c0dU, 0xbc1908d6bd4b23e6U, 0x3df4ec633d7cb9f2U, 0xbd9ec0cdbd719267U,
  0xbc9a8c9dbc19f308U, 0x3e90ccd6bdd878caU, 0xbe67a2173e875e2eU, 0xbdf23c823e120e3fU,
  0x3dcdd545bdf8d2f8U, 0x3e4a2e80bd915edfU, 0xbda395ee3d540d53U, 0x3df94669bf0415b9U,
  0x3d970c9a3e786434U, 0x3e05015fbcd5acd4U, 0xbd76a6f23d8a38e5U, 0xbe8f6c74be07528eU,
  0x3cb24c0c3b4c0e26U, 0x3cab6e463dfd2671U, 0x3e0690383e9f5b6cU, 0x3ca7d4213d778369U,
  0x3e17d08b3e1d2c4aU, 0xbcdce9dd3d9b3afaU, 0x3d4bc27f3dfd0e0bU, 0x3de9f16b3e1b25fbU,
  0x3e17a9c7bd5afd28U, 0xbcc10afe3d095761U, 0x3cce508fbdcf0d30U, 0x3da4281b3cfafbc2U,
  0x3e1f368d3db64dc3U, 0x3de005ce3dbb4cc7U, 0x3d961a023cc47f27U, 0xbdc6d8593e304ef7U,
  0xbd25e946bcfd522aU, 0xbd1f18adbd8cb103U, 0x3dfeb7713e0a4428U, 0xbd3ec90d3de3dd54U,
  0x3d9cbedfbdbd19b1U, 0x3d9e87f93e0a95d4U, 0xbb6c5bba3e330826U, 0x3d2fe2ca3dc92a41U,
  0x3dce7f543da7af3aU, 0x3e3014c6bd303259U, 0x3dde956ebc4277b0U, 0x3d983997bd482e7fU,
  0x3dc9ddb93e05020aU, 0x3d374f2e3dbb20e7U, 0xbcb54d1f3df55b7cU, 0x3dfd723c3d89eca5U,
  0xbec06be43ce7e886U, 0x3eb7c9f33ec2ea02U, 0x3ccbeaaebd7e7f80U, 0x3eca9a8bbd9b64adU,
  0xbe3ebdddbe0ba130U, 0xbdd3b1623e07349bU, 0x3d8b433ebd9d6b81U, 0xbe2713443e189634U,
  0xbea4643f3e89edf3U, 0xbea82f2bbed49838U, 0xba74f44e3e0f3280U, 0xbc131afb3d3f61b5U,
  0xbb4c244c3dcb565aU, 0x3d1a77fe3c855599U, 0x3e8d01443d1c50bdU, 0x3daecb0c3e23ce8dU,
  0x3dd8a9b7bdb2055aU, 0x3c8f45063d920641U, 0x3dbcd513bd337252U, 0xbd3bacdb3e2ef4a1U,
  0x3d2db6133cd0a3a7U, 0x3dc32b443db33810U, 0xbc0a8952bd671b9dU, 0x3d8fee123d4e5d05U,
  0x3db6eb9cbd1edd0aU, 0x3e4ab4533eeb5072U, 0x3f289541be11ad5dU, 0x3d9b30563f091332U,
  0x3c1710a43e654509U, 0x3f1fca12be9be6d3U, 0x3c95a6043e475b5fU, 0xbd007ffe3ac347daU,
  0x3deefe22bea83681U, 0xbe41a8c63be0c1b5U, 0x3d49df013e85da4fU, 0xbd0b7f853db4d1dbU,
  0xbe2d8ffebe7688f5U, 0x3dd4ab5dbc4a32c5U, 0xbcb35afebda8392dU, 0x3db69c4ebc90d656U,
  0x3db0fb64bc962ac2U, 0x3a8bcdefbdd938e3U, 0x3c4518c0bdf4b9a4U, 0xbdeb02c03db56e7aU,
  0x3d0cf51abd906f5dU, 0xbc62e5613a2bb39cU, 0xbd43aadfbdda1465U, 0xbd969debbd8f1a9eU,
  0xbd46f3043d8fff45U, 0xbd6f815e3d67bcd9U, 0xbd27190abd66ce22U, 0x3d8533cebd0514e1U,
  0x3e17340e3e863198U, 0xbd4f06b33cb6a7c8U, 0xbe6e0ecbbe765d6cU, 0xbe9e81bfbe8be8cfU,
  0xbcc15542bed43a2aU, 0x3e1714cfbdc3eb67U, 0x3ced9b843da25e99U, 0xbc5552a33e69996fU,
  0xbdf99f9ebdf512a0U, 0xbdb698a03d72e5f1U, 0x3d6677183e7335d8U, 0xbd64482e3de4bfd3U,
  0x3d2cbb8bbd28bb03U, 0x3d8c1c8cbdabc825U, 0xbdca476f3da621a0U, 0xbdd1a29c3e2f9a5aU,
  0x3e974d21bf010f92U, 0xbd86472c3d7517d6U, 0x3c8524963e91c284U, 0x3ed27436be495c16U,
  0xbe19b9d53e21d386U, 0xbed7ca97be38ccbbU, 0xbe47f0f9bea2728dU, 0x3e3b1413be9af1fbU,
  0xbd6e6b7f3e04dce5U, 0xbcad0b4a3e13ce24U, 0xbccd4a09be24acf7U, 0xbd5e8ef63e339ceaU,
  0x3c8c8d203e2dcc76U, 0x3c19c830bdd7cd34U, 0xbdc97ca1bd4254ecU, 0x3decd1ac3d2af351U,
  0x3da26e70bd496a29U, 0x3dac6c683d8d1a6aU, 0xbd12567a3e095472U, 0x3df68da73d965235U,
  0x3e131dae3da8cca9U, 0x3de363023e749c8fU, 0xbda2a1473c862811U, 0x3dd420553b3cc650U,
  0xbd3a5cff3e2425a0U, 0xbccee91d3c0f1a16U, 0x3e81e5503e6cedd9U, 0xbe22ff7e3e9e5a30U,
  0xbe4616d43d4f3c75U, 0xbe9a54923cb97cfdU, 0xbe1c0d1abc797257U, 0xbcd0f554be612b49U,
  0x3de6c5493d120eb8U, 0xbe3a314a3e2d3d92U, 0xbe86589dbef599a4U, 0xbde349373e3f1889U,
  0xbc9af0d1bd89880cU, 0x3d4532283dbe46b8U, 0x3e12b16cbda5f979U, 0xbc2f5e5f3d2c3c46U,
  0x3dd45f2fbd991a2dU, 0xbd8ab668be2b1680U, 0x3d019a353dbb0d81U, 0x3e132aa53df92d0fU,
  0x3d8f8725bd316fe4U, 0xbe0699813d2734dcU, 0x3e0b7fdf3e1272c3U, 0x3cdbbae6bd2f2550U,
  0x3e472cbabcf2f476U, 0x3df274a23e3e3029U, 0x3e177eb63e423757U, 0x3d3258833e033d9cU,
  0xbe100dac3caa921cU, 0xbdba2cfc3ce51605U, 0xbcb4764d3ce3ae58U, 0xbd1c6e38bde84b96U,
  0x3d24d370be15dcb9U, 0x3d360d0abd9a72a2U, 0xbd0921e2be1b8c34U, 0xbe007a7d3c5d4e8bU,
  0xbd289f77bbf28008U, 0x3d5b4aff3d654b99U, 0xbd798cf8bd8c083aU, 0xbdd2b5f93d931db2U,
  0x3b8d5dda3da2b115U, 0xbe06a94b3dda4042U, 0x3c71351ebe162054U, 0xbc308e483d43b294U,
  0x3e10caf9bd98ddddU, 0xbdf1903a3d98e590U, 0x3dc1bf4d3dc88841U, 0xbd9b38b33ce38351U,
  0x3e052ab43e4bc91aU, 0xbda0b04e3cbb9c47U, 0x3e2509b23d5e7a0aU, 0x3ddf3ec53db0dd5eU,
  0x3dca85d43dc204ccU, 0x3defd61f3dc256fdU, 0xbdd6afbc3e07d1b4U, 0xbd8382583dc7bb92U,
  0x3d9ed5c7bd735786U, 0x3d0beb8fbdcaf8c0U, 0x3e3028e83e6bacf6U, 0xbd26150bbe11f078U,
  0xbe0458e5bd9e66e4U, 0xbc3140d13e18fd74U, 0x3e74fc793da08c8fU, 0xbdb134c23de7a217U,
  0xbeb33f02be916e51U, 0x3e189a78bd951d8dU, 0x3bb67464bd795039U, 0xbcc1b21a3b361c86U,
  0xbcd649a13e1c8fccU, 0x3d0426113e11570eU, 0x3deba8363e160c04U, 0x3c78fa74bd49be80U,
  0x3e3e90d6bdc2688cU, 0x3e5bb5db3da17b03U, 0x3e5bb1453da03f95U, 0x3d8f94283d8a513dU,
  0xbd03bf983ddf5855U, 0x3dec7938bbe361f4U, 0x3d2f458e3e1d1fbfU, 0x3dc08e063e542ddeU,
  0xbce141e73e6a0e88U, 0xbd4e9cabbd5d044bU, 0x3da0c6f83dd892d7U, 0x3d2e7a9dbce70ce2U,
  0x3e5fc0713d440d15U, 0x3da5a0893e520218U, 0x3e0cd81c3c3028b3U, 0x3c4e3dab3d6b165dU,
  0xbda960923ccebac9U, 0x3e05e9733e3dd297U, 0xbd8a37fdbdca416cU, 0xbd1c4d2b3d4ed3a1U,
  0x3dcd5b933e1399e9U, 0x3d155ed33d9dc1c3U, 0x3da60ac53d793572U, 0x3dbc28173dc082eeU,
  0xbe29ff55be8cdd5eU, 0xbd9da98dbe41f20cU, 0x3e01b10a3e6e9558U, 0x3e16c3483d98f96fU,
  0x3dc407f73e5e2f5eU, 0x3cf811be3caa4306U, 0x3c452d6c3dcefad3U, 0x3d6904293e3b7f02U,
  0xbd9cb1773e008932U, 0x3ccf113e3d847615U, 0xbe613771be5cfd2bU, 0xbe26a0fcbc7f481eU,
  0x3e2fc825be0a2bd2U, 0x3d051e483db155f2U, 0xbc36cd323e4fe43aU, 0x3e7bd90e3dd2a48dU,
  0xbaafdd6dbc0592e7U, 0x3d398e6f3c0d662aU, 0xbcbee983bb70406aU, 0xbcf56a033dada8f3U,
  0x3e73afa33d62456bU, 0xbc3c15093d65c0b4U, 0xbdefdf09bdd4e5e0U, 0x3d6b9f9f3e2906fdU,
  0x3df946023ca7041bU, 0x3e0b68f43d43493dU, 0x3e492c453e49d9faU, 0xbdaba54d3c9e0594U,
  0xbe7a7700be74c89fU, 0xbdf2675cbbc80614U, 0xbcb811f7be75b93aU, 0xbda69ec2bd5088a8U,
  0xbd8498553dd2527cU, 0x3e0a3283bb4fae7eU, 0xbe245a7ebe0ee2d9U, 0x3e300b323e322adeU,
  0x3e1cf19cbd9cd9b9U, 0xbd8ddfcb3d3ecfe1U, 0x3db63cf43e152ebeU, 0x3cb9560bbe0eb2aaU,
  0x3e17820b3b959d1dU, 0x3deccbf33e08dfd6U, 0xbcbd3eff3df67476U, 0x3d45dc1c3e09958cU,
  0xbc76e7403d1fa0ccU, 0x3e0992e5bc97f582U, 0x3cea27d0bdc60459U, 0x3c9596d83df1cf4cU,
  0x3cee29acbd363102U, 0xbb4e338ebc8b8367U, 0x3e327d593d32b0f9U, 0xbcd2699d3d16318cU,
  0x3d21b846bd1e5c86U, 0x3e8187a83dad77efU, 0xbe2a7e7fbe2ce5f3U, 0x3d8d0f88be5a71cfU,
  0xbe0dd38dbe72e243U, 0x3d7ddd413e8ef641U, 0xbe9e9dd83d8455eaU, 0x3f15427c3eed11ecU,
  0x3e175d893e5ffd92U, 0x3d4dfce03e45f80dU, 0xbd02ddae3e44057dU, 0xbe5634c53e4fb5f4U,
  0x3e197b73bdbd5951U, 0xbe2d4612be1aec13U, 0xbdbf3a12be0aed3cU, 0x3e8b8cde3e029a81U,
  0xbb2accc2bde0127eU, 0xbe571d163dd7d592U, 0x3e45b31cbea06ec6U, 0xbd22c3abbc68831eU,
  0xbde673653e37689eU, 0x3ebea406be135b7fU, 0xbe335992be9baf46U, 0xbe22afca3eab28aeU,
  0x3dffcc74bdce8bb2U, 0xbdf1bbbcbda9d233U, 0xbd261b333dd4abdfU, 0x3e2bd99b3e1cda90U,
  0xbcd148e2bcba10edU, 0xbcb2a2063c627bcaU, 0xbd8c06a6bceafd4aU, 0xbcc60639bceefdefU,
  0x3dfbd63bbc678dabU, 0xbd6f2df9bcedebafU, 0xbd90a6903d9018c5U, 0xbc11f6a23e32d8d2U,
  0x3e9eaeda3d85def4U, 0x3d9d3196bd0906caU, 0xbc94c7d1bcfedf61U, 0x3e129d78bc91d2b5U,
  0xbd086c04bd5194a8U, 0xbd25aeca3b29d697U, 0xbc4b7f453dff7c19U, 0x3e1b6b23bd9b4efaU,
  0xbdbfea713d085f34U, 0x3db26d1abd2e4f9fU, 0xbd547f493daa6cd2U, 0x3d5f550cbdc93d1fU,
  0xbd3679173d8f4150U, 0x3dbbb0f7bdd5f8a3U, 0x3d23fa4e3db7cadcU, 0xbcc5cfc2bcc691c1U,
  0xbc6bae113cf93ec8U, 0x3db723103db5dd75U, 0x3dab06b8bcc9c841U, 0x3ce5360abd953b71U,
  0xbcef54bc3ac01fa6U, 0x3d6059143dcf7c29U, 0x3cf19818bde3c397U, 0xbd125206bdf94c28U,
  0x3cf680b0bca7eff7U, 0x39bccf6ebd887640U, 0xbdcc4de9bdbd214bU, 0xbd9cfd523d0ea8b6U,
  0x3c3eb3efbbccbb06U, 0xbd7c1c3bbdfb2c7fU, 0xbdbec4a63dc73422U, 0x3db02a5e3da8ece3U,
  0x3a76790f3cf51393U, 0xbc4c09c9bcf9dd9bU, 0x3dbd525f3da61d91U, 0xba86915d3c89af1bU,
  0x3ca99b473c696cc9U, 0xbdcfbba93d04ba43U, 0x3d33c7a4bdff5554U, 0x3ca6acaf3dd47256U,
  0xbd4fd9293df46359U, 0xbd1d27273d35c34eU, 0x3a98ae8ebc27586aU, 0x3d9c9e3f3d53eb1eU,
  0x3d3f00823d00e554U, 0xbc9c5c1ebd1bc8c2U, 0xbd8fab363d10ea0fU, 0x3d98e916bd89f3caU,
  0x3c82b4603d3a612dU, 0x3db4ef0d3be8c339U, 0xbd70563f3cec07b9U, 0xbc9a3a033c4e55feU,
  0x3dc59551bdabf2e9U, 0x3dbac6a23d5ab73fU, 0x3d7801263ca985aeU, 0xbd6f38733cc3799dU,
  0x3ca4f7973c53512eU, 0x3daa982e3c6c8b83U, 0xbcbf69483c7d3124U, 0x3d8d440ebdd81fb0U,
  0x3c28e4843d98b80bU, 0x3d642111bd88b250U, 0x3c8ea85abd46d0aeU, 0xbdcdcf273d546394U,
  0xbca7eee9bd10829bU, 0xbdc51e52bc4d4d16U, 0x3d9e65103b93c6feU, 0x3d4b2561bc9ee568U,
  0xbd0c46e1bde72a22U, 0xbdd8933a3d1abfbcU, 0x3da477bdbde333a9U, 0xbdabd62ebd8f4242U,
  0x3bb83bc6bc4d4758U, 0xbd8802483dc973e1U, 0xbda3720f3d95d98eU, 0x3d98e65bbd2b5449U,
  0x3d15d986bdd209acU, 0x3da7581f3cbb4cafU, 0x3d66f47bbd8f7a53U, 0x3d95b0d8bceae4ecU,
  0x3c131954bdefd45eU, 0xbd3db3233dc75a0dU, 0x3dac36fcbdd5ca1aU, 0x3ca42a26bd62f080U,
  0xbdc01a7abd8da590U, 0xbcd94dd43dc2f4b3U, 0x3cf842fc3d0f3c3dU, 0x3d78881d3d7b703cU,
  0xbdba83f5bdcd239dU, 0xbd3b3e603d82f285U, 0x3d9feaefbc8965dbU, 0xbdc9d2593c9ca83fU,
  0x3d10ba103d9200c5U, 0x3b636e68bdb246eeU, 0xbd3a1e50bd0c24afU, 0x3dab9f873d665243U,
  0xbdcd24ebbddd64bfU, 0x3c5b0eaabde6a98dU, 0x3d091e61bce5c994U, 0x3d446d8dbd935340U,
  0xbdaa3e0abd4580b5U, 0xbd811d033d8853a8U, 0x3da8391fbd8a165aU, 0x3d452619bd306c83U,
  0x3d98919fbd97b741U, 0x3d8402abbd6ed7f3U, 0xbdc93e7abdadb23cU, 0x3d9c6cb4bd538a6fU,
  0x3b8248bbbd16e85cU, 0x3cc30c443c7b67f7U, 0x3d9cc40ebd0bf2d5U, 0xbdb1c2b3bc74881cU,
  0x3cad2b35bb9e93eaU, 0xbd97d4e2bc1b60b5U, 0x3dcd97f6bd9a8e97U, 0x3d9b94173dc5d2a0U,
  0xbdb7d924bd7388e2U, 0x3d83faadbd65e551U, 0x3d3b10dc3da5fb39U, 0xbd4cf3c4bd2adec9U,
  0xbcb31e34bdbaf2dfU, 0x3dc8ad923dc19ed8U, 0xbdb885dabcecf244U, 0xbd5f68613d941e15U,
  0xbd1417fabd07876cU, 0x3d585d58bde9729aU, 0x3d93edf03d8dcf10U, 0xbded803cbb4aac46U,
  0xbdcd36a43d02e4a8U, 0x3c631ca0bc1f3e39U, 0x3d126c78bb474fa6U, 0xbc91110cbb834683U,
  0xbdc2b3213d8b14c7U, 0x3d9a9ffbbd14be43U, 0xbde3c11cbdc3c5b3U, 0x3d85859fbdacbfb6U,
  0xbde7fcdd3cbcc6daU, 0xbae617e2bd6ce254U, 0x3d26208fbc5fc0f7U, 0xbca71e443dda5da0U,
  0xbd205f183d840f5eU, 0xbdc45b0fbc0ca82bU, 0xbc331df63c8023b2U, 0xbda3ae12bc03b45fU,
  0xbdaa5116bdc262d5U, 0x3d8035473d2c8aa2U, 0x3d4ddf0a3b2d0c08U, 0xbdb5a9e8bb976275U,
  0x3ca6b9cb3db0b700U, 0xbdf173bc3de18caaU, 0x3ddf39743ac98eaeU, 0x3c332ed8bd4f8bf4U,
  0xbce396febdc0da6cU, 0xbca79d503c988e84U, 0x3bf7e069bd440bc4U, 0xbcf3950d3d3e86d6U,
  0x3cc357c43dad78adU, 0x3dc259ec3cdbc1e5U, 0x3d8d2f653dc9d587U, 0xbdb6b2c1bd888212U,
  0x3d0a1206bdd380c6U, 0xbdebd43bbd2dd106U, 0xbc2412f8bbde367dU, 0xbd2c46e9bcc45359U,
  0xbdbef16ebdf81580U, 0xbd3253603be41343U, 0xbdb8b3b13ae58300U, 0x3dc51a093da5e8aaU,
  0x3d90074d3c2e090cU, 0xbd85f9603d4d479eU, 0xbd685d64bd9c2037U, 0x3dbe94e4bc4a3a45U,
  0x3d25457e3cc3b0fcU, 0x3ddc5cc13d807094U, 0xbd7838033da33ef5U, 0x3d0e7c1abd6ec43eU,
  0x3d9d5c7fbdd65bcaU, 0x3dd34c513ce340efU, 0xbcd613a83d2f6416U, 0x3d1830603cbf3fceU,
  0x3c49c880bc6a6332U, 0xbdf251f33c4e6502U, 0xbdaaff82bced5dfcU, 0x3dd798f43c9253b6U,
  0x3db95b22bd516b25U, 0xbddf8bbe3bf51fb0U, 0x3c7267423ce316fdU, 0x3db71c813c61d8c4U,
  0x3dc7b9f4bda34a2eU, 0xbc24a0c83acdc678U, 0x3daf76113d34b072U, 0x3de2c6cb3c9a5311U,
  0xbdbb37a33ad749c0U, 0xbd8fd9d9bcfcaab6U, 0xbcbf8b08bd958b11U, 0x3d12e0e3bccad9f6U,
  0xbd8808f13cdf0b05U, 0x3d546e27bcb62edcU, 0x3ba1c1973c3ad7e8U, 0x3c247e63bd7e1adbU,
  0xbd51ae67bb804f80U, 0xbd1ac17fbc86c684U, 0x3dbf3b02bdccf594U, 0xbcd44328bd2198d1U,
  0x3db2b9733c3166e8U, 0x3d001e4c3ddee891U, 0xbdefbb513d370adaU, 0xbd226d543d8f8375U,
  0x3c322e11bc02fd40U, 0xbc956b00bc0bf4b3U, 0xbd4dd64e3ca9f901U, 0x3def28babd3fa68cU,
  0x3d3ef72c3dbee55cU, 0xbd5a5815bd0c8e97U, 0xbd0625d23db9819dU, 0x3da678213c81a81eU,
  0x3c665cb1bdbd350aU, 0xbdeab399bd314aa6U, 0x3d9144fabbc001e0U, 0x3d650082bcd75a73U,
  0xbcd3f1d3bd7e0b0eU, 0x3d49d223bdc7d59bU, 0xbcc8e4703cdf3cccU, 0x3d4a322abd0b417aU,
  0x3de48d013d8de973U, 0x3dcbb870bda58fc9U, 0xbce35704bba91e7eU, 0x3cfad8963b0d8442U,
  0xbdbfc1d9bdf8899aU, 0x3dc6b41fbd1eb264U, 0x3c6fefc63d9e1d65U, 0xbd1caea9bd454eb2U,
  0xbdcf9a413d3434b1U, 0xbdddaccdbd21279eU, 0xbdb38382bda355bbU, 0xbddb92433d39e299U,
  0x3d8c09efbde5352aU, 0x3d1e370cbdba876fU, 0xbda264773d30543aU, 0x3d33829abc965fc4U,
  0x3d2d6d7dbdd6ef34U, 0x3d7fb0023c66c32aU, 0x3deef827bdbda59bU, 0x3d896ec53d10bd12U,
  0xbd953cb33db3d10cU, 0xbdd52211bdc1adcbU, 0x3d33e0523d57509dU, 0x3d69d48a3d13c37eU,
  0xbdbc6c613dbaa9d8U, 0xbd4b5c47bdcb8f3cU, 0x3b73ff0e3c735ef2U, 0x3d480b1bbab53d6dU,
  0xbcf2e524bd349980U, 0xbda5a731bc92c698U, 0xbd9d1a0dbddd61ddU, 0xbbe8eac0bdc3bd2eU,
  0x3d9dca27bdbe03f0U, 0x3cbaa4ccbd6821bdU, 0x3c4202d83cec7097U, 0xbddd33ad3dbb028dU,
  0xbdbe9b663ddb359eU, 0xbd9b2068bc0b5c7aU, 0xbd5f52adba14ba8fU, 0xbdb18bdfbd8f6990U,
  0x3d78a36b3dd6e20bU, 0xbc671cdebd70e065U, 0x3dd69375bcd88bbaU, 0xbb860a09bde290b1U,
  0x3d1a49afbc6bbe08U, 0xbdd3ac8b3d6bf73bU, 0xbdf38df7bdbac312U, 0xbde924d6bd8cfd27U,
  0x3c23eb263c7bcdf8U, 0x3bf31ad0bda04d32U, 0xbdbba84e3cd7e4f2U, 0xbd96461cbd5e8a28U,
  0x3a113510bc011f84U, 0x3d00e2683d9216c4U, 0xbd0897c1bd7ca0f1U, 0xbc1fe1943db174f6U,
  0xbdc8ab00bcbbfa46U, 0x3d6675f83bfbeab0U, 0xbddac6debc180e5aU, 0x3d886024bdda9ae8U,
  0x3b98b95e3d8d46ddU, 0x3b656bf83bb32138U, 0x3ce0a6053d2ce006U, 0x3d9e0b9b3d35cd26U,
  0x3dd779ad3d0c92b2U, 0x3cb2346c3ce557b4U, 0x3d1d588a3dcdfcc3U, 0xbd57f9833c151f8eU,
  0x3ca1420abda32034U, 0xbca92ecbbbde1fbeU, 0xbbb8d4963d930861U, 0xbcd627573d8edb17U,
  0xbce62ad63d05f8e1U, 0x3cae208b3dc4e302U, 0x3ced4e353d8b086aU, 0xbce6566abdd7a48eU,
  0x3d9baafa3cecfc37U, 0xbc899f43bb182d20U, 0xbce79244bf0ac499U, 0x3d75ac95beb415b0U,
  0x3ee2e71b3d8b67d6U, 0x3e1375ca3dfc49f8U, 0xbd4191d83c266506U, 0xbede23593dedf6f3U,
  0xbcf2cb26bdf57315U, 0xbe2f629a3e45fc5aU, 0x3d7e02893e7e5f23U, 0x3d6127333ddbaa02U,
  0x3bfc18353c2175cbU, 0xbd5c441a3c88744eU, 0xbd353818bdc82559U, 0x3df9891c3d75a562U,
  0x3da792af3cdaff13U, 0xbd3abf32bd764a47U, 0x3d96a7253ca29d5dU, 0xbbebe6423d45d821U,
  0x3efa5db5be8aefe2U, 0xbe8e915e3d94635bU, 0x3daa437dbd90d440U, 0x3d8ffe3e3e09ee40U,
  0xbbd3d1a1bda3d28fU, 0x3d2cb5fd3df2f2ebU, 0xbd9b2af3bef1f54cU, 0xbe82e63bbe022a66U,
  0x3d87cc7ebb7d784eU, 0xbd5016b6bdd760e8U, 0xbd57092c3cac93c9U, 0xbd3b04dc3e047987U,
  0x3eabc6f3bdb7e857U, 0xbc183ccb3cd92258U, 0xbd5a960cbe06f871U, 0x3decc8f33e1dd68dU,
  0x3f00fe1d3ea489a7U, 0x3ddb30c23c0bf111U, 0xbdadb6613d092bdeU, 0x3e856302bd2c0fb5U,
  0xbdbc7a87bdd0145cU, 0xbc8293953da4e346U, 0x3e0027893e8c1a1dU, 0xbe5a9ec53bab755cU,
  0x3bc791453dfed00bU, 0x3c0b72033d3a00efU, 0x3da5f2ff3e05deeaU, 0xbd849ccf3e0e6d8eU,
  0xbe0d61b93d53a999U, 0x3e45be2b3d8d9200U, 0x3c90a6633e084fccU, 0x3c75af59bdddcf0bU,
  0x3e809af03d977541U, 0xbe70cd7d3ddcf629U, 0x3bc22546bd366dc0U, 0xbe8d21463dd99ce8U,
  0x3dc5ff413de10045U, 0xbd3c67a03e84bcccU, 0x3e0a2c0cbe5c803fU, 0x3e5dc34c3dfa5a12U,
  0xbd2e480cbafe2a92U, 0xbc93c8f6bcd9a2c6U, 0x3da573d1bd0d72b4U, 0x3cd2ae7d3e243760U,
  0xbddc466ebd86b28bU, 0xbcfa09c13dc59a14U, 0x3dfe2ad83e20c060U, 0x3da26392bdfdd1d1U,
  0xbf5e6b2ebc4ef095U, 0x3d8e841f3dfe90dcU, 0x3d3cab03bd54e685U, 0xbe85236e3bd2251dU,
  0x3be3a2eabdbb083eU, 0xbd582ac53d0bb1acU, 0xbb21cdd1bec7850bU, 0x3e6a805ebe15d00cU,
  0x3d7d2a53bcc29643U, 0xbdb394d53d8d86baU, 0xbce5d4a23d92db86U, 0xbd5a75923bf53637U,
  0x3d99ae61bd8e8ad1U, 0x3b25c0b63e1b88f0U, 0x3d845c9ebd01ef6eU, 0x3bb43b893e84c74bU,
  0xbc2daeb0bce74ff4U, 0xbeb631bebd52d043U, 0x3d913ebd3d847354U, 0xbf169b43bd48cedbU,
  0x3d88bea53d0e7f83U, 0xbdb4f433be445c85U, 0xbda914dcbe883c79U, 0x3e3b2f783e05961dU,
  0x3e40655ebd9f7554U, 0x3e0ff2dabd9e210fU, 0x3e4a309ebd2981f0U, 0x3d55166f3c9d4484U,
  0xbe37ef2fbc9a65d9U, 0x3dd91eb4bd51dcc5U, 0x3dc83054bd23babcU, 0x3d5ce798bd3dc8dcU,
  0xbf23f2e4bd81ad98U, 0x3cf8f0f43e123837U, 0x3da068e63e319b2eU, 0xbe1caef63d84bc46U,
  0xbcb092e73dc30942U, 0x3d55de65beb892e3U, 0x3dcdd290bbde8324U, 0x3e3b7b03bdee34b0U,
  0xbd914cb33e0142bcU, 0x3ce85a353d9ab54cU, 0x3d6257bf3e0802ebU, 0x3e0fd177bd1ead8eU,
  0x3e18aea9bc196d6fU, 0x3e13138d3d701865U, 0xbc4d8ec9be71e1f0U, 0xbda7868fbd3479ebU,
  0xbd290c7fbe91e6c5U, 0x3d1e134b3c8928b1U, 0xbc49b10f3db761a1U, 0xbea282ba3e2af87aU,
  0xbcd3ee693e0858c3U, 0x3dfb54d9be03f9c7U, 0x3c13655bbd4f336bU, 0xbdbb7032bc997dc8U,
  0x3e0770d8bc072271U, 0x3d85e1e33d9eea75U, 0x3dbf76f2bdacaa9eU, 0xbd88d97f3d906397U,
  0xbe022ae2bd84fa1aU, 0x3ddb5eff3dc665aeU, 0x3dcddcdbbdab35a9U, 0xbd28efca3e5130a8U,
  0xba90960f3eff0ec3U, 0x3e365fefbc2fb821U, 0x3c8bc1583d6ed19bU, 0xbecb88ebbd82fbf5U,
  0xbc008496bdae0e7fU, 0x3def6972be0bd1e9U, 0xbc93c964bdc1f308U, 0x3e3c8689bdbb0be5U,
  0x3da89bafbd4c7f29U, 0x3deb5d75bd7c91d5U, 0xbc4d7b723e05cb35U, 0x3d8274f83e11655eU,
  0xbd20e0aabdc8a750U, 0xbdd448f03dd9c346U, 0x3d5bf2f13bdde45fU, 0xbd75f4ccbd98a133U,
  0xbf13541fbd70a331U, 0x3e78e097bcf6ac77U, 0xbbaf2be8bd80cb61U, 0xbe493a583daf65ebU,
  0x3dad8de23e010e91U, 0x3d26ec433d96dca3U, 0x3c8734bcbd889d73U, 0x3de0f410bcee44d8U,
  0xbd5b3773bd63576eU, 0x3d094b20bd55a6d9U, 0x3dd0d29bbc790b6fU, 0xbc738a2abd4e689fU,
  0x3c760237bdb029efU, 0xbdbe18b73de4987bU, 0x3d608690be470455U, 0xbd17abb73eb0071cU,
  0x3d1ac34d3dce78caU, 0x3e73669bbdcb7e1aU, 0xbdd135df3d2dba68U, 0x3d1a4a38bd398d1dU,
  0xbc0ae50c3d4b337cU, 0x3daa88a6bded73a7U, 0x3c54e7c4be5ed474U, 0xbeb54eefbe2b0deeU,
  0x3d8fe56b3e0631e8U, 0x3e31b29e3d2991aeU, 0x3e06a8403de6f38cU, 0x3d9acee43baaf55bU,
  0x3ed98fd9bac081f4U, 0xbd5f5073bcd915c3U, 0x3cbf2e9d3d66fe01U, 0xbdc36e643d7d5eb7U,
  0xbbd7f6a63dd748c6U, 0x3d2d8b153cb61ff3U, 0x3b32157d3e37c563U, 0x3ec305953ceaafc3U,
  0xbca1291e3d98d7f8U, 0x3e2dfda0be149b97U, 0x3df1fd89be620f63U, 0xbebec3a03c6bd619U,
  0xbd11d3fbbd9d6d1fU, 0x3cdbeb123d3e4346U, 0x3df1fcc8bd9a9381U, 0xbd234b36bcd2f18eU,
  0xbf0826c93da6676dU, 0x3d0bdd193b657c02U, 0xbd3dbf413dcfc871U, 0xbd10f53cbe182aefU,
  0x3d2aec1d3d16282aU, 0xbe9fb4073d6796bfU, 0x3dda7a223dfece94U, 0xbf080ee03cd0cee8U,
  0xbce93b5ebd55a422U, 0x3c362f56bdfe1172U, 0x3dd0434cbe82995dU, 0x3d2be8febd87ec08U,
  0x3e1a8f163d81a11fU, 0xbcf584b4bd0523e5U, 0x3de4d8713d09c5b5U, 0x3d9d77e63cbe1ce4U,
  0xbdc13246bdb4646bU, 0xbc78f6573c382066U, 0xbdaeb0a0bd816604U, 0xbdd296e43e1066d6U,
  0x3e81f1ff3c253ebeU, 0xbeb0094d3de259e6U, 0x3db7ae02bddfc089U, 0xbe923fef3cf6139bU,
  0x3db942a6bd1e9dffU, 0x3c5b17d03e71199aU, 0x3db053babe5caf81U, 0xbe2418bcbd9997fdU,
  0xbd2e8edc3cfc603aU, 0x3db2cc033bf3bc89U, 0xbcd25b303dcc18e7U, 0x3d223cde3e119a2dU,
  0x3e44e9a43ca9c05aU, 0x3df64cd63cabf086U, 0x3ddc2399bd824750U, 0xbdb5603d3e81d119U,
  0xbd90a996bcf9a18bU, 0xbee9801bbda282cbU, 0xbdd55ed83dcb40b7U, 0xbe8d1c36bda0d339U,
  0xbce8512dbd3e19eeU, 0x3d38f7223e60afb1U, 0x3e14e8a73d4b7496U, 0xbe7518803d48e3f4U,
  0xbd17a0453e198f13U, 0x3d516dd5bc16a7a4U, 0xbd3e85513dec915aU, 0xbb00a20a3e00d22fU,
  0xbe89dbcb3bc2cebcU, 0x3b79248d3d90e0d3U, 0x39eb854fbe9072bdU, 0x3daa8d15bcbdcdcaU,
  0xbddb2e2abecef4d6U, 0xbdc307173d38cf98U, 0xbd10bd3a3e2dbb3bU, 0xbebc319c3db55c5aU,
  0x3db4896f3e337926U, 0x3d9987e63d3e8daeU, 0x3e07d036bf05a061U, 0x3e92c7b33e5d0128U,
  0x3d44cd503d95fc9bU, 0x3dc0a3d93d851d1bU, 0x3e16f6d73db2a10cU, 0x3cc1322d3da347b0U,
  0x3c07e7243bcfa691U, 0xbd71ec863c47d9e4U, 0x3e21b3103e6d5a36U, 0xbd22d0873c659a19U,
  0xbe912b703ec4addcU, 0xbdac22553dfd1886U, 0xbd82ad8ebdbd0dd6U, 0xbd0c3ddabcd83c3eU,
  0xbdb338d53e0e186dU, 0xbd71d79dbbb6d1c2U, 0x3de26d593e38f978U, 0x3c8b6f9bbde697f7U,
  0xbd6d0e5d3d67adecU, 0xbd602de83d46fc1aU, 0xbd21c35b3cda3568U, 0xbc924e323d121126U,
  0xbda5fbfcbde27920U, 0x3d8bd2153d9e984fU, 0x3dd17c83bda859beU, 0x3c8423f43db457f4U,
  0xbeae9615bd6d05a3U, 0x3ee18f17ba5f3ff1U, 0xbd8ba511be1160baU, 0xbf1b3c92bd05fc97U,
  0xbd87bbd63d401caaU, 0x3df4c067bdda9e07U, 0x3ca309dabe9aaec6U, 0x3dfcee35be1a6f8fU,
  0xbdcf95683da72d8cU, 0x3c4a89a83c097d13U, 0xbdab25f3bd4cc986U, 0xbe01c985bde1191dU,
  0x3d4a6a0bbdc2bfbdU, 0xbd22ca1fbc10f3e1U, 0xbaf85f62bcbb3e8aU, 0x3d833a57bde811e1U,
  0xbdbf10bebddf71a7U, 0x3dcf1994bd49e88dU, 0x3df06c823d2e115aU, 0xbda716bb3dbfdfb4U,
  0x3dc230adbd50557eU, 0x3d952e84bb0c1362U, 0xbd8da7afbc0eadd9U, 0x3b0c9da43de36dbaU,
  0x3d2079d6bd9948deU, 0x3dd51dca3dc5d984U, 0x3dc9d7a73b8ecd26U, 0xbdf2f661bda59e6aU,
  0x3d543f033c4da0c4U, 0x3c10254fbce2af99U, 0x3d213d663d8b0222U, 0x3dd1c7f53d175ba6U,
  0x3cdae4ff3db8dd6eU, 0xbd002aa1bddcc8a6U, 0xbc9475abbb052e0aU, 0xbb90eb47bcf9f2f3U,
  0xbdbd18a6bd7560a8U, 0xbc1784f23d482e4eU, 0x3dacbb723d7c42feU, 0x3a683d80bda98520U,
  0x3ccc7d85bcc5a7fdU, 0x3d08e76dbd93d6bdU, 0x3c00fc1ebd75b6b7U, 0xbdc6c2c7bdd72609U,
  0x3deabbfbbdf0b782U, 0x3d21d57b3dc150b6U, 0x3d8256153d8479caU, 0x3de7c0a93d3ee5e4U,
  0xbde0443dbd172adbU, 0x3dd39ae4bd7d8f08U, 0x3d4f53813d2a96b7U, 0xbc9a0c5b3dce8acdU,
  0xbd63b44a3cbd2929U, 0xbd3eca5bbdd30537U, 0xbd78f401bdddb1b4U, 0xbbe49060bdd29ba1U,
  0x3d9b7773bd3e8827U, 0x3dab33d2bca4c2caU, 0x3d64d5c7bdaac1b1U, 0x3da3fe24bc61b1d9U,
  0x3d45c9ffbd2da323U, 0xbdf039d3bcb9ca3eU, 0x3d5fb834bcf000d5U, 0xbce1dd92bc0ca062U,
  0x3d4a6333bc40c45bU, 0x3d2600c63d887c0dU, 0x3d114c723d8948e2U, 0xbda8d50abd8c70b6U,
  0xbdb6efe6bdde780dU, 0x3da0f8203cfb494eU, 0x3c9dd812bd2addecU, 0x3b453d6c3c9ef28eU,
  0x3d88152f3c178a14U, 0x3d05adb1bd2f6919U, 0xbd9d2267bdb75a84U, 0x3c3a9db33cd762e5U,
  0xbb3031c4bddb2216U, 0xbd9bb90c3d02fdaeU, 0x3d05988fbdae44f6U, 0x3d85fa113d991886U,
  0x3c7de2db3d136ef8U, 0xbc620b493c83ece3U, 0x3d82ab0dbdfc509dU, 0xbd14495fbda8e5beU,
  0xbdb1bbe13ce40fb0U, 0x3a67d1443d1ec3feU, 0x3dc12656bc53fe2dU, 0xbdaeb28bbd3f1abeU,
  0xbd805611bd9950e3U, 0xbdda580a3d07f0efU, 0x3cba38dd3d69ed27U, 0x3b6608e4bdc72a91U,
  0xbc20a5dbbd82d617U, 0x3c9566c83c1f0a03U, 0x3d8d865d3d9890a6U, 0x3c2b18413d60dba6U,
  0xbdeb3e70bd81c6d3U, 0xbdc9af9cbdca932bU, 0xbdeaf8a73d78e69dU, 0x3d7a9d3fbdcc16b9U,
  0x3dd68ddb3c7341abU, 0x3dbe215f3d4f9bc7U, 0x3bd8491ebc344430U, 0xbdcb16bf3d067826U,
  0xbc9f4346be011b75U, 0xbde32fe1bd8cf57cU, 0xbd8476a73bd32136U, 0xbcb201973cfad849U,
  0x3b5ae8e83c98f18fU, 0xbcffad5ebd37d6b7U, 0x3dbf996dbdca069cU, 0x3dae0a92bdca74c3U,
  0x3db02973bda8742dU, 0xbcb87577bdcc659aU, 0xbdb83d623c9bbca9U, 0x3cf7da3c3d8015aeU,
  0xbdb4fdca3dc4137cU, 0xbcd0c0243dc6623aU, 0x3dd3c2e53d2dadafU, 0x3db0ed5abdced111U,
  0xbd978ee4bbf398daU, 0x3ca2018d3d22a155U, 0xbcc74b1abda84128U, 0x3dc10ace3d45b5d0U,
  0xbdcea9bc3dc75e9aU, 0xba89f412bdcb62b7U, 0x3c1c5c833b48e00dU, 0xbcfb92eb3d406738U,
  0xbd8e38d43d3c7f31U, 0x3daa727dbbaa3118U, 0xbda9db203d749075U, 0x3dc7907f3d6d818bU,
  0xbd9676e73d2ea3abU, 0x3d8243263d26a184U, 0xbc2e97d23dd46d34U, 0xbd88d744bd8bd8bbU,
  0x3d288dcfbda6201bU, 0xbd8b8baebde30e0cU, 0x3d16d284bb866b3aU, 0xbde8f7ce3d66b053U,
  0x3d0cada23c23bd16U, 0xbd5c3b77bdc023a1U, 0x3ddb2714bdb4f1d8U, 0x3c9d00c53dc53c75U,
  0x3d87b694bd81a604U, 0x3db94786bda018d9U, 0xbdae80db3c1cbdd9U, 0x3dd202e1bdc14fbdU,
  0x3d4d57acbdc32f53U, 0x3db71f54bd6b3e2dU, 0xbd8749453dbaede3U, 0xbdd76a983d8f70ddU,
  0x3dcc85d23d709668U, 0xbd30b3d43d9e9616U, 0xbd048547bc9d50ebU, 0x3d84fbab3df886a7U,
  0x3db7ff7f3db01ed1U, 0x3db8e5de3d8df89aU, 0x3dcf9ba13de7f254U, 0x3cafb1f5bd613e8fU,
  0xbd65a7d6bd0d90e1U, 0x3d8d90973addaf80U, 0xbda0d40dbd12b792U, 0x3e1523eb3df2e39fU,
  0x3d0fac363d85ffb2U, 0xbcd4043cbd9274eeU, 0x3d91550abded64c9U, 0x3dd8b4eebb6d489aU,
  0x3e1c6c933de5b982U, 0x3ce62b29bbeeadc6U, 0x3cb1d5083dae74ecU, 0x3d9aa3d3bd878e0aU,
  0x3d2730043dcd047eU, 0x3d108c14bcee1854U, 0x3dc5dd44be0b7959U, 0x3d4612a53e1ffce3U,
  0x3e251dd7bdacaa61U, 0xbcef04383ca976b9U, 0xbd6d40713d51d755U, 0xbd5a6c59bced7d3cU,
  0x3d96750ebd932b2bU, 0x3e2597163e4b3b8fU, 0x3d97fb59bf02c6b7U, 0xbd9fa6f6be0d547dU,
  0x3e02a338bc99babcU, 0x3decdba33c880c4aU, 0xbd943a9c3d9a11c3U, 0x3e06f13b3d104365U,
  0x3e517c6a3c1ad61fU, 0xbd75688d3e2a41d9U, 0xbbdc79043e5be3d4U, 0x3dcba391be299f99U,
  0xbe235c0d3d6af5a8U, 0xbda0ebae3e268f6dU, 0x3d1988cd3ca1f0deU, 0x3d56f4ab3e253775U,
  0xbcb7d3f53d64617eU, 0x39489272bcdb880dU, 0x3c4550cbbeeb3d71U, 0xbd61e5a63d48df1bU,
  0x3e1397d93e0824c8U, 0x3de558a03da56ab3U, 0x3db12533bce893f4U, 0x3d80f3573dd2ecbeU,
  0x3dc80ef53d5b150aU, 0x3d2acfb23a38829eU, 0xbd3f830fbda64583U, 0xbdec770dbe2bb725U,
  0xbe5ed618bdba3f88U, 0xbe15db693dc50aedU, 0x3cceb81b3df88c43U, 0x3d252e363dcc3705U,
  0x3df0fd16bdb4ab68U, 0xbd84afc6be6121a2U, 0x3d88bcb2be5d2e51U, 0x3d8ecd663d2c68fcU,
  0x3c9259a13dd46058U, 0x3b36c3f8bdc737c3U, 0x3d3ea3b13df6f505U, 0x3d844c4dbc0761e6U,
  0xbde8b72dbdb26934U, 0xbaea668b3d920605U, 0xbd144078bd871847U, 0x3d1eea58be3dec57U,
  0xbe8ab8213e6d26a8U, 0xbd9698e33dfb5401U, 0xbda718833dd5e1f3U, 0xbea87f5e3d97431cU,
  0xbd7dca403daceb9dU, 0x3c9d1c0ebe031313U, 0x3d58b7b2be97fd86U, 0x3cf783ec3d32a32aU,
  0x395b74d6bd129434U, 0x3e0afa73bdcf7364U, 0xbdbbb7253ddf9a80U, 0xbdadce393dbbaa5fU,
  0xbdd2c3f4bd010712U, 0xbdd662b33d3c9cd5U, 0x3dd72dc0bd721fafU, 0x3da073c2be11a147U,
  0xbf03dd98bdec5acbU, 0xbdbce524bd5c522cU, 0x3d8d1234ba605485U, 0xbe834676bd10786aU,
  0x3d93a812bc85910eU, 0xbcc51114be39e937U, 0x3d102bcebec6f170U, 0x3e01b235bdd03484U,
  0x3cb0d0563cfb5cb6U, 0x3d6f707dbc032209U, 0xbd35d5783df7aad8U, 0x3d0ac32d3db35587U,
  0xbdac80b73dd941efU, 0x3d85bd953bded516U, 0x3d5a10e83d9cf3a1U, 0x3cb5864bbdd982bcU,
  0xbec0bcc0be378cf6U, 0xbdb0e5e7bd3ff954U, 0x3d76a23e3dffdca0U, 0xbe0691e5bb6cb1c7U,
  0x3e21d2043d21f9d7U, 0x3e20c693be03d604U, 0x3e0efea3bdaa4ff8U, 0x3d72b3113d18fc32U,
  0xbca42bc23da0f1dcU, 0x3e181bdfbd9b8cf8U, 0x3e14499dbdae071eU, 0x3dd8d0683cadcb87U,
  0xbe303121bd8be13cU, 0x3dc714d93e068f08U, 0x3d810509bdcb2a1fU, 0x3d9ee5553dc58b5aU,
  0xbedd9942bac9c569U, 0xbd99854ebd99e68eU, 0x3ddd37b5bc1c7a31U, 0xbd32701f3d8ffeceU,
  0x3d6fecbd3db0c394U, 0x3e3b7d48bd840cf5U, 0x3da7bd7dbe065c16U, 0xbd423792b81c4824U,
  0xbd54f3a33e03e9cbU, 0xbd2a1d493dc898beU, 0xbc4ef9b93e061968U, 0x3dcb3bf2bc49b597U,
  0x3d63448cbd63f6c6U, 0x3e09dd78bcff189aU, 0x3d2dfa8e3e017c8fU, 0xbd89d2a03d853f27U,
  0xbf593d5bbcaa2c17U, 0x3ca16a4ebd56bb08U, 0xbd9edbed3d4e68e6U, 0x3d4e06213dfa6e79U,
  0x3dc1eda83df14087U, 0x3e09cdce3e97d142U, 0x3d65be05be32b5a6U, 0xbca489083e37b226U,
  0xbdd535ae3dc3ecf7U, 0xbd6a19d3bde56409U, 0x3d0ce53abd348c3cU, 0x3cf3e1b73dbfa540U,
  0x3d7c4fb03d6a54ecU, 0xbd5141f33d621edaU, 0x3c2cd7ba3c5887caU, 0x3d433d36bdad1aedU,
  0x3d509a22bcde71a7U, 0x3dcc3840bdeac52fU, 0xbdc91eb2bdc9cccaU, 0x3d8051883c343c25U,
  0x3dc782353d8f053aU, 0x3da1fb19bdda68c9U, 0xbe0442a53d544854U, 0x3d39af1c3d4713e0U,
  0xbd91bbb1bd963204U, 0xbc7f2f4cbdc85efbU, 0x3d65f666bd533130U, 0xbdceec96bd1cbf59U,
  0xbd0ccaf43db08381U, 0xbd31fa42bdafb0b2U, 0x3d4689ca3d65c331U, 0x3da9bf32bc35d26aU,
  0x3d95c33bbdca551cU, 0x3d3f1d3d3d0b7829U, 0xbd4e4a94bdd3345fU, 0x3dd74da93dd8bbcaU,
  0xbdc7f719bdd7fa9aU, 0x3c0aea193c2f3e42U, 0x3db0cc333d23291aU, 0xbc33fff73ba2b348U,
  0xbcee4af3bda3a740U, 0x3d6fed673dbd87d8U, 0x3a86c074bc38b622U, 0xbd654afcbdf0ac85U,
  0x3dcc6357bc97095bU, 0x3dd9cd72bce1cfcaU, 0xbdbd8834be061bd8U, 0x3dd65dbbbd8bc56aU,
  0xbd5115fcbde5447dU, 0xbe00c17f3d02f76dU, 0xbdcbad26bd2eecb8U, 0xbcc0e61e3d8736a7U,
  0xba4f5deebdd9db7dU, 0xbddb25ba3db292dcU, 0xbdb07a67bdd27484U, 0xbb906557bd740207U,
  0x3d0decf93d5c1bbfU, 0xbd4ff9d83d10272eU, 0xbe0498903dc9c47dU, 0xbdb29b123db3e993U,
  0x3cdec6d9bc8360a8U, 0x3cd9279ebdb49b8cU, 0xbdf61ffd3d8f1128U, 0xbc8a0926bd570ea1U,
  0x3d7308e73d691d5fU, 0xbceb3f61bcf2ca22U, 0x3bc4a5633ca96c00U, 0xbdcd85603dbd4fa7U,
  0x3dc0c0573d6823c4U, 0xbd0dd8443d888e42U, 0x3d42bf3bbd6a4059U, 0x3d36d2c23dee94c9U,
  0xbdb4afb8bde43925U, 0xbdbefbe5bd3d3e8cU, 0x3d1f7cb93d736f0fU, 0xbdc0bb41bc8b759bU,
  0xbddde48e3b6707c4U, 0x3db5743bbbe3b762U, 0xbddf154bbcb02501U, 0xbda309793daf0c5aU,
  0x3d76fbb13d2f722cU, 0xbc7b823f3d01104eU, 0x3b54abeebda9c941U, 0xbc1cfa153d80670eU,
  0x3d4a9d07bd6a6cbbU, 0x3d2c953ebdd99461U, 0x3dc875903d0208b1U, 0xbdbc73fa3daf7acfU,
  0xbdff95653d2f3f2eU, 0xbd53c078bc12aac3U, 0xbdb3dc583da9d92cU, 0xbd3ccf2fbcd3324dU,
  0x3cec3451bcb29a9fU, 0x3be380a5bd70ff77U, 0xbdbe27d63ced49b8U, 0xbde95148bd0c4e37U,
  0xbddbb2233d676b75U, 0xbd0d968e3db4f8f7U, 0x3c0f9e903db765a7U, 0x3c042bcdbda3f10dU,
  0x3dd7aa703c581ee1U, 0xbdd65054bc1167c9U, 0xbd9c4b4f3d885c5bU, 0xbdd85a8ebc5a7808U,
  0xbe1211dabdb7d1c0U, 0x3d6511a2bca378feU, 0xbdeb72953d8889a0U, 0x3b60cac9bcd6618bU,
  0x3d602af03d9490d4U, 0xbd838b443d2f400dU, 0xbd76a4523db16359U, 0xbdd68f443da3dcb5U,
  0xbdddb78d3d649b2dU, 0x3cb40b70bb2e4888U, 0xbc849181bddc3624U, 0xbd77f29cbd006792U,
  0xbc02954b3d8989c5U, 0xbd77225d3dfa4f9bU, 0xbd738957bca2482dU, 0xbcc544a03d1aef80U,
  0xbd4aa708bdd3c7b3U, 0x3c9c0be23d88b5aaU, 0xbcaf3a1cbcd2a27eU, 0xbdee8f51bd48e777U,
  0xbdd0c7e03d60184fU, 0x3d44f3e63da7a727U, 0xbd49c000bdaf307bU, 0xbd34143abdd07a04U,
  0xbca023dc3d993d59U, 0x3c9ab41ebd9b2c63U, 0xbc59ad6cbdab64f7U, 0x3d87380fbdb536ddU,
  0xbd341b1a3d5b3999U, 0xbdd118593c7c5b20U, 0xbd0e58c23d3f14c5U, 0xbdaf9ec4bc87c26cU,
  0x3d1f66e73d05882eU, 0x3b8451cd3dd2e99aU, 0xbccf27e8bd232dbaU, 0x3db77d7bbdb08c22U,
  0x3c41baefbd99b70eU, 0xbd1d860f3d7c078bU, 0xbc435abd3d65230bU, 0x3d2c2e84bd9bc6efU,
  0x3ce5a38b3d6f2462U, 0x3d8831e8bd36e813U, 0x3d8b92143dd7d08aU, 0xbdada8323d2554cbU,
  0xbcd36b6bbba44854U, 0xbded40e53dfba188U, 0x3da00f3c3d44273dU, 0x3ce4c2b3bdcc365aU,
  0x38bdf3903c6d700aU, 0x3b7236d0bddfa506U, 0xbdf6bc37bd0ef648U, 0x3c37644abde1b6e4U,
  0xbd684e9dbd771500U, 0xbd2287bd3c8b2dbaU, 0xbc8bc60c3c2f32aeU, 0xbd8f11773dea8c2bU,
  0x3da1d33d3c12373fU, 0xbbcbe2d7bda0908eU, 0xbdcebfd63db09ec2U, 0x3d302c1a3dad6af5U,
  0x3d6adf7dbdc51cacU, 0xbd5652263d3b010aU, 0x3d1730afbc8d690eU, 0xbcdcee78bc3e5e83U,
  0xbde710033c9fc808U, 0xbe02fb61bda52a4aU, 0xbdbc5d40bdd98e93U, 0xbd9d26fc3ca783c7U,
  0xbd8a6a853d20420aU, 0x3ddd9a4c3d8562fbU, 0xbd8ab498bd7456baU, 0x3de07919bbdc9ce0U,
  0x3d89de0bbcb1750bU, 0xbd9f2358bd564960U, 0x3c076fb63cafe46eU, 0x3d8df061bd813371U,
  0x3d50bcd4be001fccU, 0xbb7fa0f33cc453c6U, 0x3b13077e3db6873dU, 0x3d2ef7d23de81c7bU,
  0xbdb1e8dc3c9acd1eU, 0xbd033abbbdb4d732U, 0x3d13b7543d030869U, 0xbd10b6debd85491fU,
  0xbd8091e6bdac296fU, 0x3dc3b048bdc5602aU, 0xbce98341bd6a18bfU, 0x3d9284c3bdde23eeU,
  0x3de69b00bd6a75f8U, 0x3dd27d923d36b06fU, 0xba714ca7bbe3282dU, 0xbd969484bdaf8ac9U,
  0xbd7e09c03d9a0fc5U, 0xbddbd52d3c6b2dbfU, 0xbd197bb63d672990U, 0x3dd1a0433d5f4aa9U,
  0xbc16ab18bcf681caU, 0x3c867590bcb882e6U, 0xbdb02a0bbd3803b3U, 0x3ceb0047bca140eeU,
  0xbdcb02683d690b5eU, 0xbcc492efbd823ed7U, 0xbd3efb5a3cd8c046U, 0x3d4e0272bd10bf14U,
  0x3d5d97523dc1f52bU, 0x3a0efaeb3dbaa138U, 0xbce2f6723dbb3a08U, 0x3d16452b3dc4fc60U,
  0x3d9e71943d8cd937U, 0xbda571123dbba359U, 0xba8693293d574709U, 0xbd518890bd035916U,
  0x3dc92d25bda0ca87U, 0x3d802242bda84016U, 0xbb85058ebd744bc9U, 0x3d869c12bdaad122U,
  0x3b675ca03dae1fc6U, 0xbdd4c4113daaa055U, 0xbca0eb4a3da0f910U, 0xbdec6b6c3d060672U,
  0x3dc0c676bdc7341eU, 0x3b738aeabaac6328U, 0x3d474cbcbdbdc87eU, 0xbc661de0bd993ce9U,
  0x3ab2d2c73d94b2caU, 0xbd9865923d649dc9U, 0xbcbede8c3de003d7U, 0x3c832434bd458d03U,
  0xbd12760ebb6fb609U, 0xbcc6f0bbbddc8ce6U, 0x3d9dd5963d52cd3aU, 0xbdfcadf33d94ac40U,
  0x3d278012bd8ea22fU, 0xbc4e7fcd3d1f9acdU, 0xbd9369373d9f6686U, 0xbdd8e1a2bda82e7aU,
  0xbcd234943d2bb041U, 0x3cea7c56bd23bcadU, 0x3ab8b9923da9529aU, 0x3dd3a5b1bd5e76c5U,
  0xbd0bd493bdcf7602U, 0x3d4e47d1bd1fccb2U, 0x3da969dc3d5f883bU, 0xbdde9a4c3d1456caU,
  0x3dc4909cbb968d48U, 0x3dc69db63cc68394U, 0xbdbf20adbdf71934U, 0x3d202ad9bbbcec3fU,
  0xbcec3c8cbd7ec231U, 0xbce88139bdb4fdf7U, 0x3d80cdd7bdd43333U, 0x3b0961203dc19e0aU,
  0xbdda43bfbd8ee93cU, 0xbda1d4b43cf3a19eU, 0x3d98e5b13d91af7aU, 0xbd283cfebd30fcfaU,
  0x3d35207bbdef2bb1U, 0x3dc03d1a3ddb8863U, 0x3dce3ce6bded5e1aU, 0xbd8274493bc74d73U,
  0xbda360f13d581c99U, 0xbe01cb48bb952b90U, 0x3dbdc6ef3d34217fU, 0xbdc9b1e03cda588aU,
  0x3de39695bda4a946U, 0xbd31dfc1bdc638ddU, 0xbdd361f7bd8adf5bU, 0xbd896988bdbd9315U,
  0xbda60b0e3dbead6aU, 0x3c5aaa0bbc914324U, 0x3de3057dbdb54459U, 0xbdae24ccbd81571cU,
  0x3c76de2fbdf31920U, 0x3dc51f84bdaba785U, 0xbe050aaf3d2f8d56U, 0x3d74b5623d9204e0U,
  0xbddd0a6fbd945e1cU, 0xbde561383defefe1U, 0xbdcec71bbcd95ac7U, 0xbd7d2df63d3e0c4fU,
  0x3d92e39e3d4e4dceU, 0x3b6fa4dd3dad009eU, 0xbd0cd50bbd2e708dU, 0xbded2b103daf9769U,
  0xbdd716fb3933ee00U, 0xbdc4e0e1bdbefbc9U, 0x3c9ea2bc3d8ea6b4U, 0x3db49d8139a2adf1U,
  0x3d339e19bd4715ccU, 0x3d53a99f3d2204a3U, 0xbcf09cf4bdc8d11fU, 0x3d4061a23dd92167U,
  0xbd94b9a1bdf191a3U, 0xbcbeaeb03ddac64fU, 0x3cccd1f3bd896300U, 0x3d3cb7afbcf3f166U,
  0x3d6283063ce916f2U, 0x3dc7dd13bd7b9fcfU, 0xbda230c53d2d442cU, 0x3d915ed3bdcb286dU,
  0xbc20b6a8bdae16b6U, 0xbbaef2eb3d5f8847U, 0x3dbbadc23da98ed6U, 0x3d34dd423c988167U,
  0x3dd4f5993d4d23a9U, 0x3c279b0a3dc86919U, 0xbdc2154b3c26f48fU, 0x3cb7db743cdec787U,
  0xbdcc90babd80dc31U, 0xbdf13b33bce68b6fU, 0xbd818bf4bdf24cacU, 0xbdb92e123d008397U,
  0xbd1966313d5a8396U, 0xbb4428e23d6578a3U, 0x3d1e5700bce14489U, 0x3dbc9d613cda23d4U,
  0x39af9200bd1d8983U, 0x3dbca8b33d197afdU, 0x3dd56d18bd8b8f28U, 0x3dd7dc1b3d29f665U,
  0x3c35c92abd53d169U, 0x3dc24f86bdb6b18bU, 0xbd2d4ecd3db56038U, 0xbddf1807bd49310dU,
  0xbd8f4fd1bc97d7c7U, 0xbdb4cd7ebcd94cebU, 0xbca33a88bc92b28cU, 0x3d5d392cbdac2e0aU,
  0xbdafff76bbd60a75U, 0xbd4e43423d336cb9U, 0xbd2b89913b6eaa38U, 0xbde9a58f3d91b5fdU,
  0x3ce9e3abbda04fc9U, 0x3d670c3d3dad03cdU, 0x3db1bb0c3c6227a2U, 0xbd6ee601bd7dfa64U,
  0xbd438ddfbcbfd2b2U, 0x3d9006d33dc53c8dU, 0x3d989f58bcf4e6edU, 0x3daaf837bdecfa56U,
  0x3c1169983d9a26ebU, 0xbdba627dbb02907dU, 0xbc85e9e43de50b3aU, 0x3d1a5f83bbcb07bcU,
  0xbd9ea177bd7b8d29U, 0x3df240abbd8b5ad6U, 0x3d8f5fdc3d71433dU, 0xbdd8e14abdacc34eU,
  0xbc8e1885bdb912b9U, 0x3d9dd215bd5e78e3U, 0xbd883d513d923707U, 0xbd39b762bd87f232U,
  0xbd99eac23de9c88dU, 0xbdb112aa3bf31ac1U, 0xbced5a06bd23cbe6U, 0x3d3d35febb1036dcU,
  0xbdca103bbd4c63f5U, 0xbd371c25bd81fea5U, 0x3d3daf763dbd298aU, 0x3c6e31183db74926U,
  0xbcf9cc0b3d4d54c9U, 0x3d845b95bd4654eeU, 0xbd86bdbc3dd5d940U, 0xbc316280bdd3aa3eU,
  0x3d4bb832bd833454U, 0x3cc49e403d8b7fb0U, 0xbda836fbbb33000bU, 0xbccc7856be068adbU,
  0xbd3b2118bcfb7cf5U, 0x3bb85d123d29984bU, 0x3c7d7781bdf4f79cU, 0xbd1e7c0cbd4956d1U,
  0xbb72f72ebd174020U, 0x3dcc578e3d2f87eeU, 0x3dc57c893d97b4bfU, 0x3dd2195e3d29d8d1U,
  0xbdb31ca23dd428e2U, 0xbdae4a1c3d872d69U, 0x3d5af8243d6a1f96U, 0xbd63e2fdbd4aa0eeU,
  0xbbbfb109bdb6ef10U, 0xbd62c8783d0c62fdU, 0xbd96cd12bd5a099eU, 0xbb3f1addbc21af1cU,
  0xbd82fda73da8e7d9U, 0xbdddf7a7bd2c516dU, 0xbdb37288bd92bd27U, 0xbda1750b3dc0122dU,
  0xbdb159e5bd7c450eU, 0xbded230c3db090a7U, 0x3d4c58853da0a5a2U, 0xbcfc96d43daa7d61U,
  0x3d63beb13d0f2e71U, 0xbddee7e7bd5882fdU, 0x3dc9054f3dd57f52U, 0x3db61ab83cfd2d69U,
  0x3d5a877e3dae9ab2U, 0xbda56ff3bd9933c5U, 0xbd38733abd7cac96U, 0x3dc299c9bd4e9307U,
  0xbdd99243bd7d5153U, 0xbc77b8ce3d2d3f84U, 0x3da701913d419070U, 0x3cbe065cbc11624aU,
  0xbcc075ce3d93dc4cU, 0xbda926b9bdaf9fa4U, 0x3d336f91bdd12b56U, 0x3d6dfa6d3b45407cU,
  0xb9f080d6bdbd5997U, 0xbcd42255bd820294U, 0xbdc9c79dbd823047U, 0x3d21cf9bbd91753bU,
  0x3dc71a99bda15c9eU, 0x3cb21407bded8659U, 0x3dd637d13bdc6952U, 0x3d891f88bdf2b70aU,
  0x3d461770bdf5551eU, 0xbce89ba8bd8ff588U, 0x3cab7c2e3d26d962U, 0x3c93c5743dae6829U,
  0x3d6194d73d27ad1cU, 0xbdcf688d3cf234b4U, 0x3dc97f1f3cc9351cU, 0xbda652603d8c816dU,
  0x3d821ff5bd891d6aU, 0x3db073debd940993U, 0x3da009ca3da2e1c5U, 0x3dbf6628bc8f3e80U,
  0x3dde996b3b748110U, 0x3c1f797bbdea5c2aU, 0x3db3b528bde0a116U, 0x3dd3a8f3bdeebc81U,
  0x3d8f3dfc3d9fe608U, 0x3c0979ccbcbf35a6U, 0xbca9b5e43db5a603U, 0x3d8a2b7dbd9c796fU,
  0x3bf57531bca253caU, 0xbd024fa5bda5a0deU, 0x3dc08376bdd6101fU, 0x3cced0f7bc066c0aU,
  0x3d53dde83d7ce6eeU, 0xbdcdd9e53da1dde3U, 0xbcf52d26bdf30abeU, 0x3dbe2235bbf92cdeU,
  0x3dee4aa9bdcc595bU, 0xbde3ebb9bcfcdf60U, 0xbde15422bc1b9d6eU, 0x3d9954303da2611aU,
  0xbd091e44bd6db14cU, 0x3dab7d1c3d94419eU, 0xbdc2d92e3d85a3c7U, 0xbd2484d73b2042c5U,
  0x38242745bd02750bU, 0x3d7841cfbdc833b5U, 0x3ae18b27bcf451beU, 0x3c38ea21bde494c6U,
  0xbdb869713d96a98bU, 0x3d2aeb82bda889a0U, 0x3da592e2bdd47198U, 0xbcdebd3a3cf7bd62U,
  0xbd84b3943db023c6U, 0xbd811a503dbad297U, 0x3d966d7d3ccdad61U, 0xbd1cc5243d621777U,
  0x3d316f5b3c030630U, 0xbcd83b05bd9e41fcU, 0xbdf33823bbcbbc3dU, 0xbdd70540bdb12bebU,
  0x3d9e3ca2bde6cc3fU, 0xbdda30a3bd54f25aU, 0x3c9e1b383d2051ddU, 0xbd3ae7a83d9d70eeU,
  0xbd01128bbde1a8deU, 0x3d892f38bdfb9690U, 0xbe07571fbba7a2e9U, 0xbd96f03dbd45e689U,
  0x3dcde2dbbc5a464bU, 0x3d400d6c3d039077U, 0x3c5702f7bddfa360U, 0xbdd0eaadbdc394eaU,
  0xbc86b9a83d0060ccU, 0x3ddcd994bd6f90ceU, 0x3df0e5a43ced5b48U, 0xbd342966bce9f79eU,
  0xbcc30ff43d50b6b8U, 0xbe04d12c3dea0a3fU, 0xbdc0523ebb8d86f1U, 0xbd9e6e3cbc856759U,
  0xbd7bba703db9b1a8U, 0xbd6510553d6d406eU, 0xbd369da03c3e3e3aU, 0xbc4960883dc2e964U,
  0x3d15e7423d809ddcU, 0xbc74df84bc1c2db2U, 0x3dc4fb463d884ad3U, 0xbd5bb5483bfaa67eU,
  0x3d8fe90ebd162f21U, 0x3d8f1003bdcff459U, 0xbd835ef03dc895dfU, 0x3d476294bb523884U,
  0x3d7686d23d8103a7U, 0x38fd0604bb001e26U, 0xbd981a62bc8bb261U, 0xbd86b4123da84e84U,
  0xbd9e9d14bde699cbU, 0xbdd123bdbd20b44cU, 0x3dc7a4e1bd6657d9U, 0x3dd4d65a3cecb578U,
  0x3cab6be4bdbc9160U, 0x3d0a3f1c3d72db32U, 0xbdc800c1bd52adaaU, 0xbde8d079bd352a03U,
  0xbabd1a423cae6beeU, 0x3cf374b5bdb074f8U, 0x3c91075cbd52eb9fU, 0x3d39e332bc26240aU,
  0x3d088658bd089844U, 0xbd86ffb53db7eaa2U, 0xbc880e943dc947f3U, 0x3d7185b7bdc17581U,
  0x3df4275abd65b1c4U, 0x3d679d96bdfd843dU, 0x3c30cc7abd9aaae7U, 0x3dd4045d3cfdb56aU,
  0xbdd850f9bde887b0U, 0x3c2da665bbeae5dbU, 0xbda6228cbd2c8f94U, 0x3ddfa4e6bc582d03U,
  0xbdb75079bba7b43fU, 0x3dc95ffd3da185c9U, 0x3c8939153d5657edU, 0xbd925ea73c1a1d2fU,
  0x3c612d7b3df9d487U, 0xbdf54ebabd978087U, 0xbc815cbbbdb64d94U, 0xbd9799553d0367b7U,
  0x3d8f9c0dbdcc67c2U, 0xbdcd0c43bcb477ccU, 0xbdba078c3c68ce8fU, 0xbd80a84bbd1776caU,
  0x3dc5278e3c16dd95U, 0xbd26ea73bd30eda2U, 0xbdc86ee13d04bcbfU, 0x3dbd32b3bc684f7cU,
  0x3de00bf23da7c6f9U, 0xbdae95adbdd9fcefU, 0xbdc371203df19246U, 0xbdd5ef313b98de07U,
  0xbdabd2dabcf150f4U, 0x3d8c8cf73c505d17U, 0xbcb1d61a3c4e7b0cU, 0xbb70b863bdaaecf3U,
  0xbd0515bfbd256a08U, 0xbdbd49a03da9db21U, 0x3c54d724bdb6f13bU, 0xbbd627f2bd819f74U,
  0x3dab82d9bd071c02U, 0x3bdc2027bdc78a1dU, 0xbd168014bd7fae4bU, 0xbdb1eb0bbd30a923U,
  0xbd95a4973d1983c5U, 0xbc5076903c760cbcU, 0x3cfa1d7a3de3fbaeU, 0x3dab5f523cfb0d33U,
  0xbda08f10bdb6d0f0U, 0x3db98e7ebdc19de5U, 0x3d726f4cbd7ac84bU, 0x3b5c79b2bdbc0353U,
  0xbdb7ac01bdaa0940U, 0xbde484533c901547U, 0x3d7e243abd94d71eU, 0x3d8bd9f7bda90f68U,
  0x3d90bb9a3c7ae450U, 0xbb2e1eba3a536de1U, 0xbda0409a3d47724fU, 0xbd8b4e2abd2f31b0U,
  0x3d08613e3ad2bb7dU, 0x3dbce70c3c6ae5caU, 0x3c6ef5cb3d1391a9U, 0xbc9f0329bdd82555U,
  0x3dacb4463ddf3ea3U, 0x3e093db13cae431aU, 0x3e17c83f3c678374U, 0xbcfd2bb33d50b2c3U,
  0x3cc80ed83d681ff1U, 0x3da8293a3d66fa43U, 0x3c8d8594bec75d37U, 0x3de3dfd4bd9c41feU,
  0xbf320051bd9d6650U, 0x3d4d72403e086a54U, 0xbd75e06b3e1a76e4U, 0xbe6e702abd8fcba0U,
  0x3daa3cdebd4d68d6U, 0x3df79b4cbe44a58bU, 0xbccb8245be7773dcU, 0xbb68f5703e13cda3U,
  0x3e0300f13d54b6c4U, 0x3b9006993c0c3e89U, 0xbc93f1a43da41d34U, 0xbc88d8043dff6bfeU,
  0xbe7a0edcbbb05653U, 0x3d5667ae3ce39ed2U, 0x3d13af253d5b88d3U, 0xbd8d16353e0217f8U,
  0x3e976f263e1eccdfU, 0xbdb1c247bbfaf23aU, 0xbcb69135bd1a90f6U, 0xbf12a45e3d3b8633U,
  0xbd4cb3523d68c4c4U, 0xbd2d4c52bd4ed180U, 0x3d5c7f40be0cf0e8U, 0x3dc824d13d877b74U,
  0xbd3f3bd53d2f51ffU, 0xbdbef7ddbc4808b7U, 0x3d827d543d892f94U, 0x3dfdb16dbdc500abU,
  0x3e3d34d8bc3ece5fU, 0x3def17d63d88fba6U, 0xbda5bca93e1ab503U, 0xbd19143abe17831aU,
  0x3e82b446bdb28ebbU, 0xbe30a38c3d8ecbe9U, 0xbd92c11a3d08692bU, 0x3e1598b63e0ea7a3U,
  0xbd978ad2bde722c3U, 0x3de3b187be5d266bU, 0xbd1e9fb6bdf03910U, 0xbd52af2ebd8304edU,
  0x3d86d1753d894e2bU, 0xbd86a8503d1d8027U, 0xbdf767873cd0ce0dU, 0x3c6ed537bca9fdedU,
  0x3de67031bd91855aU, 0x3c777c683dda12bfU, 0xbd8332a9bed6ec55U, 0xbcda6111bd9f8c8dU,
  0x3df64b403ec95edbU, 0xbe2acc733e056935U, 0x3ded55bbbd9f6120U, 0xbdceff3e3def938bU,
  0x3ca321c33d9e2406U, 0xbcd4ed69be195ac5U, 0x3d1e59a1bea321d2U, 0x3da5de043e11982bU,
  0x3e51927e3d360240U, 0x3e119639bd858b0fU, 0xbda7c5d03cc33897U, 0x3df1a2f03e21706cU,
  0xbe624873bcc001bbU, 0x3e14849abd76d327U, 0xbd9a764eba57fbd2U, 0xbd80bf01be4a3154U,
  0xbeeffc753ea52caaU, 0x3c92058e3d7377ffU, 0x3dd352253db4acf8U, 0xbd35260d3cc440aeU,
  0xbda2698dbd29b938U, 0x3d259137be5f052cU, 0xbd252f5dbe536cf9U, 0x3e84a6503cb6c574U,
  0x3d19a618bd616e67U, 0xbcde8cd1bdd69ee9U, 0x3e3c701cbd969135U, 0xbda6c7a43d77359fU,
  0xbe0eb2dabd239b26U, 0x3d321dcc3d0124e6U, 0x3dc18d2b3d50d370U, 0x3d3303d7bed64473U,
  0x3e04fdf83e0d9b5eU, 0x3e66cdb73dd23b6fU, 0x3d8966723b31fd3cU, 0xbe8348573b09407bU,
  0x3cc1dba63dcf80acU, 0xbceecc543d4581ddU, 0x3dabddf0bc9411b9U, 0x3e81470f3e06a260U,
  0xbbfcc86cbd3019c3U, 0xbce7055bbd0b6e96U, 0xbd77ff11bd9f37c3U, 0x3d070bd83d9f6223U,
  0x3d7229e43dbcfed6U, 0x3d12f80c3db24121U, 0x3daba247bd8102daU, 0x3db8bf96bdf2bb8bU,
  0x3bf8a1b9be104fd9U, 0xbcd51a713d58277bU, 0x3df4c4c33d48de5dU, 0xbcbe41be3df83849U,
  0x3ba1db393e1c4f93U, 0x3de61203bb0f0417U, 0x3daac1ea3d8296f7U, 0xbdc38e053c049aaeU,
  0x3d5b88cb3d323fd0U, 0x3dc54f12bd0a218fU, 0x3d82ca59bcb45631U, 0x3e2c3fd6bd86924eU,
  0xbd4c740e3d8af096U, 0x3dee3931bda8ed12U, 0x3e11f1803dc1981eU, 0xbd13c037bdadf45fU,
  0xbde2cc11be99e9adU, 0x3e2700883de9d3cfU, 0xbdd4018e3e1f2a6bU, 0xbe1dd7f93d129c87U,
  0xbce7b8653c471c27U, 0xbd6fc1273d1e4ffeU, 0x3d76d4a7be383a8eU, 0xbe4a4ca33da3a131U,
  0xba5f71363dc56900U, 0x3dc1d8b5bdc31d40U, 0x3d986876bd0cadb1U, 0x3dd0dc6a3d43bd16U,
  0x3e234afa3d505686U, 0xbd3e65533d9d54cfU, 0xbd141fbcbe5fc78fU, 0xbc1279ff3d9bfd3aU,
  0xbea5301d3d2febadU, 0x3dd979ddbbc85bd9U, 0xbd91ad5a3db51ed5U, 0x3d6f4d27bd8f2a13U,
  0x3e0da2f13dd4cc44U, 0x3e014945be811c2aU, 0x3dfd507b3d82c65dU, 0x3cc38aaa3d9da750U,
  0xbd59b3233e26def0U, 0x3e2540f8bd011870U, 0xbe064e093d08c64cU, 0xbe43c596bd7c5bd4U,
  0xbe0140183c822efcU, 0xbe0b56afbd90f891U, 0xbbf419a83f149c24U, 0x3dcc7a94be9782e5U,
  0xbdc38a5bbe0ba461U, 0x3ef56f1e3c389e3fU, 0x3d65e51abdc002bdU, 0xbf0d5e633c9c8047U,
  0xbda4b094bdc884eeU, 0xbd737c383e638f48U, 0x3d47e73cbe22355aU, 0x3f1727233e8c1234U,
  0xbd20243dbe3ffa8eU, 0xbe17bfd8be64d079U, 0xbe33adb5bde9b102U, 0xbd998eb93c783e2cU,
  0xbdf057363de703bfU, 0xbe73d157bde9c1b9U, 0xbe8e797e3d06501dU, 0xbcc22d4cbeca64fbU,
  0x3eca7f3abefa1670U, 0xbe820fa1be08a7deU, 0xbc12f6cd3da15377U, 0x3e8b68bfbd1ef170U,
  0xbe6952dabe696930U, 0xbd9d70a5bef7fafdU, 0xbd88a248bdd40524U, 0x3f2a7eddbeb9a143U,
  0x3df65af6bdc1ea03U, 0x3da115383d1722daU, 0x3c34260cbca62fc5U, 0x3d4629393dbdfccaU,
  0x3e5766ed3d142a0cU, 0xbb600a503d081298U, 0x3b67ac143dadd0acU, 0x3d570056bd89c8aeU,
  0x3efb6f313e191910U, 0xbf21a76dbdcfe41dU, 0x3d6158e03e3a85f9U, 0x3e8bf66a3e557fd8U,
  0x3e5e00d6bd4bbb87U, 0x3ea8425cbec0fac6U, 0x3b7dad453cd5ee09U, 0x3ed58ff3bca223e9U,
  0x3e0af021bda9ba5cU, 0x3ce98035bdd9d7a0U, 0xbb649ef3bdd5589bU, 0x3dc46a3dbdc75fc9U,
  0xbeb2e7abbdb7f39aU, 0xbd3493dd3be364b3U, 0xbd0ccb66be405ad0U, 0x3dbd78c6beb474e3U,
  0x3e4869e0bd1f7cccU, 0xbe998b56bc064f45U, 0x3cddc8473c3ec183U, 0xbd239707bcdfec55U,
  0xbdfe7f793d41e369U, 0xbe01c13abdf16817U, 0xbc5244d0bec18adaU, 0x3f0e8e9bbe1fb49bU,
  0x3e3595f5be065cb1U, 0xbc4f48e6bd8a920dU, 0x3df923563db96febU, 0x3d68de0dbd9e05d3U,
  0x3e75a9513da7d941U, 0xbb577e4bbca4c659U, 0xbdf3f97e3f04fe16U, 0x3cad1a12bf08d28aU,
  0x3e35c60fbe8e8623U, 0xbeaebbae3dc40603U, 0x3c5b6bc73e8f7d45U, 0x3e9558cb3d118b2cU,
  0xbe2477be3d2c6802U, 0xbe08832b3ed5b4a8U, 0x3d039cbd3d4fae8dU, 0x3f0eed383dc46354U,
  0x3e5184c53e889762U, 0xbdd870b2be0b70daU, 0x3da2c43b3caac76cU, 0xbde38f48be4be65dU,
  0xbe1c5d16bd7b15dcU, 0xbc9419d7bd5e7068U, 0x3daa684b3e081e21U, 0xbdde9ea3be417e7cU,
  0x3e9e9d75be57bad4U, 0xbdcf45603df92b7aU, 0xbdafb7363e3955f8U, 0xbbd90a913e4ece4dU,
  0x3ca0b4f93d3afbdbU, 0x3cd35c4ebdc3e790U, 0x3dab11813e421233U, 0x3e1ef1ff3ee1e1ffU,
  0xbdbbcebdbda2b3b3U, 0xbe2456d3bdc09b75U, 0x3de6d7893c852067U, 0x3d7bd043be290656U,
  0xbe963e943d818be9U, 0x3ceea3583d193bb9U, 0x3c264c943e225adaU, 0xbdf0360cbe0c5189U,
  0xbd39cc733d6051b4U, 0xbea118f0bdb7139bU, 0xbdbb89febd8f44a3U, 0xbd20024fbc9ec069U,
  0xbdfc69b33db5e90eU, 0xbe219ee63e8ea0c3U, 0x3cfe64cbbc206cbbU, 0x3e9f3b32be85c92fU,
  0xbcfc414e3e5ac2ccU, 0xbdd7a4c13c9d6d65U, 0x3e1debd43e69d9eeU, 0x3e0888f03df206d8U,
  0x3e098540bd9df7d4U, 0x3e11ea1d3c43bb36U, 0x3e1227a23c8c66f3U, 0xbd5e1e70bde39872U,
  0x3f7f6399bde3283dU, 0xbda064bd3d4320f9U, 0xbd947133bdaa1e4cU, 0x3e94e6613dd93838U,
  0x3e3db3f2bd753684U, 0x3d369da13e85225eU, 0xbc39ab36be3811f8U, 0x3df0fad43e69e3f6U,
  0x3c39123a3e57054cU, 0x3e46c5e6bcef0c8dU, 0xbb39d9ea3e22208bU, 0x3d50da163cfe2d6cU,
  0x3eb3677d3dc16bbeU, 0x3e0fb7173d3b09a1U, 0x3eb103183ed90430U, 0xbd2d2cdd3d8981abU,
  0x3f7fee23bc92b7ddU, 0xbe822f183e402739U, 0xbbb9308c3de555c0U, 0x3d6c03c93e367b14U,
  0x3e2448973e383122U, 0x3e65e3b9bdbc5095U, 0xbd812fcbbe73e3ceU, 0x3ea1102b3edd665dU,
  0xbd581b32bda2f152U, 0x3ad848f63dedd328U, 0xbd265e4b3d2091ccU, 0xbc40810f3cedf16dU,
  0x3d25a20a3d0bb519U, 0x3cd6c743bd671272U, 0xbdc0eb613d28474dU, 0x3cb69c69bd977457U,
  0xbdecfabcbc5afaeeU, 0xbdade26fbcab8a38U, 0x3d8bb7a7bc6226aaU, 0x3d0234e7bb9d3b15U,
  0x3d92195ebc2ccb22U, 0x3d97c8533d986ec4U, 0x3c4f30aabd63f122U, 0x3c5ef1e7bb7634f1U,
  0x3d8ea8febdf5521eU, 0xbd2522a1bde98312U, 0x3d599b62bcbbe650U, 0x3cbd4b7dbdafcd31U,
  0xbdd3254ebd6c62d7U, 0xbc14ad5a3d89ff2eU, 0xbdd7e6af3c7992c2U, 0xbdcc03953dde766bU,
  0xbdc56b163dce335bU, 0xbdb95c5d3dd6d6efU, 0x3d73510a3c9241f2U, 0xbd37377ebdf97d54U,
  0xbd82f163bdbc21e8U, 0x3da65a0a3d849a99U, 0xbdaab2dd3cc846bcU, 0xbc81f75cbd4d4d21U,
  0x3c4234b53db327d0U, 0x3d47bde83cbd7a2aU, 0x3dcf0cc23ca17b03U, 0x3d9853b83ba0c3dfU,
  0x3dbff2f1bda90948U, 0xbe00302bbd0b220cU, 0xbdea87be3d8cdd0cU, 0x3da0f2303d821552U,
  0x3de15523bde04612U, 0xbd9473383db57aa4U, 0xbcc640ad3dd0eabaU, 0xbde681b13ba087bbU,
  0x3af4288bbdaf98bfU, 0x3d8c1f273b8336bdU, 0x3dc24c773d26597dU, 0x3b3af022bbb09728U,
  0xbd7012f4bde71eeeU, 0xbd28e33d3debcaf3U, 0x3d88e72b3d43cd9dU, 0xbb6a47de3da41f3aU,
  0xbd28b267bd9a7b0cU, 0xbdfac826bdc565a4U, 0x3dc7ee41bd79cc80U, 0x3db863b6bddc913dU,
  0x3dd15b4bbcf6dd79U, 0xbdd6ef90bdc640c6U, 0x3c8ccf1c3d836758U, 0xbd3ff8a53a9854a2U,
  0xbde8df8abde36fcbU, 0xbdd2bdebbdb7a042U, 0xbd2f4d7dbdc69294U, 0xbba864103d8e215eU,
  0x3d23280cbdff7e37U, 0x3dbd6b8c3d5d3344U, 0x3cabec35bd2952d3U, 0x3dbe4b27bd491750U,
  0xbd9887ec3d8e8af2U, 0xbd64f7623db0e326U, 0xbc2e46303c841c12U, 0x3d47f81ebd05bc33U,
  0x3cb54c583ce3194fU, 0xbc55f5453d1855e4U, 0xbd85dc70bdc6605eU, 0xbda2df673dab0a45U,
  0xbce8d1403dd61413U, 0x3c275ff8bd9e4cd9U, 0xbc6a45103d05c61bU, 0x3d809445bcbe9a1bU,
  0x3cda937d3cc5bed6U, 0xbde049a63de59278U, 0xbd7b6454bdae84daU, 0x3cbecb623d295a4bU,
  0x3cf6c9df3d4ece0dU, 0xbd37a9433cd29e96U, 0xbd7319373da4b6b5U, 0xbcad1f86bddd98f2U,
  0x3dc7c90fbdb779d6U, 0x3c5c7b30bced34d3U, 0xbb5f50d73c81c9ddU, 0x3c6577aabc72c096U,
  0xbdcc72263d9dcbe3U, 0x3cc17ce03bd9e2e5U, 0xbd56c6aabc87c90eU, 0x3daa795d3c058eefU,
  0xbd81c1933dc8e5f3U, 0xbd4997fdbd81a9d9U, 0x3ba0280e3dbe6568U, 0xbdf71a193cdd15cbU,
  0xbc2ccb76bdb4feb1U, 0x3d9148513d557267U, 0x3d982c313dc5e6c9U, 0xbd4c80293b23a7d1U,
  0xbd8a2e0a3d77e5a2U, 0x3c25b07bbdfae8d0U, 0xbda9b9a1bb96ba5dU, 0xbde98b29bd58eec7U,
  0x3dc1bd6cbb27d090U, 0xbdae211fbd2005baU, 0xbda367f63c9fa2c6U, 0xbd57380e3d7a2c36U,
  0xbcee2dbebdee067fU, 0x3c07786d3daf7305U, 0xbcb52a283d5f84d4U, 0x3c0f21d4bdfc1180U,
  0xbdefc9dcbd067097U, 0x3d152e183dbc14dcU, 0xbc82e6403ddb43e5U, 0x3d8b67133c6a60f6U,
  0xbc907c5cbc8825b5U, 0x3c5059efbdd241f4U, 0xbd97432ebce8047dU, 0xbd8fde8bbded4dedU,
  0xbda9c44ebd14c4e2U, 0x3d34dbbb3c5daf32U, 0xbdf7c1b7bdac24b7U, 0x3d86d070bc87e8dbU,
  0xbd8bca52bdf7c8e0U, 0xbd6f6b66bd88cc3cU, 0x3db31fb0bcd9fb11U, 0xbd01d8cc3d68bce1U,
  0xbd23aaa83ddb1b62U, 0xbd1831453ce5dd5bU, 0x3cc7b2863da5fae4U, 0x3d7155fabdb649caU,
  0xbd0992edbdb0f809U, 0xbd2ddc243d37f285U, 0x3de515adbdeeb9deU, 0xbc259f003c847985U,
  0xbd005397bd2b2ba6U, 0x3d9183f1bd46a56dU, 0xbdeff768bccf9382U, 0xbde66ec53da259afU,
  0x3cd321503c07fd09U, 0xbdcf7e023c3e54ffU, 0x3cffaed43d8726dbU, 0x3dc578f0bde46e2aU,
  0x3da677e2bd325d3eU, 0x3ceeaf9bbdec1abdU, 0xbda4d0673d753b0dU, 0x3d3d1dd4bd34b0b6U,
  0x3bf3217e3ddbf474U, 0xbca21151be0172a0U, 0x3d451be4bd6a6e50U, 0x3c398c753d77ee91U,
  0x3db0abc6bde31421U, 0xbcfb80e5bcdc568fU, 0x3db6eaa63da1d771U, 0x3c049396bc7804baU,
  0x3d3a0f53bd0abb45U, 0x3c88b8553dc04c96U, 0xbdbea443bcac17caU, 0x3dc21048bd498866U,
  0x3dda2fbbbd16e086U, 0xbd8bf3153da081a3U, 0x3d3bb38e3cbc76b1U, 0x3d53329b3c6a30c8U,
  0x3ba82d54bc63a537U, 0x3d3039f9bd8d2596U, 0xbd4f12c73d4d600cU, 0xbd31651c3d325bf5U,
  0xbd55d46ebca2f0d1U, 0x3cb5cb18bd4b6372U, 0xbd56f69a3da49fe1U, 0xbdc348553d5e9e58U,
  0xbdc31dbfbd902635U, 0xbdeb5250bbb24bd2U, 0xbdadaa163d1bac44U, 0x3dc527dc3d82ddabU,
  0xbd442ca0bd2bf9d8U, 0x3d80ffccbdfb8ab3U, 0xbd8376fabd86c975U, 0xbd868dbfbdcd9f23U,
  0xbc05debabd3bd6cfU, 0xbca14878bddad3bdU, 0xbcbb0dc83d08d02fU, 0xbd08cd39bd84a0d6U,
  0x3da02aa3bcda2361U, 0xbd0ca16dbd956410U, 0xbd086c90bde97d3fU, 0xbdc63355bde80ba9U,
  0x3d04e38c3d9fbefaU, 0x3d8de53a3d35ef07U, 0x3d94cda2bd894f48U, 0x3d42fe43bdbe063eU,
  0xbb7721b93db202cfU, 0x3d0929fabcb479d9U, 0xbd972bbc3db16d4fU, 0xbd9871e13dd1cb15U,
  0x3c3bf61bbd556b84U, 0xbd8097febd2c1b3dU, 0xbd8840a1bd67e332U, 0xbdb6ec223d5d8539U,
  0xbdd13fda3d7200ebU, 0x3d22266bbdc4f96cU, 0xbd64755a3dbf2ea4U, 0x3dd7d0cdbca746b8U,
  0xbd896a973da5e218U, 0x3dc117b5bd8b0880U, 0x3d8522f7bd2212f0U, 0xbd751a7a3d587ddfU,
  0x3c9c50973d9bdeb4U, 0x3d3dae5abc284a66U, 0xbd934678bd7e1154U, 0xbd8f1d23bda25dbeU,
  0xbc9e0b5d3dd040d6U, 0xbdffc58dbd8aefc8U, 0xbd3344f4bdb6e703U, 0xbd8b92f63d3c7632U,
  0x3cc1cca93d87acc9U, 0x3c514bb2bde41efcU, 0xbdcdca62bde6b358U, 0xbdcf560bbdda6a7fU,
  0x3c88db503d900e92U, 0x3d8a30f93de72930U, 0x3d9e444ebdf6208eU, 0x3d9dbe6bbccbc13dU,
  0xbd96d9ed3d9d4523U, 0x3d8128113d3f4180U, 0xbbe7039bbcdd7d27U, 0xbda371e5bda04a6cU,
  0xbcf340313d2d3f14U, 0xbd912531bdbe4112U, 0xbcd863703b1b2e12U, 0x3c1e46383d84e3c2U,
  0xbdfa6a57bca45de0U, 0xbd97d8993d2e33feU, 0x3dd7dae13ba8ab64U, 0x3dd10863bcfcecfeU,
  0xbc2f0c5dbde55243U, 0x3dbda5ce3dad1b92U, 0xbc751d5d3c60aaefU, 0x3d768603bcaf02e1U,
  0xbdd16420bc8298a3U, 0x3cd224f5bdf2d7ccU, 0xbdfe0439bda157b9U, 0xbc77e5183da0ebe8U,
  0xbb60625dbd286e4eU, 0x3cc0771ebdb238c3U, 0x3ad39cf23db7bb94U, 0x3d29e9b33db516c8U,
  0x3a73eb7cbd8d1a5cU, 0xbde35bb3bde9ada4U, 0xbd03f97f3cdacfecU, 0x3d12718d3da6f8bbU,
  0xbd4f9ee2bd9ddb2aU, 0x3dac6e33bd85e8d1U, 0xbba2e0483d86c0e7U, 0xbd5170c6bda80a45U,
  0xbdc96f2ebcc3f494U, 0x3d8e0619bdc726e9U, 0x3d01d67dbd343290U, 0x3dbc7da73d8e02a5U,
  0x3db9dc1b3dd37262U, 0xbd671b24bdf33c39U, 0x3d7a16f73ab35406U, 0x3c076ee63daa59a9U,
  0x3dd41bc7bda23fddU, 0x3cf2ce8a3d318549U, 0xbdae9027bc1f4b8eU, 0x3da800c53a1e3ec0U,
  0xbd89efd1bd915d32U, 0xbd6db5e93d4501deU, 0xbd7b6789bd2babf0U, 0xbda8b101bd01d202U,
  0x3c20d6edbdddc2bbU, 0xbd51098dbde16821U, 0x3c1d23733cf25315U, 0x3db1d6c7bd4ccd0eU,
  0xbd3e65aabce26fd0U, 0xbb35f9d53d4ec1f6U, 0x3cb97b4abcfa875bU, 0xbde206cdbcfaf266U,
  0x3cd1d0d2bd8dcfe1U, 0xbd0bdb3dbd6d4de4U, 0xbdb1aa18bdf1eec7U, 0xbdc92fe4bdcd7dedU,
  0x3df479983e303897U, 0x3c50270a3d99a6bfU, 0x3e3efd593ad27e7aU, 0x3e5af03c3e80354bU,
  0x3e50a10b3de43e56U, 0x3df581c03e6aba77U, 0x3d8bea1c3e04ea3eU, 0xbc2ab0a3bd8e3540U,
  0x3e06592ebd6758feU, 0x3d8abfc13e53b64fU, 0xbd57c94f3d4d8b7aU, 0xbe15fcd83dd82a6bU,
  0x3c3960da39c2331dU, 0xbd37f1a83e82b395U, 0x3e038ae7bd8d4047U, 0xbdcf2bc13e5467f9U,
  0xbc8013473e592ca2U, 0x3e1c5b4bbdec8a77U, 0x3e57444a3e0049fcU, 0xbbb220563d87f73fU,
  0xbebaf0423d4fb722U, 0x3d0459ea3e7496acU, 0x3e62b3fcbeba9d00U, 0xbdd2ace13d9dfce5U,
  0x3dc0ca513eea2bedU, 0x3e6845e03bd78ee6U, 0x3d911c2c3cd9667cU, 0xbe91a095bd5a815fU,
  0x3e2eff2a3e16ac3bU, 0x3bbd6103bc5fcca3U, 0x3e400f093eb7b0d7U, 0xbeabf457be7e903cU,
  0x3d3942db3d7aa222U, 0x3d62152abd484901U, 0x3d4ee09fbd6bfa45U, 0xbcce59fb3dcae14eU,
  0xbdf85c9b3d9cacbeU, 0x3e294c833e25d30eU, 0x3ba1b0c4bee66e1aU, 0xbdc60cf03e37dbd9U,
  0xbed168e3bd91515fU, 0xbc46f8efbb317a2eU, 0xbcfad3803e2d5108U, 0xbf2cd2f73e068a76U,
  0x3dc82b8e3dcc07b0U, 0x3d2fa4f33df88905U, 0x3c065d1b3dc3a236U, 0xbef439033d5aeb3eU,
  0x3e4b0b48bd02e045U, 0xbd1d86e8bdb4d940U, 0x3af24b193d997035U, 0x3dd78c733ddb23c8U,
  0xbebc639d3842209fU, 0x3dc84c6e3e1b1a1dU, 0x3e1a6589bde65bfeU, 0xbdbbadb5bdd07d2cU,
  0x3ddade973de7d2cfU, 0xbec1c805bd1a0865U, 0x3dc7ab4b3d0de356U, 0xbe5a013fbc5f3446U,
  0xbc8e30ed3c460c01U, 0xbdab84df3c2defcaU, 0x3e0d3320be80124dU, 0x3aa26d243de2430aU,
  0x3bbc8a163e2c6f46U, 0x3d5edf41bdc7ceb5U, 0xbd5deb0b3dbbb48cU, 0x3dec8bc83cbd9d7cU,
  0xbde7f32bbd7dbef2U, 0xb910219e3ce3f6c2U, 0x3deeb4aabdbc3610U, 0x3daacfa33ebca088U,
  0x3d185ea5bf256710U, 0xbe3220223df81001U, 0xbde0097bbd8c1a26U, 0xbe2ce8cdbd499ec6U,
  0x3e0021cc3db73277U, 0x3de7f36ebdb343c8U, 0x3d5ce57abee2e06eU, 0xbe2d1605be253081U,
  0xbde67984bcc88d24U, 0xbd9426483cbea68dU, 0xbd7b95ca3dc0c3a2U, 0x3daccadebde005aeU,
  0x3e495f853c3bdcd6U, 0xbab1f54b3d85025dU, 0x3dc368ac3c990d05U, 0xbd5746763ea0b48bU,
  0x3ea0facf3da093b4U, 0xbf00ea95bd3f7d0cU, 0x3c9d40e3bd83cd4eU, 0xbc3d85463ddfc527U,
  0x3dcb9c0bbd7a5743U, 0x3e3033a7be405038U, 0x3dbb32c53e9d0158U, 0xbd16847abdb11a16U,
  0xbc227c363df6d5b3U, 0x3d4763053ac8f2f4U, 0xbbedc36b3d511b58U, 0xbb2e3ff9bd82a7ccU,
  0x3e33c20b3d3beca1U, 0x3d39d936bd57fa9dU, 0x3d544f253b88f377U, 0xbb3575c1bc3f9dd9U,
  0xbefd8eef3e6f69aaU, 0xbd39caf93d713846U, 0xbdb3ddf93e209961U, 0xbece1e80bd903ab3U,
  0xbc0884d1bd82527dU, 0x3dbb5ffbbee90f18U, 0x3dd9462fbe173c30U, 0x3e9b08b53e34dcf0U,
  0x3d8407923d87405cU, 0x3e1dd26abe0ad687U, 0xbd8b54903dfe9cc5U, 0x3ccb40d63d5adab5U,
  0xbd13efcd3d8e624cU, 0x3cad447d3b0198ffU, 0x3dd583573e14c025U, 0xbd1f84acbdeb02ebU,
  0x3f05cd963e3794ebU, 0x3ee4dc3f3e2240bbU, 0x3c163eda3df24d7fU, 0xbe0cd313bd7cdea2U,
  0xbdbdb2d13d3b35a5U, 0x3d02de223bd13f78U, 0x3c862e4b3e92dfafU, 0x3e1cc18bbd45c860U,
  0xbe0ac4a2bceae3f0U, 0x3dcbda72be3740e3U, 0xbdf1c2fcbd346f2fU, 0xbda0e8edbb91620eU,
  0xbdd327963da09e7cU, 0xbde705d8bca53074U, 0x3df155233ee7c019U, 0xbda559913c87d9cfU,
  0xbe2d0f033daa912cU, 0x3e41a202bdf2ba63U, 0xbd45c1f4be46e9acU, 0xbe4d93013d54d4f3U,
  0x3d8028a93cad5efeU, 0xbbe9e13b3d489c06U, 0xbd625d57beb7d598U, 0x3ea450f13dab85bfU,
  0x3d1cb5723de53371U, 0x3b05a060bd5d3726U, 0xbdddca99bdd2b6a1U, 0x3c39bec8bdebccc7U,
  0x3d81a9c9bdd0e6b1U, 0xbdb4f7fcbd9bf4d4U, 0xbde067d1bdaf0850U, 0x3d556e763de98c5bU,
  0xbdeb32e93d77fd6eU, 0x3d899d01bdc208adU, 0x3dd64f85bbf98b90U, 0x3ca21fcc3dad97cfU,
  0x3b38e640bba05f10U, 0x3d7828463da5e2fbU, 0x3de426cdbd73559aU, 0xbdc0b7db3d56cbeeU,
  0xbcc4ddeebdaf72b4U, 0x3d0f986e3db7cc16U, 0x3d0b3643bdb952d3U, 0x3d680a9bbdb6f474U,
  0xbdb446573cc9d2c4U, 0x3da50ec53b92b2fbU, 0xbd9216353dbced56U, 0xbde74947bdc64792U,
  0x3da21373bc266e60U, 0xbd761cf63da013aeU, 0x3d9891d13d7afec5U, 0x3d4dccd23c89169aU,
  0x3da07d96bcc92c88U, 0xbdbf479bbd9477f4U, 0xbbf84a0cbde75408U, 0xbd1f96ce3d5736b8U,
  0xbdaa18febc5e6720U, 0xbca263423d1fe27eU, 0x3b2ca6a5bdcdc6d6U, 0xbd82084d3da32201U,
  0xbde08ca13d0954baU, 0x3dc1c53e3d732789U, 0xbde3bfcebc5438c0U, 0xbd9170403c7a4a58U,
  0xbd5f8ea23dacb25dU, 0x3dae66e2bb334de7U, 0x3d8120eb3d2c44d6U, 0xbd808a74bca4433fU,
  0x3bdeef0ebb8c9bb8U, 0xbc4bf7403b068841U, 0x3c6ff763bd7a0d06U, 0xbd939b49bdc1a658U,
  0x3db6b947bd6e947fU, 0x3c749a583d2c3622U, 0x3da2252bbd83c2daU, 0x3d60d99e3de4cbb3U,
  0xbdede1a1bc9f5044U, 0x3de27ae5bcb0d7c0U, 0xbd9f2d04bd110514U, 0x3d436b663d8824b9U,
  0x3cfda3ccbd325972U, 0x3d52ae46bd6d611cU, 0xbd1c0f7a3c94c63cU, 0x3cd612c43ba867d0U,
  0xbd1ee39c3c550198U, 0xbc78fd18bdd876e2U, 0xbd21e1acbd204758U, 0xbcf624583d9d39d9U,
  0xbc640855bd84e58dU, 0xbdb34249bdec2bdfU, 0x3db8f91abd911cb2U, 0xbd26a0d53c9ecf09U,
  0x3cc6adbc3ddd46c7U, 0x3d35d3c6bd97ebd8U, 0xbd87694dbdcf58fbU, 0xbc702c78bd2f5d44U,
  0xbcea1700bbc11b4aU, 0xbdaa79a8bd63d2bcU, 0x3daabd69bd996f5dU, 0x3d6d59b43d88a139U,
  0xbdc1e53c3cfebbabU, 0x3dbea1be3d3208adU, 0x3d2cb0c53d9bee89U, 0x3d21f24a3d3b651eU,
  0x3d8559b93c9f3237U, 0x3cc037313b58d720U, 0xbcee4abd3c3098baU, 0xbd8c8283bdc90968U,
  0xbdf0d2bdbddbb76aU, 0xbdbe0f4fbd6f94c9U, 0x3d30c863bd54b5d4U, 0x3d8744d1bd06e2eaU,
  0x3dc3a2bdbd9f9c45U, 0xbc44e334bd17a4ebU, 0xbdc92bad3d4eb633U, 0x3d5f06c23dcea53bU,
  0x3a8bed763d5f2b21U, 0xbcc5c09cbd71e0e5U, 0x3c15ff303d0557b2U, 0xbcf4ac2cbdd7a17cU,
  0x3da511b7bcb4dc58U, 0x3d2d2d823d93b017U, 0x3d947553bc59d030U, 0x3d15526ebdddeca8U,
  0xbde973c4bdcf5acdU, 0x3de68b67bd03fa36U, 0xbd29a644bdd2aeffU, 0xbb7eea60bd145a08U,
  0xbb8ecc803d7a83feU, 0xbc93a628bda9d856U, 0x3d921be33d8bb9cfU, 0x3da62fc93c745f28U,
  0x3d349876bd3ba8ceU, 0xbd238d80bd18573cU, 0xbdea0453bd163d92U, 0xbd5c80de3d9ed74fU,
  0xbdb36ad03dec3667U, 0xbdcb75aa3cfc70acU, 0x3d24589ebcf21ae8U, 0xbd841c9cbbb7c5f0U,
  0xbd870242bdba2ec8U, 0xbcc82f083d908615U, 0x3da46ea73ce5c474U, 0x3c8d6e4cbabd5400U,
  0xbd813dbcbd94bb7aU, 0xbd82a4bcbda8dc79U, 0xbd98b32dbd3e1826U, 0x3bb7a710bcf72c64U,
  0x3d82c4313da4dc2bU, 0xbdb644ee3d2d9d7eU, 0xbdb5b93c3c803a6cU, 0x3dc7713d3d177c92U,
  0x3d4e51e6bdaaa766U, 0x3cd46fa43d9bcfd9U, 0xbd98ce5bbc1c2e48U, 0xbd6557aabceb41a4U,
  0x3da8de6fbdb1e60aU, 0x3dd840333d5e4edeU, 0x3c5eef68bdb0b85aU, 0xbd84e7f6bdc5c345U,
  0xbdd167173d96ee6fU, 0x3de3a8853d448152U, 0xbda1657cbd10ea2eU, 0xbcd11dc4bda7e1acU,
  0x3c638888bdac2a3bU, 0x3dc273e73cb497b4U, 0xbde4d2fb3cc4410cU, 0xbc99e5b0bd77c044U,
  0xbc0f592abc816e98U, 0xbc5c0521bc07c39eU, 0x3c1d77fcbc5cc226U, 0xbc808243bc953794U,
  0xbca011e6bc77b15eU, 0xbd3ebe403b08975fU, 0xbc242860bc5bea8bU, 0xbbee836bbc87ce08U,
  0x3d8acfc63e0d3fb0U, 0xbe12bfc3bd836f55U, 0xbdf52f923db343f3U, 0xbbcaf425bd2a6098U,
  0x3dbcdc7a3da53d4cU, 0xbe38a7a73de0b2aeU, 0x3daf62ab3e16c7f5U, 0x3c734e50bdf3eae3U,
  0xbcd3adc0bd54547cU, 0x3ca7b6bfbcd79f48U, 0x3db0b53cbd0a5ebbU, 0xbdac507c3da5fa91U,
  0xbdd540e5be217e9dU, 0xbe0ff2283d03fd07U, 0x3da1a6a0bda0bb0cU, 0x3c86c9e83c5ad9a7U,
  0xbdc11d603e1a0fc3U, 0x3e00ebc6bd827c8aU, 0xbc5918073d65486dU, 0x3d3ebb773d2341f6U,
  0x3df12bd0bde54528U, 0x3eb8fb70be0bbceaU, 0xbe1d5ac7bd57a50eU, 0x3c2a26303dd765bbU,
  0xbdae3a403bc407f6U, 0x3cab05b7bd9a07f0U, 0xbda37bf33d6b3dd0U, 0x3c9b17e93dbce64eU,
  0x3e28e9fdbcbacfaaU, 0xbdccebe9bdeb3860U, 0xbda11f35bd9a68c6U, 0x3c9fdc123c02fc06U,
  0x3dd73942bdc5d90cU, 0x3dde3371bc8f481eU, 0x3dbac6c43d02d2d7U, 0x3d9fd4003da5791bU,
  0xbd3c6d683c0be1a9U, 0xbe0557a0bdfd3350U, 0xbdaec7c5bdce7198U, 0x3e2976af3cb64f7bU,
  0xbe131e9bbdc81eeaU, 0x3e0b857e3d8cd85bU, 0xbe339a073d10170fU, 0xbe0a9975be1a5215U,
  0xbdc0dd3a3bf79e49U, 0x3e8a9fdfbca291b9U, 0xbe0f2d5ebdc011b9U, 0x3e1b1551be2a2a88U,
  0x3d84c0ea3de66d89U, 0xbe13a924be221177U, 0x3d1053da3da02ef4U, 0xbd58e937bda3bd68U,
  0x3de350eb3e1a8a82U, 0x3ccd4877bdbcbc24U, 0x3e15dd7dbe140ce1U, 0xbd76f1d23cd2605bU,
  0x3dc8de16bdbb67fdU, 0xbdcfaa213e230f14U, 0x3e29740dbe218d68U, 0xbcc31b65bdbf533fU,
  0xbd04db4d3d7f0a00U, 0xbe1835ea3de5a115U, 0xbdca0cf0bd780655U, 0x3cac65d6be0ae7b8U,
  0x3e28aee1bdbaec47U, 0x3e5a7f8bbd21d169U, 0x3dd92d71be079aa8U, 0xbdd58927bde6f997U,
  0xbd1309c93dd3b2f4U, 0xbbeb7018bdbcc384U, 0x3de30671bd4b9009U, 0x3d490c943e06437cU,
  0xbd0844603dcdfda8U, 0xbe003d963e1b1b67U, 0xbdf22b013df8812bU, 0x3d4487453e162c64U,
  0x3d7a5f2b3dcc6c7aU, 0x3e3a9ab5be375c84U, 0x3d842ba03d1b5a2bU, 0xbcf603183decb1f6U,
  0xbe121f25bdbe4705U, 0x3c589cf43dd6b7c3U, 0xbcc9a94abdb9781aU, 0xbe19d8c2bdae6086U,
  0x3d1722bebd94437aU, 0x3df083a1be5cc835U, 0x3dda00dfbd6f453eU, 0x3e0dafbb3dba7d4dU,
  0x3e2134a33c5c37c8U, 0xbdb939e63e524a59U, 0x3e464db1be13683dU, 0xbd77d21fbd93505fU,
  0x3da0dacdbdb0d4b8U, 0x3db7372a3e0ac3c3U, 0x3e1be927bd6aa534U, 0xbe13c256bd2bcaebU,
  0x395da69dbdd0f9f4U, 0xbe6cf3aabeb70336U, 0xbe90d2833d93b7f2U, 0xbd83e4103d11b115U,
  0x3dd5952c3e1cf920U, 0x3e80bfadbdb9ed54U, 0xbce753763c9a12b9U, 0x3e002ad3be84ae1eU,
  0xbe0703f3bd68b122U, 0x3dba4bb0be03f65dU, 0xbca24ff1bde777acU, 0x3db69d0a3dc766caU,
  0x3e249067bcf15025U, 0x3eb5bdd73d8816ceU, 0x3d520db2be0eb99bU, 0x3da95356bb475189U,
  0xbe0e60b3be0cf4b5U, 0x3e1b9af43dbd028eU, 0x3e3f920e3cd0e350U, 0x3cd4e8463d26be0aU,
  0xbc892ce23e10df2aU, 0xbe2f86ad3e22b91eU, 0x3e224bf6bb10ca9eU, 0xbe1cbec33df595ffU,
  0x3ba064a03c71b857U, 0xbc885d823e03ba30U, 0xbd7c26a33db23418U, 0x3dae6a5bbdf62ff4U,
  0xbd66f3bcbdc56458U, 0xbd9db269bdd25389U, 0x3c36820f3db50e75U, 0x3d82a64abdf46f55U,
  0x3d748d723d7241d6U, 0xbe1215d1be37e54dU, 0x3e2c1acc3df18b72U, 0xbc00b373bcfd691cU,
  0x3dbf47243c34261aU, 0x3e656a753e329102U, 0x3df39c79bd0c5d8bU, 0xbc9a0773bd70d1fdU,
  0xbdd661903e1ce8e3U, 0x3e3e7aefbbbed392U, 0x3cc04aba3d979154U, 0x3cfb07763e06c0f6U,
  0x3da8dea1bd88d965U, 0xbe60439d3e3b585eU, 0x3dbfd7f83e308e8aU, 0x3cc41c183dc0aa5fU,
  0x3b4a94003bc5a278U, 0x3e0ad0543e090348U, 0x3e143d43be2434d3U, 0xbdf9d4203d6ca24cU,
  0x3d7a9ee3bde9268eU, 0xbddbb623bdf60819U, 0xbe081c3e3dcdad15U, 0x3db1eeaa3d8e70e4U,
  0xbdd6fe763d649e82U, 0xbd9db280be44ac27U, 0x3e109e793d90140bU, 0xbd0becaa3d3e3dd8U,
  0xbd82f1213d62b289U, 0x3e653bdcbdab9ec5U, 0x3c63f0c73c91f610U, 0xbd3e8c0cbdf37834U,
  0x3dab177d3e11d809U, 0xbd2a05253e1c8d24U, 0x3e28cda03e2bc5fbU, 0x3e107f0cbd22fe8eU,
  0xbddda8f63d7a0e7bU, 0x3eac27813e631739U, 0x3d816a81be126483U, 0xbdad82e0bdd51cfaU,
  0x396b4000bdcdc534U, 0x3d90ca9c3cddf2d5U, 0x3da2045c3d24aa78U, 0x3e220be53e24ca43U,
  0xbc8353cb3d4739bdU, 0xbee1c5f63e0251cfU, 0xbc8e64b73d8e7fd5U, 0x3d85a9803e0d55a5U,
  0xbdab036b3d939a4eU, 0x3d89a02c3e1f05a0U, 0xbd17bfa2bd12ea4fU, 0x3d8798e7bc5f2b07U,
  0xbc86e8493cfb2115U, 0x3bd3202a3d9f4895U, 0xbe20937b3e28e705U, 0x3c9cd1a83d86c023U,
  0xbe243bb83cad14b4U, 0xbd276f303e1970b1U, 0x3deb4edb3d94adf5U, 0x3e115f20bd3fe070U,
  0xbe0c56f43e13841cU, 0x3e662b2cbc0bccefU, 0xbd095bc73d24d8cbU, 0x3b5099403d3a0567U,
  0x3e0bc2393c5d61b0U, 0xbc1adf743dc5b42dU, 0x3e29ea853ddc070eU, 0x3d629bc8bdb63763U,
  0x3deb8ec53e254032U, 0xbd21bd373e5e26e7U, 0xbdbf9dddbdf8b607U, 0xbde833023e18cac9U,
  0xbc70d080bde32471U, 0x3b2e7e1cbe53a163U, 0x3d7617773d789516U, 0x3e2623fb3bfcd31bU,
  0xbd22d395383f1e6fU, 0xbd6c7ab6bd8248d4U, 0xbdeb473dbd74d99cU, 0x3d85b1f0bd96ccedU,
  0xbc8fb2d83df859ddU, 0xbe2eda98be467df4U, 0x3d693629be1eb6bbU, 0xbe191d523b0a4b4eU,
  0xbd348fc8be08ec67U, 0xbe07252ebc295fb6U, 0x3ce4d2adbe1d1a10U, 0x3e0beb293e36795cU,
  0xbdf64680bd92adeeU, 0xbe1bb239bd7a5d3bU, 0xbe6e23c1be1137ddU, 0xbdf586a63df61a7dU,
  0xbe1bdd043e22d839U, 0x3e0e137c3d0d6f82U, 0x3d9305f43d0883e6U, 0xbd92e2e0be670ffcU,
  0xbd9f1a763dfe27bfU, 0x3b49b829bdba64feU, 0xbd90e2febb24ac62U, 0x3df9f122bb63e057U,
  0xbe2c7b923e17c1ceU, 0xbe0521983d88bfb9U, 0x3dd0d49d3e0ed0eaU, 0x3d99657a3e2c023fU,
  0x3d4e500cbe1b24afU, 0x3d0f23cfbe1d35a0U, 0xbd9c6ac5bd9efa8aU, 0xbd20575d3e0ca407U,
  0xbdb016a73d82ba81U, 0x3dc86c4abcab8071U, 0x3d95261cbdf841acU, 0xbe172ac6be3019acU,
  0x3df8c832bc1edcb5U, 0xbdc53f21bc1bad6bU, 0x3e36cd5fbe25e008U, 0x3e0bd6bf3e26a01fU,
  0xbe095c553dc4bd96U, 0x3e0ed03dbd1bb586U, 0x3d7dcc523e16e28dU, 0x3d4d32e0bd9064b9U,
  0x3d99105a3d6f8fb9U, 0x3d1ff0163d8cf58fU, 0xbe1749aebd8468e0U, 0xbe10cec73d2b0391U,
  0xbd8539b63da9b78bU, 0x3d2d005b3e53e8beU, 0xbe0fedfebcb4f473U, 0x3d88ebd7bd8f23fcU,
  0x3d86890a3e0630c6U, 0x3d3ec4053e5cfe07U, 0xbca425893abbeb5dU, 0xbd4aa4debccadbb1U,
  0x3d4937ccbd487288U, 0xbe2cdece3df0f234U, 0xbd213fecbe25940eU, 0x3e17a30bbd5da6b6U,
  0x3e1fe825bd8e351dU, 0x3db74235bce97641U, 0xbdbcfcf0bd532948U, 0xbe2448b439c3a613U,
  0xbe07458a3d896260U, 0x3e556f56bcbea401U, 0x3d7482303e2bbc26U, 0x3dc4c1fa3a6f6850U,
  0x3da0fcda3daf46eaU, 0x3e0fc4adbd947aeeU, 0x3d10c9c1bb2b6810U, 0xbc3954c63e14ac3cU,
  0xbdf3f11bbcadefd2U, 0x3d7e3732bdcabc8fU, 0x3dfb80743db50d46U, 0x3c946c553d8499cbU,
  0xbe22f93bbbfd5187U, 0xbdda8fa53d0270b2U, 0x3e5ae4583e24be2cU, 0xbe16f66bbcf1fd9eU,
  0xbde1873fbe1d98f6U, 0xbdd4d6353dfe46f7U, 0x3d4a86e13a43e8d0U, 0x3d90cd10bdf4d173U,
  0x3d507a00bde39b80U, 0x3e5f69973d500c6dU, 0xbd27f79e3dc6d60bU, 0x3e032b5f3d9cfb52U,
  0xbdad43bfbcec619aU, 0x3e8c4a553d7a6583U, 0x3e271695be067b26U, 0x3d581a603e3e927aU,
  0x3d8065463cf4c219U, 0x3e80cdd2be36ece2U, 0xbcf47bacbe1d896dU, 0xbc4a0091bdfc04e6U,
  0xbd3f71e6bde1406eU, 0xbdda83f83b4e9d1cU, 0xbda4eeb73deea9ecU, 0xbdd4a7e63e8bd316U,
  0x3da2acb6be09a882U, 0xbe2b08643dd48e37U, 0x3dd16f2b3c8e0394U, 0xbe08f951bd3fe224U,
  0x3dfd0bb9bdb19032U, 0xbe5eff4a3e29a3e6U, 0x3e17d8793cad26f3U, 0x3e242e333e382413U,
  0xbc12e5b0be21a4f4U, 0xbe44fd06bded4abdU, 0xbd4e2203bb81977fU, 0xbdbbc7163cf05d9eU,
  0xbdfa279c3dc4b647U, 0x3eb044a6be3c0214U, 0x3e20b02bbda1599bU, 0x3d8791603dc8d196U,
  0xbda3c8163d288c53U, 0x3e40aacabe16e2d9U, 0x3dd3238b3d44511aU, 0xbdcb6eb9bdf83fb4U,
  0x3dcf73853d37de59U, 0xbeb2a29fbe393c84U, 0x3d20ed05bc269760U, 0x3deaa2023e16934fU,
  0x3e25ee053da06b31U, 0x3d0c139d3dca3dadU, 0x3c9c7d4cbd5f01aeU, 0x3ba4cc363e044e7aU,
  0xbe0a41b13d833d92U, 0x3e89c4c53daccf43U, 0x3cabbd87bd8d016cU, 0x3e2872e1be5079c5U,
  0x3d192900bd0b15ccU, 0x3d1777a43ec961dcU, 0x3dfc110a3de6c17bU, 0x3c876da2bd75c2c9U,
  0x3d80f8b2bd6269a8U, 0xbdd78c013e5240c8U, 0x3db0c4d53d37bda0U, 0x3aa5159f3e747dfcU,
  0x3e1e1815bda6726cU, 0x3e4003663e37c832U, 0xbe1f05c23bf932e3U, 0x3d496c65bd223d20U,
  0xbde6239ebda0de29U, 0xbe5536e83d6a13e6U, 0x3b64ad50bd1f0c77U, 0xbd93c676bd31ac86U,
  0x3cbbdbd8be10f0a0U, 0x3dfb7d21bdef5bb9U, 0xbe03d2163e23e2a0U, 0x3d66bdc23e06155dU,
  0x3d100f883e22188dU, 0x3ea3a9a3be91e3bcU, 0x3d8185e1bdf3cda3U, 0xbdafbee03e33f116U,
  0xbe131e3e3d03acc4U, 0x3c7a6fb1bca07c86U, 0xbde92f78bd06a2a6U, 0xbe075e84bda99552U,
  0x3d385a39bd991c55U, 0x3e522ff93e0cc498U, 0xbc8048fdbd260b35U, 0xbe1861703d6070dbU,
  0x3dc115b23d71f52fU, 0x3dd282b33d9c3804U, 0x3d9d03f53e0968e7U, 0xbe26d2d23e14b762U,
  0xbc3b0d6cbdff5559U, 0xbd67779c3d4ba289U, 0xbd8799b5391a96cfU, 0xbd1db6a0bdd06a89U,
  0x3c4de1503c97c3b8U, 0x3d9d02653e5e6025U, 0x3e40d331be16f346U, 0xbdd45dbdbd9b936dU,
  0x3e0121eabc9cbceaU, 0xbe4685e63c958b0cU, 0x3dee4ca3be0bb154U, 0x3df1636a3b1135edU,
  0x3de8e8623e18af98U, 0x3b4cff133c618013U, 0xbd24c87fbd823a5bU, 0x3e1bfc8b3e076321U,
  0x3dd7aa7abd8f5346U, 0x3e72bd723cd8f42eU, 0x3c17e34ebda785a5U, 0xbe2403d63e0ceeecU,
  0x3e0d2d23bc1e7645U, 0xbbbf4d8f3ddd24cdU, 0x3d86a280be1e130dU, 0x3d82df36bdba89b2U,
  0x3da2461abd5e2094U, 0xbc9521aebe09ea12U, 0xbcdcf2c0bdeb1429U, 0xbd55c1cc3e070c1dU,
  0xbdf4cb1bbdea93bbU, 0x3dbd45bc3d2019d3U, 0x3d66930fbd9c1c35U, 0x3df517263e02bac6U,
  0x3ca3b64cbd728c01U, 0x3e47640f3db434f0U, 0xbd899058bcfff2b9U, 0x3d9207e0bddae402U,
  0x3e2340433c979b85U, 0x3dd6af9b3dd1eb2cU, 0xbb4b20893d55ea11U, 0x3b872481be00c780U,
  0xbd4feab03dfef28aU, 0xbe82331f3e313f4fU, 0x3d4f8e2fbe0e86abU, 0x3d6810033d86aa82U,
  0x3e0bf953bd7e4badU, 0x3daaa7623d895fc5U, 0x3e1e9d09be0d848fU, 0x3d27e3f93e007580U,
  0xbdd27f013dedf4c5U, 0x3e701df13e30eaa9U, 0x3da6f3d0bd436f4dU, 0x3d3e36d43df7f318U,
  0xbe26ae333de220f8U, 0x3e1b62673e1ed4ffU, 0x3e599e4bbcc45919U, 0xbe17ee7dbd0dd95aU,
  0xbd6b7d513dd175b4U, 0x3eab01ab3e299846U, 0xbdda0809bc98febbU, 0xbdf9d1b0bd7a6522U,
  0x3d959feabdf42bddU, 0xbdbfb154be6189f7U, 0x3e5c315b3e20038fU, 0x3df5839ebd95f5f8U,
  0x3e10b6b13e251366U, 0xbcb61111bd423e0eU, 0xbd1c714d3d8f7cc5U, 0x3d8a544a3e4382c1U,
  0x3db33426bc605a14U, 0x3e114252bd642f08U, 0x3e5d467b3d8b9362U, 0x3c5c9565bdb5cb7aU,
  0x3d569ebcbdac460cU, 0x3d6d62babc9f1d3fU, 0xbcce310a3e078218U, 0x3e06f4453e05f6cbU,
  0xbca226683dfe23f1U, 0x3d95fd933e31d764U, 0x3e235c6f3dfc8c62U, 0xbdd5f990bcf28f7eU,
  0x3d439714be0a7c2cU, 0x3e82d041bcc182ccU, 0xbdb353693d9127bfU, 0x3cf9a7403e047e2eU,
  0x3d5673d43d33f282U, 0xbe66ba95be6162b0U, 0x3d59a4be3e0c5f57U, 0xbd4f95e53cd94d34U,
  0xbcca30fe3df52aacU, 0xbe9c75b0be5604e1U, 0xbd90512dbc5fc23bU, 0xbcfc15dfbeb984a3U,
  0xbe0f8b7b3e0c8a72U, 0xbc8fdf58bd2da30eU, 0xbc20acffbe0a2d7cU, 0xbdc532a63e035a22U,
  0x3de97870be238870U, 0xbdf1709b3d3b6fa0U, 0x3d8c63e33dfd8410U, 0xbcb9e8a03d7404e4U,
  0x3d4913a0bda20342U, 0x3d37027ebe20009bU, 0x3dbe0906bdd91db7U, 0xbd988fb9bd8016dbU,
  0x3d6beb033c8e1e92U, 0xbba40f0c3db2e560U, 0x3d4af5e0bd51e9d1U, 0xbb47aa00bdb99b41U,
  0xbdbab29b3d825219U, 0x3c93e2033e22dec2U, 0xbdd58e77bd866c88U, 0x3e26d6e5bc97d4faU,
  0x3dac235c3dfd0c95U, 0xbe0322213d7be3d3U, 0x3d5eb9d2bd19cfe2U, 0xbcca34f73d497c62U,
  0xbdc60cd0be0bf9c3U, 0xbe1e1defbde85bc4U, 0x3c4a2b8abdec4d0bU, 0xbd3f03edbda926edU,
  0xbcf93423bdd35747U, 0x3dd957023c6bbfc2U, 0x3d5b2116be1473b5U, 0xbdb067c6bc425beaU,
  0x3e21c873bbef2ec1U, 0x3d078e0b3e167b80U, 0xbdb35bc4bdaee53fU, 0x3e1834db3d8d4cc1U,
  0xbdbc9d1abe1b8de8U, 0x3e1426653deac6f6U, 0x3d358a3abde7cae4U, 0xbe20fe903e569d81U,
  0xbe1bb48d3d4170d2U, 0xbe852be23e02d392U, 0xbd8201f33e21894fU, 0xbdaad7273e006635U,
  0xbe05e51ebcb17598U, 0x3c24c9bdbc9854eaU, 0x3e0742a0bd23197bU, 0x3da5e18abe260e0cU,
  0x3e0ae761ba091b2aU, 0xbe6ff312be4b007fU, 0xbe19c6e53d9b1845U, 0x3d3921c53df04a5dU,
  0x3d3780cabd88deddU, 0x3e186d793e20a3e8U, 0x3df88113bde858beU, 0xbcfe8a683db76076U,
  0x3d980010be30b1cdU, 0xbdf282f1bdf8192cU, 0xbd6eea99bd69f4baU, 0xbe16b6cabd069b06U,
  0x3c79c1273e14de22U, 0xbd9b2932be0fcbeaU, 0x3d392b7c3dbca85fU, 0x3c2e70d0be2800b5U,
  0x3d949ee63e238a0aU, 0x3d08b3263e0384e5U, 0x3d685ce83cba1341U, 0xbdb3aed03ddc35c4U,
  0xbcc57947be099b09U, 0x3e98c8833dff57e7U, 0xbe18f2873cf0e180U, 0x3d0bbb2cbe7d0944U,
  0x3e06c089bc900874U, 0x3c8419c73d970e5cU, 0x3d9f2a00bd9fadd5U, 0xbd807790be272ad2U,
  0xbe02caf8bdf00a33U, 0x3e4556debdb3f633U, 0xbca450fdbc3b65a3U, 0xbd2dbc2cbdfdbad1U,
  0xbd81738b3e0335e8U, 0x3e09d831bdb23757U, 0x3e40f6363d71f8bbU, 0xbd94a6873e07b437U,
  0xbda47d71bde728acU, 0x3eb99fafbcfbc2a5U, 0x3d2027423dba5a38U, 0x3bba16a03d9ce80eU,
  0xbe047a50bd296751U, 0x3e15c6303e177907U, 0xbdcf7933bcfbf46cU, 0x3e1fd8c0bde5334dU,
  0xbe1cde6abe341befU, 0xbe8b4478bd293eedU, 0x3e23a9123dbee78fU, 0x3dd060aa3db0f1f7U,
  0x3df628063da10e5cU, 0x3cec2c1bbdc51bd6U, 0x3bc4ba65bcea02b0U, 0x3e124965bd90622aU,
  0x3cdf17fdbc8812fcU, 0xbdef1d383db5c699U, 0x3d2053b8bddafddfU, 0x3d1eb1543ddb6a59U,
  0xbddf75bb3da7cea0U, 0xbd8b35a0bd8ec4c8U, 0x3e06f4ecbb19f153U, 0x3d99cb993da72b62U,
  0x3e11f9833cd45248U, 0x3e55b8f63e1bc438U, 0xbe095fa9be0cdd8aU, 0x3e11830b3d13408aU,
  0xbcbab4a83b757084U, 0xbd1626d93c8e535bU, 0x3c259024bd59ffa8U, 0x3bd57fff3c40ea0aU,
  0xbe03e716bd27b50aU, 0xbe89c61abd7d7848U, 0x3e7ce5cebd196237U, 0x3ed6af9f3df5a772U,
  0xbe5e7a9abe773917U, 0x3da52af6bd05e011U, 0x3e3ba888be899caeU, 0x3daba1783ea9ad10U,
  0xbe311929be10abd0U, 0x3e8654e9be5b48e2U, 0xbe7af9a4bdf08921U, 0xbc5e28213db5fc6fU,
  0xbdfce50b3d532e49U, 0xbea069823de1f34fU, 0xbdf9c7a6be285ae6U, 0xbe3a293e3e1f9e85U,
  0x3db1dfa13e5e580cU, 0x3d735d833e90477dU, 0x3e80f04d3e777b12U, 0x3e26f257be6c767cU,
  0x3da95d4c3ea5c452U, 0x3e8630b2be71566dU, 0xbd5cb36d3d8b05deU, 0xbe754cc7bd48684dU,
  0x3ea89440bee352c2U, 0x3c245019be91c686U, 0xbe88e98fbe24010eU, 0xbed1de2bbed0283cU,
  0xbe209d2f3e62ff1eU, 0x3cefdf903c178c64U, 0x3e0f49843c8aa013U, 0xbe95f138bde48fd0U,
  0x3ece9c96bde4ffbdU, 0xbe2c2cb2bdace7e6U, 0x3e384d253e199f02U, 0xbd86123f3dc0a6cdU,
  0xbed154163e7b38b9U, 0xbe2657483e73d440U, 0x3e0f3be2bea276c5U, 0xbd5873073e341c33U,
  0xbee73676befc75deU, 0xbd30676e3e345bc6U, 0x3e42498b3e86344cU, 0xbd9d457b3c6f611eU,
  0xbed516b43d8b8472U, 0x3dd0bef03c7ed3d4U, 0xbe1e4687be8eab26U, 0x3e185b893ca455f7U,
  0x3ed351533cc25686U, 0x3e360194bd5d4a3cU, 0x3db8ea30be61c8adU, 0x3d1ba0e13c49a62bU,
  0x3d87e302bdeab931U, 0x3e426626be028327U, 0x3e036c2a3e870110U, 0xbe1dc9c3be046a19U,
  0x3f08717d3e9893dbU, 0xbe34d534bd7e249eU, 0xbde4a5113e726c55U, 0xbe9dd54cbe151357U,
  0xbd27e9a9bdf0259eU, 0x3f4128d33d14c3d3U, 0xbe387ddb3e078e3bU, 0xbe9be1c7be4ab115U,
  0x3e8cc7a83e13304eU, 0x3e23110b3c2dcda9U, 0x3e97ead0be2e1eeaU, 0xbe6550393c8eeea3U,
  0x3ed6c9053f070becU, 0x3e20285ebe94ccfaU, 0xbe15b43fbe677821U, 0xbdf7d1d4bcdd8838U,
  0x3b9813913c00bbe1U, 0x3d92dd40be952b2bU, 0xbdd51e453e8b3303U, 0x3eee3ace3ed51c88U,
  0xbf18e8673ecefd35U, 0x3de43c253d98c50aU, 0x3e3b361e3cabe1dfU, 0x3e885f66beb76b48U,
  0x3eb03e9c3ee68fc1U, 0xbec24a67bf1e31afU, 0xbc8e1871be39ac77U, 0xbe08d303bec0b6bfU,
  0xbecd3b87be0f07beU, 0x3e0323e93cb32222U, 0x3dbd9c733f0392a4U, 0xbe30c7793e8d04edU,
  0xbd1a7dc8be31c6dcU, 0xbe6c2defbf2c963aU, 0x3ec72afd3e6ba2e7U, 0x3cf15fc03c12a244U,
  0xbd9365773db8c305U, 0xbe6c012e3d43ac77U, 0x3e9553493e8ccb84U, 0x3cea0a753e504141U,
  0xbde9625ebca1f7faU, 0xbecd35173e151f56U, 0xbe9029293e14526bU, 0xbc9542c83cdfb0ccU,
  0x3dbd233cbe4c07e6U, 0xbeb19731bea69c9dU, 0xbec1ecd23df5c117U, 0x3e04a2f63ea8d25bU,
  0xbe0d4ec63e3996f3U, 0xbca8a0f3bbaf8516U, 0x3da807cbbe470f9eU, 0xbea116553e190bd0U,
  0x3dd1c3c5bec66d76U, 0x3bb6ad123e94a485U, 0x3c3ecc003d8bdbf0U, 0x3d9047283df41d2cU,
  0xbe7b9996bda540ecU, 0xbdcd12bbbe43c581U, 0xbd2c8713be6ee2cfU, 0xbd95484e3d9e13d4U,
  0x3e423b01bef194dbU, 0x3dfde3e4bf095a22U, 0xbe6e79da3d8c160eU, 0x3cb9cb10bdd7f9abU,
  0x3e1517463ca70efdU, 0xbe6d4d693b9043f8U, 0x3e35f21b3e177403U, 0xbde536c53c962ed5U,
  0xbc1a7cf93e6a1c5fU, 0xbd4336ac3e449d75U, 0xbe51242f3e2e1fc8U, 0xbeaee2443e30b85aU,
  0x3cf70c89be302eb8U, 0xba2ed9dd3e1cf829U, 0x3ca846ca3e881ec6U, 0x3e53734e3dad9dc6U,
  0xbd6d5973be5c9ad9U, 0xbbefe58e3d9fe3d2U, 0x3df5ee643e623c2cU, 0xbd689736bb027253U,
  0x3dabcf9e3d81f9c6U, 0x3e0905cdbdd0d126U, 0x3ed3899e3dc90da9U, 0xbe51487f3e94f53eU,
  0xbe1c3f773d9f9167U, 0x3dd8afc6be52f26bU, 0xbe899927be91e09fU, 0x3e0a11e83db8c971U,
  0x3e59850ebe982b4fU, 0x3e1a7a323e11c0d7U, 0xbb9295003d2cfe18U, 0xbe6954d0bd4bd020U,
  0xbda32548be2c9071U, 0xbdebd5c6be0778f8U, 0xbe03d27bbc0ac0b0U, 0x3e0e53e2bd7aa27cU,
  0x3e1801b03dea7c58U, 0xbe0a64e8bce898c8U, 0xbd1e400c3d0820f8U, 0xbe82c9babe9d8e35U,
  0x3d1399df3e3ea357U, 0x3e20d15ebe21a61aU, 0xbee9615dbee8b212U, 0xbe4ed297be5ca90fU,
  0x3e19afd0be97daf1U, 0xbd5b65f4be06a2c2U, 0xbce9fc523e87a1e0U, 0xbe2cbf3c3e11a851U,
  0xbd25a8f1bb8e3138U, 0x3b2068e3bda7adfcU, 0xbdcbbb97bd5ab052U, 0x3eb782c500000000U,
  0x3dad94063d0de685U, 0x3bc58427bdb4a54eU, 0x3db4c5c7bd902096U, 0x3d6439753d59e500U,
  0x3d14789f3c8d80c3U, 0x3e485c1fbb01f580U, 0x3d85f181bda13886U, 0xbb240de23de1062aU,
  0x3e4ae2743d9d2c25U, 0xbcf3ee2ebde7ae57U, 0x3e046ca63c451419U, 0xbe843db83c93a268U,
  0xbd0ac9fb3e34e616U, 0x3de4e7bbbe1c68acU, 0xbd8969b4bc483cc6U, 0x3e4f836cbce514e8U,
  0xbdcb367ebe26a576U, 0x3dacaa7e3d802546U, 0xbe3d66413db65b7aU, 0x3bb61174bd1b1ee0U,
  0xbdff17cd3dbd0f62U, 0xbd19d39abd084263U, 0xbb5a3b61bd3b9862U, 0xbdfe56683d90be7aU,
  0xbe52334a3e3b7a43U, 0x3d36c2753ca38c62U, 0xbddf3a68bda154b7U, 0x3dc53ea8be24198bU,
  0xbdeb20033db72b75U, 0xbe19fe813c96cd98U, 0xbe25133abe854825U, 0x3d87945c3e031605U,
  0x3e44a0c0bb89c47eU, 0x3b14d29ebd47661eU, 0xbda44cd53d41620eU, 0xbb247cc5be2a6708U,
  0xbe150176bd2f1e53U, 0x3dd7b4e0be24d848U, 0x3db5e7a53e17e3d8U, 0xbe0cbce83ca3abe8U,
  0xbdd58f823e1c9759U, 0xbd9aeb0d3c45a69fU, 0x3db4bb803e0401d2U, 0x3c003e8abe273b88U,
  0x3da8a443bce5de36U, 0xbd1153cf3dee8cdfU, 0x3cc18ed73df5617cU, 0xbc9603e33dd38d06U,
  0xbd029f0abdf4142aU, 0x3d08c2163dcf33d4U, 0xbcc93c46bd1f2d8fU, 0x3e1c07ddbd9fb3e0U,
  0x3da6889ebc748e19U, 0xbe021e51be009e72U, 0xbde291bebd4b7f8eU, 0x3ddfd27cbe234d4eU,
  0xbe5a92c0bd555d03U, 0xbd444595bdb96a51U, 0xbe1cf4613e1b8eabU, 0xbdaf956a3d647d14U,
  0x3d85616a3e0d7357U, 0xbcf96d55be465955U, 0x3e03f85d3deb275eU, 0xbdd6dd5dbc295400U,
  0xbde186adbd8de21bU, 0xbdaa7fdabdecd24bU, 0xbe16e45a3d9046eeU, 0xbe171412bdaad316U,
  0x3acc724f3d39c1b6U, 0x3d5108983d81bc00U, 0xbde9179f3dfedd26U, 0xbcb2a822be28e3e3U,
  0x3d7a8add3b9f9e76U, 0xbd7e6baa3e11a08fU, 0xbd8493e8be461eedU, 0x3dd90e503dc5ee0aU,
  0xbe32b0cfbd4ece5bU, 0x3d7adf5dbd61494dU, 0xbd98990ebd34179eU, 0x3d8ad3a93e1eb97bU,
  0x3e8be47b3dc3a6c9U, 0xbde884bf3b75c8ecU, 0x3e41901e3c7ef3abU, 0xbd2565a7be060076U,
  0xbdf5bac13d9cd9fbU, 0xbcfc1f7abddf934fU, 0xbd0d8ea03d8a69b6U, 0xbd96ade93e19a661U,
  0xbdbc679dbe2ebb96U, 0xbe5bc390be01926eU, 0x3e09fb4dbd35025bU, 0x3de10b703d9cbe06U,
  0xbe071ce1bde2141dU, 0xbe073321be2fddf8U, 0x3c9b179d3a4d665cU, 0xba996430bc46e5d0U,
  0x3e79967f3e45e15eU, 0x3e26b5cbbdec8b58U, 0xbdec98123e61d700U, 0x3d39190dbdbcee26U,
  0x3d0c945f3cd726bcU, 0x3de97b7b3bfe6e18U, 0xbdfa5e353d922061U, 0xbe112ddf3e1ee1e3U,
  0xbc3f110bbd8de074U, 0xbdfefba8bd58ea71U, 0xbd1778293dce3422U, 0x3da26f423e22516bU,
  0x3b6e3d31bce29235U, 0xbdfa3ce6bdbd6c6dU, 0x3d887b9b3e136212U, 0xbd18c674be14afbbU,
  0xbe1690df3c513519U, 0x3d2838c1be1c8be9U, 0x3e2132dc3e204170U, 0xbca5bf9dbd9e6a90U,
  0xbcf29fbc3ddce769U, 0xbe176f72bda1c97fU, 0x3d022c5abdb11e93U, 0xbc1c30233d36b0a0U,
  0x3d1dc7a0bd90ffedU, 0xbbc8db543dd3f55aU, 0x3e0bde4c3dd27907U, 0xbe06138f3c946d40U,
  0xbe74e56ebc6620feU, 0xbdfd84e43e4e5af8U, 0xbe894bdd3cd2eed2U, 0xbec62ff03d9f5c50U,
  0x3d8523bfbe0f0a5dU, 0xbd84b63f3d2ff40dU, 0xbd0c09f6bdf8c8caU, 0xbeb3bab53d9ccda6U,
  0xbde51259bc8ff2b2U, 0xbe34359a3ca7c6d1U, 0x3ca093d1bdda6d75U, 0x3e81c1693e01adc5U,
  0xbe0d22fe3d3e482bU, 0x3cf7881cbc9fc509U, 0xbdab84ec3e5e4511U, 0xbe1c63cabd880b76U,
  0x3e4ecfa5bdb526caU, 0xbcb483f0be74252aU, 0x3e4260ff3e1ca50fU, 0x3d997dafbde4536bU,
  0xbe012947bdb25cbbU, 0xbdd420bd3e8e7d22U, 0x3e4579953d29e331U, 0xbd3dcac73dbaa666U,
  0x3de8f0b53e2223e4U, 0xbb9da98f3e71bdf3U, 0x3d20295abd9d0ec9U, 0x3dc90ebcbdaaf26bU,
  0x3ea2d752be2f1b74U, 0xbddfb92abe2320c5U, 0x3e1ad3f5bc8a7e5fU, 0xbcf3beecbd380dccU,
  0xbd6d00873e20d297U, 0xbc3482c1be0d08a7U, 0x3ce4e14ebd109898U, 0xbdfda227bde50110U,
  0x3d72f8f1bda19badU, 0x3e2180f6bc9e741cU, 0xbe219d3ebe147e9cU, 0x3b510b563c8053c0U,
  0xbdc51d51bd0eb4f7U, 0x3de2ea9a3daf4cd3U, 0xbe09fe17bdbdd59cU, 0x3d4b6d94be15764eU,
  0x3e32af4c3dc5e401U, 0xbc994dd3bb9ffa32U, 0x3de3f9953d8b852aU, 0x3e0304eebd3959c0U,
  0xbe1b2aecbd950063U, 0x3ca9b3d7bdfe5563U, 0xbe11082abdfa7ebcU, 0xbe1ea59bbc07b6d0U,
  0x3e4c36883e09db02U, 0x3e0ba999bc9cfb67U, 0x3e24664dbd820236U, 0xbe2d4605bdc21a30U,
  0xbe04cc2a3dbf6e96U, 0xbdb2abdc3e2d8a5fU, 0xbe047a0a3e1d9b2fU, 0xbda233423d1db3ccU,
  0x3be35a21bd6054e0U, 0x3e0fc2613cdcf677U, 0x3dcbe0603c775463U, 0x3e020546bdfd91c6U,
  0x3dd72eed3b27f058U, 0x3decf6d7bd13c4f0U, 0x3d3b5eecbd498451U, 0x3cd26dfd3e058e81U,
  0xbe2d4b2b3e227fa6U, 0xbe1834bc3d3c3239U, 0xbcf9be583db7ddd9U, 0xbda7400c3d4675acU,
  0xbd1530683c4a2923U, 0x3d9cc67b3e0e4d47U, 0xbd79aabf3d82e2a6U, 0x3cf033cbbdba3df0U,
  0xbd2d2517bc70435aU, 0x3c7213c4bd1146d2U, 0xbe3eda103d03ea59U, 0x3e87aeb03cd9b018U,
  0x3c9cbf943dd74f43U, 0xbd925eaa3d3b4fedU, 0xbcb78936bd9fc2b5U, 0xbdc484df3da940eaU,
  0xbe33dde73d8c097dU, 0x3d2096c0be047ac7U, 0x3d7553a4bdc3f9f5U, 0xbd9965a2bda12edbU,
  0x3d9fb9f7bd628f87U, 0x3d4243f0bdaae932U, 0x3de7dd883dd1454eU, 0x3d2840a9bc25af00U,
  0x3e4b93e93d0fae51U, 0x3e132441bd2b1f33U, 0x3d81ccb43da4780cU, 0x3d6412e7be292b1eU,
  0xbe3c58e6be5d0322U, 0x3d6465ffbbf9ff27U, 0x3cdd74173e075f90U, 0xbe0dd9cb3e0f7489U,
  0x3e2aadc13c3f7e31U, 0xbd6a41c73e23f0fbU, 0x3dcf7283bc53c3daU, 0xbd15f29dbdcd0a20U,
  0x3e64d11fbd2d1654U, 0x3dfcc30abd16e9deU, 0xbe31f6973a9c9355U, 0x3e59a20fbddb4d10U,
  0x3cc551f2be12de3cU, 0xbe01d800be297a1eU, 0x3e03afa1bd42ef3aU, 0xbd0d7a09bc9840a8U,
  0xbda9a2843e0b74d8U, 0xbd03f8a5be3908e8U, 0x3d23b3313e0e3b3bU, 0x3e3755d73da1f596U,
  0x3dac90f6bdfa67ccU, 0x3d42e6b4bdafd38cU, 0xbe0157fc3d754f46U, 0xbd874366bddd8dd6U,
  0x3e897443bc069f1bU, 0xbdf0e839bd7a04d0U, 0xbe2168c9bd8ebd85U, 0x3bb442f13e1c54f3U,
  0xbe1a90ba3daed40bU, 0x3e03dda6bdd390faU, 0x3df014e7be3e9b6cU, 0xbf5f077ebd9ae0cbU,
  0x3e3580b33e1db06dU, 0xbdafcf6f3e44e186U, 0xbd1d0b853d0df717U, 0x3e60938bbd880356U,
  0x3cd2438e3e7eadceU, 0xbcce442c3cded845U, 0x3e04449ebd80f4e5U, 0xbd2b5992bdcf185bU,
  0x3db41c0cbd3de20cU, 0xbdef35c5bd177bd8U, 0xbe7c4d7f3d857c03U, 0xbeccb4c13d2e7ba0U,
  0x3de798b9bd332977U, 0xbe4adc29be3e46bfU, 0xbdc6df98bcc54528U, 0xbe19f90ebe273210U,
  0xbe55b0fc3cdbf3b9U, 0xbe511b38be17bbc1U, 0xbdc1ae6bbd74a606U, 0x3e4b191c3cbe3d80U,
  0xbdd11a1ebd6b901cU, 0xbd08c9c73cdc25a7U, 0x3daab5cc3cdfcb56U, 0xbdfce5dcbd0155b4U,
  0xba75ea083cf4265eU, 0x3e1314e93e91304eU, 0xbdd57ba7be3b507bU, 0xbd593245bd04008cU,
  0x3e4e65d23e13bfcaU, 0x3d06b0c7bc3d5d57U, 0x3dd8edd53df855d8U, 0x3d2f537bbdf52e26U,
  0x3d0660f33e063a69U, 0xbc79b9e53e212c42U, 0x3c1eaea73da8147cU, 0x3d7a99d43c5d8c30U,
  0x3ddc6b0d3c5d3525U, 0x3adaf80e3e0e0e75U, 0xbd830ec33d70b1e7U, 0x3bdcdafa3e1e515dU,
  0xbe595e0e3e41079eU, 0x3e496e733dd348ffU, 0xbb94bb6d3cffce84U, 0xbe8ff9c6bd92bc56U,
  0x3c0a93c93e40deacU, 0xbdffa7ba3e28518eU, 0x3a46711d3c972a7eU, 0xbd1467c23da5cfa6U,
  0x3e1ee2d03d09aac7U, 0xbd5677b8bd1c05e8U, 0xbe123909bdea5a67U, 0xbc439cb4b9c03000U,
  0xbd8f53203e03bc42U, 0xbda71e053e27d910U, 0x3e23a5663e41d111U, 0x3b881e3d3d83364aU,
  0xbdbbacc73daf4924U, 0x3d529766be50d94dU, 0xbe346c8c3e0f4f65U, 0xbcff58c7bd949026U,
  0xbd8e87b6bdde383dU, 0xbdd9e36dbd3440f5U, 0x3e349ea4be1057a4U, 0xbdfbee733c381650U,
  0xbe4007e2bdfef049U, 0x3cfba0f43df815e9U, 0x3da68fc93d81e3a9U, 0x3dc00d083d90a53aU,
  0xbe41d40dbe3856d9U, 0xbe945153be79bcf4U, 0xbd8676a13ce1f855U, 0x3e5b34b93d976836U,
  0xbe97b10b3e534150U, 0xbd42d6e23d229c21U, 0xbd2d88aabc5c7724U, 0xbd9e417d3ddd30caU,
  0xbdcc84c43dfd4016U, 0xbdc509f53d6b8763U, 0xbc3767f9bd033b84U, 0x3d404d533cc11de8U,
  0xbd36cd9dbdca2f0fU, 0xbdc452133e62add0U, 0x3bb73e3c3e040a07U, 0xbecf5695bdc96776U,
  0xbdf99c4e3e4740e9U, 0xbdba46973bb678abU, 0x3d865887bd8fe74cU, 0x3c04c4e03dafbe62U,
  0xbce4e0783e425590U, 0xbd9c495a3e66ae92U, 0x3dc58de9bd7af003U, 0x3e0a13003d437c4cU,
  0xbdbf20173d944201U, 0x3dfe64773dad5e0eU, 0xbe05fa6fbe2c194bU, 0xbcf0ceccbe1d781eU,
  0x3dba4b40bda019e2U, 0xbdf72283bcb82d65U, 0x3e2238a3bc6cb26fU, 0x3e74236c3da9bd5aU,
  0xbb9d79f83d9dd428U, 0xbe6e5ba3be019c23U, 0x3d8f948abbd9bf18U, 0x3bc6ddfabdc61670U,
  0xbdc88e883dec3680U, 0x3da5d219bd9bd4faU, 0xbe3b41eb3dd3f878U, 0xbc18ad6e3e083d2dU,
  0x3e414639be3c767aU, 0xbd3018ad3d384544U, 0xbebe604dbd917466U, 0xbd85955e3df8a8e6U,
  0xbd1e218cbd8c2b1cU, 0x3c2bac17bdbd3398U, 0xbe190a19bce3f051U, 0xbdacb1eabcd8a7c0U,
  0x3d90a82b3d40d5f4U, 0xbe058f03bd091880U, 0x3e5afad53bc5a03bU, 0xbe463df3bdfe1c3bU,
  0x3e0709f23e889bfcU, 0xbd39866fbd884e01U, 0x3d867b51bd285dcfU, 0xbc9c891f3d3a2f14U,
  0xbdeb7f4dbbbcd87dU, 0x3df8d900be4e9abeU, 0xbe04b3543e29743eU, 0x3da8e802bcd8a0d8U,
  0x3e9fa728be46395eU, 0xbdd3d8c03d7268d3U, 0x3e2dd798be053b8aU, 0x3d316e913dd04c16U,
  0x3c9d7c103d1079edU, 0x3d33571d3df268bbU, 0xbe96625e3dd86e2bU, 0x3db85376bdc088d0U,
  0xbe56f449be5048c2U, 0x3e2e043fbddc8542U, 0x3cac38d8bde3c51cU, 0xbdbb2da6bdaa24f0U,
  0xbd3518a3be41945eU, 0x3e74fa7cbdfe9d74U, 0x3e7c61a43debe861U, 0xbe3e705ebda70226U,
  0x3c985fc33c97a1d4U, 0xbe1896ae3e8fb3caU, 0xbd76a317be1e6900U, 0xbdb6d283bda4fd1bU,
  0x3db8624c3dac4a15U, 0xbd766da83e60809fU, 0x3e702f413d774d1dU, 0x3e01504d3dcf4c1aU,
  0xbe005c4abd6e81feU, 0xbdf527743dd4c1caU, 0xbe59e05cbd8857e7U, 0x3e483395bd58a4acU,
  0xbe0d96a63e2460e3U, 0xbdba82753dc3f3c3U, 0xbe19b427bdcc6d94U, 0x3c79396a3d55c6acU,
  0x3de9368dbc9385b1U, 0xbdaa546ebb5c651eU, 0xbd0325f53e23d05cU, 0x3bb99159bd280280U,
  0xbd738e76be59179eU, 0x3dd52a02bdfd70f7U, 0x3d504a553e08429fU, 0xbe0100adbbc05500U,
  0xbba5155e3dd1efb3U, 0xbe285d653dacb0aaU, 0xbd171f6e3dbc9407U, 0x3e1a0b9c3dc86962U,
  0x3b8f247ebd7a1d94U, 0x3d2673483defc332U, 0xbe1364423d41bf5eU, 0xbe0c156a3d71ede0U,
  0xbe1aa616be048942U, 0x3e1b66f5bd630df9U, 0x3c6cf5eb3d4115c5U, 0x3b7fe4c4be09304bU,
  0xbdeac8efb99366c6U, 0xbe77889ebd56906eU, 0xbe9cc42cbe1fe564U, 0xbdb9d2af3d812b8aU,
  0xbd6a28713c013a5bU, 0xbe15a21fbe8eceabU, 0xbdb9bffabdd98174U, 0xbd6f2bb03dab2052U,
  0x3e279a02bdc8013fU, 0xbce830213cc176cfU, 0x3d5c8a02be701ca9U, 0x3c0d24b73e018795U,
  0x3d8d64203de9cc76U, 0xbe4d51d43dec9bbcU, 0x3df64047bdd238d6U, 0x3e0c40ee3e10ea21U,
  0x3e0412e83e36e9dcU, 0xbca2cda8bda6cca3U, 0x3dcba5823dcd3e0aU, 0xbe07447d3cd1e058U,
  0x3e4c18063dcd07a6U, 0xbd3197623d44d244U, 0x3e2d07c73e4fbc90U, 0xbdaa73f2bdca890bU,
  0xbd306e99be45dc18U, 0xbe846a203d9de16fU, 0x3ddbf18c3ce87728U, 0xbe794019bda417d0U,
  0x3d0424663df2e48fU, 0x3cd3ea3b3d25b1ddU, 0x3e2275393db83b01U, 0xbc6d888d3ced7168U,
  0x3e6aef20bd643dd7U, 0x3ddd9dbcbdbeb904U, 0xbdc530ef3e0badd4U, 0x3d3cb996bc9d8080U,
  0x3bf8bfddbdab337bU, 0x3dbfc7d1bc28a12eU, 0x3d88bfed3bcab49dU, 0xbd82720c3de8d262U,
  0x3dfbb7743dd1e49bU, 0xbdec1a55bde896a9U, 0xbdc8b4af3db2b324U, 0xbd85e96dbdd69ee6U,
  0x3d2618c93d3afe58U, 0x3c5d09fcbe1be03fU, 0x3dec1b793e148404U, 0x3d1c0b7abcaba6c0U,
  0x3d9ec8c0bdf907dcU, 0xbdb6d12bbdada6e2U, 0xbdcae9acbbfc6e49U, 0x3c91f2053e13896bU,
  0x3dc7f727bd490eb3U, 0xbe1cd392bdf523f3U, 0x3d6bb259bda6bca6U, 0x3e39e2a9be034ecbU,
  0x3be193273db163dcU, 0xbae3d10b3de4fd45U, 0xbe29009ebdb07d34U, 0x3c2be4f5bda5c9cbU,
  0xbe7dd6e73dabdc3fU, 0x3c334d753e15876fU, 0xbe22c150bda9c630U, 0x3db051b7bde01e4bU,
  0xbd4510be3df7e030U, 0xbd17f06c3e17522cU, 0xbc4a6b9abd321584U, 0x3d4bcd413b8e90a0U,
  0xbc145e083e139d93U, 0x3e69e8c73dab5626U, 0x3dfe90403d207cb3U, 0xbcea85a23d074ec0U,
  0x3e32380f3dc93260U, 0x3e0fb95e3db3da08U, 0xbe54237ebdc5e533U, 0x3e416eab3de10b0aU,
  0x3e1f15c33df3aeb1U, 0x3e06dba33cbe3077U, 0xbdfe94c73d635d04U, 0x3dd40eacbdd976f0U,
  0xbd5abd28bd31f636U, 0x3d241ef3bd9a12a8U, 0xbc3b10d0bda85df2U, 0xbe3b00153dc7b6e6U,
  0x3dab420ebd8b9fc3U, 0xbdc89149bd500c12U, 0x3e28f182bda9daabU, 0xbde794afbe01810eU,
  0x3d9d3dc2bce4ba43U, 0x3e003b8c3d2262a0U, 0xbe1893c43d864f3aU, 0xbe7410d73d17a2d4U,
  0x3d1e23443dbd5505U, 0x3b0044b7bba4967dU, 0x3e5902173e35c492U, 0x3e5c1e81bd99a4c0U,
  0x3df63dc0be188bb8U, 0xbd586c86bdd54a19U, 0x3d0d0087bd42e0f4U, 0x3d9d0aa93da2a160U,
  0xbd4c7d9dbd7de7aaU, 0xbcdd5428be001e7cU, 0xbe566cf8bdc58179U, 0xbbfb07a5bd9df470U,
  0xbe077d2a3e23f370U, 0xbd43502c3d84813eU, 0x3d7c7166bda0d170U, 0x3c80f44fbdf57996U,
  0x3e990530bd939e28U, 0x3dee0c7dbda950daU, 0xbd1f53d2bdd88e52U, 0x3eac92143d153054U,
  0x3e7e3303bda6f523U, 0xbb7562ab3dce5a2fU, 0x3d15b98fbd1443e2U, 0xbdcf0ac7bddd4686U,
  0xbd8d3cb0bc456e12U, 0xbe25c90bbe1c695fU, 0x3e2d9aecbe458c6fU, 0xbe2a7147bb27d740U,
  0x3da7b4f9bdc2c9c1U, 0x3d057b543d4ef93cU, 0x3e197856be190454U, 0xbe93c1f23be29b00U,
  0xbe85d4e73e66498dU, 0xbd3c925b3d37f414U, 0x3c5e7cacbe342075U, 0x3d8fa3fc3da86a6aU,
  0xbc9a78e1bdf45e66U, 0x3d6a1430beacd8e6U, 0xbe22393d3ca8ca57U, 0x3e83e0ba3e0da489U,
  0xbe8b1a46be625250U, 0x3d36dd55be883cedU, 0xbd86055f3d5c5723U, 0x3d5923703d9545eaU,
  0x3d19e33b3dca966fU, 0x3d13abd6bd85811bU, 0xbe10e2933cfab90aU, 0xbd242c70be09d953U,
  0x3e62ff9f3d6fe0f8U, 0xbd22424c3de995baU, 0xbe89a49bbd3167e4U, 0x3e562d70bc3736d0U,
  0xbda98fb5bb579c8aU, 0x39b66830bb90a1eaU, 0x3c5c39d8bca9fc3eU, 0x3bd87a453cfd2e08U,
  0x3d9ccaeb3e111ebdU, 0x3d7665c03e716873U, 0xbde2edb73e1c3283U, 0x3ee73d523df21de6U,
  0xbd4cb9c2bc0e1db0U, 0xbeb49175be139329U, 0xbd768e78bcc02281U, 0xbe0c785a3a4c14f4U,
  0x3d239d853e687295U, 0xbd66114f3e5df7dbU, 0x3bf807813d655248U, 0x3e1bdc7a3d8a1121U,
  0xbd6e22c43e0cb91fU, 0x3d8269a83db9d041U, 0x3d56f8673bf42948U, 0xbe2af4623d48877cU,
  0xbdd8f65ebcb48a4eU, 0x3e21c802bb5b15acU, 0x3db28357be2248bbU, 0x3e284163be3c2ac8U,
  0x3dc366b7bd2481d0U, 0x3e0b90b73da43f77U, 0xbd14131bbccc4475U, 0x3dad3aadbe2d70fcU,
  0x3d9cb8133e21f90fU, 0x3dc7d3babe03a24eU, 0x3e14584a3e103721U, 0xbd9572e1bd12f270U,
  0x3c280888bbff95d1U, 0x3dc9dfc33e059a29U, 0x3c50da41bce471e7U, 0x3e1538363c12eadfU,
  0xbda23353bdfdf452U, 0xbd0ede8cbdd07b74U, 0x3ddf6ec8bd8757eeU, 0x3ce3187dbc893935U,
  0xbdb691de3d822cdeU, 0x3cd76d92bdf2cb07U, 0xbcc2bb353d07cca0U, 0xbe0869f93c984f8bU,
  0xbdd77c75bc9106e8U, 0xbba90dde3d239603U, 0xbb9497b13d1e6443U, 0x3e062911bde8c066U,
  0xbe30c0b13d93ba1dU, 0xbbd043d0bbe52e96U, 0xbd8b41ad3d39a876U, 0x3dded5563d718a6dU,
  0xbe1b54f33c3a0826U, 0x3c09c1933e1f3431U, 0xbd9e8db03d11740cU, 0xbda1d661bd31141cU,
  0xbd0df68f3da01d56U, 0xbe13b2333ce68626U, 0xbdaf76773da35515U, 0xbd96e6423e11adebU,
  0xbe0bbe203dd95247U, 0xbe90960dbe7ed957U, 0xbdb71869bd120336U, 0xbed532f1bce4add4U,
  0x3d1b4371bbaefa4bU, 0x3bf6a33abdd37ac3U, 0xbd8eb8fd3dba6920U, 0x3d9342073cad78daU,
  0x3cb75fc53c369912U, 0xb82f9453bdb6c710U, 0x3c47ab673e3fd3fbU, 0xbd1013a8be085171U,
  0x3b695db3bd3a62c6U, 0xbd9ea1dbbdabd91bU, 0xbc534a063d935f41U, 0xbde2ca73bc38a398U,
  0xbcceed6c3e60a0e9U, 0xbe457f5b3e0be441U, 0xbcb11f2dbd7ce2d9U, 0xbc0c92223ce5eb18U,
  0xbc6e16a13db6843bU, 0xbdd430363dfe0829U, 0x3d9b9d373dc0e3c7U, 0xbcc727ecbdab0688U,
  0xbb95e7b33da7aa08U, 0xbdade0d53d4d53e0U, 0x3dd6cecfbd735d67U, 0xbaa922063de71ff3U,
  0x3d57a3e73d3ad2b0U, 0xbd727000bdc561feU, 0xbc23e2ff3c5bf868U, 0x3da6d12e3d1e7102U,
  0x3db42c093de4ed56U, 0x3ca9e71cbd01f06fU, 0xbda7934cbd516a6bU, 0xbd4d5ebebd2c125dU,
  0x3dc80d993d23ca03U, 0x3d6d54acbd00f71cU, 0x3d0867473d9527d8U, 0x3dca9f6fbdc249efU,
  0x3ce2e240bcd342d3U, 0x3c1373ef3dac545aU, 0x3cc9b866bd4539c2U, 0x3c1ad1cabd8bd1c6U,
  0x3ca6b23f3a7ee824U, 0x3c831623bd4bc199U, 0x3cb9bf4a3c9d93ecU, 0x3d8dac513d246d0aU,
  0x372fd910bd0f4815U, 0xbdafc239bc86c491U, 0x3daa65403c7eb2bdU, 0xbba3c26bbd9be722U,
  0x3d8fc9863dd3366eU, 0x3e6988dbbdcf7f8fU, 0xbdacb15b3d55a7ccU, 0xbd19f0993d89f851U,
  0x3d4ec344bd631bd4U, 0xbc2ad01abc8a7025U, 0xbd26313d3cc579bdU, 0xbdfb71983b11c43dU,
  0x3d821e4c3dcec491U, 0xbc95db803dc2c2b3U, 0x3d7fefd3bd8bfb6eU, 0x3ddb6f943d4666a4U,
  0x3ddaf99f3d4379c5U, 0x3cf308ed3de57d6fU, 0x3d036355be125a67U, 0xbdef1eba3deb2d54U,
  0xbc97d861bb8d4650U, 0x3e0409ea3d77c811U, 0xbd6a2419bd33d582U, 0xbdb9e034be0fba6dU,
  0x3dacfcee3d125d16U, 0x3db87800bb6aec9dU, 0x3d7ff882bd0a378dU, 0xbc8644f0bd215db3U,
  0xbd407f1fbd8563d0U, 0x3e39a6c3be140ca6U, 0x3da29711bc80deddU, 0x3e22606d3d1c97d8U,
  0x3db85eff3d8c11b7U, 0xbdebd678bc0ad4d4U, 0xbd4cc1a43dcea305U, 0x3cf9a556bcc2cd40U,
  0x3c0996443bab8158U, 0x3ded55f2bd8d7e54U, 0xbd95f600bc9bd345U, 0xbe09c1a03d15281aU,
  0xbdd889f03d9561d9U, 0xbd4d2c10bdcb58ffU, 0xbe0005bdbd78c5a6U, 0x3d87ac79bc619e41U,
  0x3c44d36f3dab5790U, 0xbce22f8d3d98369fU, 0x3d74893c3c8cabb4U, 0x3d420ee7bdbeaf10U,
  0x3de8d0773cf0a07aU, 0x3e06512fbd42af50U, 0xbdaa74e1be00bd2cU, 0x3cc098613d2dbafcU,
  0x3cb95dbabd265622U, 0x3d544547bdb6c2aaU, 0x3db612a2bce0f3f2U, 0xbd4ae2893e113fe5U,
  0x3c3eebfd3bcb2b67U, 0x3cc711d13d816d69U, 0xbdbf88613ca81230U, 0x3c19770e3d7746e9U,
  0x3cb91439bd2ad502U, 0x3e30e61dbd4f48faU, 0x3d934ad43d397936U, 0x3cb35154be11add7U,
  0xbc729694bcae1ee4U, 0xbc79658e3dec3985U, 0x3c805111bcb91ef0U, 0xbd06c84e3d06dadbU,
  0xbc00b6d9bdd760e3U, 0xbdce10493d9ea9a6U, 0x3d128765bd6f7cecU, 0x3dad64edbdd03e35U,
  0xbdb08d773d7c7934U, 0xbd80637abe290d53U, 0xbdfd51c63dc38aedU, 0x3d01d2703d3b51a4U,
  0xbd83cb0abdd43753U, 0xbda79adabe2ed904U, 0x3dd65b4abe316fbaU, 0xbd47aa393cd2e5feU,
  0xbcd9557dbc5a2178U, 0xbe360296bd76dc93U, 0xbdf455e1bd9c095aU, 0x3c0f1827bce84683U,
  0xbcc418fb3d343884U, 0xbb6f09013de6b46fU, 0x3d17dcf73a766882U, 0xbd0f92dbbcf6a829U,
  0x3d5f2cfa3b3e8d6fU, 0x389dd3ae3e00b201U, 0xbc62c9cbbd0f4e02U, 0xbde064e43d2f95b2U,
  0x3d798261bdf1cd71U, 0xbd2b63303a935a31U, 0xbdfdfa813d7856f5U, 0xbd53103cba85cd68U,
  0x3d8938403dbde7d3U, 0xbd840eb2be14e9f6U, 0xbb101efabc92dba4U, 0x3de476da3dba8d0cU,
  0xbd9ff7713d3471d4U, 0xbd40fb6ebdd97956U, 0x3ce28e6b3e3de458U, 0xbd6724fb3d77b77fU,
  0x3df979d2be0ec989U, 0xbc1e3d69bc9e3888U, 0x3b88e2423da2814cU, 0xbd768969bd386443U,
  0xbd5f63a1bd9cddbbU, 0x3c90d336bd3141acU, 0xbe0dded13d8920c3U, 0x3d06fb8b3d3be4b4U,
  0x3bcd901c3ddec028U, 0x3d8ae5dc3ce6f0ffU, 0x3da460943c44d9e5U, 0xbc4d43aa3dc8df15U,
  0xbd05e0fb3e16be93U, 0xbe25b3d33d0b7cd8U, 0x3d7c774d3db300b0U, 0xbde7b059bd4bf17dU,
  0x3d01cb123d9d5f57U, 0x3e355ee43c981d1bU, 0x3e08fa9c3d484690U, 0x3d11f6c33e198ae9U,
  0xbd41d981bb85629aU, 0xbc7f7e8cbdf92e83U, 0xbc3dd4563d31ce8cU, 0x3dd4d9aebca29905U,
  0xbcd95aecbdd63d90U, 0x3dea0467be1c425aU, 0x3c25b8d8bae0e3afU, 0xbdf6552a3d4d99d1U,
  0xbdbac4ad3d713a4aU, 0xbcb649dcbd5f6cf8U, 0xbd9c9a25be21f7faU, 0x3dd8bdd9bb1026dfU,
  0x3d14d8313c3313fbU, 0xbe40ebaebdcf64e2U, 0x3da3f6f73cc251acU, 0x3dc76eb23d6eb877U,
  0xbb832bf83da2b9abU, 0xbe1a2402bce7ea3fU, 0x3d1571e1bd6becd5U, 0x3da1cab9bcd1e8c3U,
  0x3def46e6bd8a7640U, 0x3e3b48dfbd5f7df2U, 0x3d50f1a93b8ce6e6U, 0x3dfc906b3e1de7f6U,
  0x3db482acbd2dd889U, 0x3ba82aafbe043705U, 0x3cf0e5d3ba027ec0U, 0xbcdf6e6cbcdbbe0cU,
  0x3b63754bbd97137cU, 0xbc85dd92bd5b6688U, 0xbd0b27463d8c9d70U, 0xbe8476e7bc1bd36cU,
  0x3e0a54b13b71887cU, 0x3d7dd3183c2690ccU, 0x3a7abe3bbda66ff8U, 0x3cb4892bbd7fcc10U,
  0xbd53f1eabccce5abU, 0x3daa325c3dd30dedU, 0x3d9a4486bbcea304U, 0xbec44bb0bd82c50bU,
  0xbc4743e2bde5f4a3U, 0x3cffc7043d5a2e7aU, 0xbad536dbbd1653e0U, 0xbd58372cbe019416U,
  0xbca235fd3e0b6cb2U, 0x3dae3f82bd1ad8aaU, 0x3c712463bd8578adU, 0xbd87c79bbdd93c34U,
  0xbc2d1bc5be29a9dcU, 0x3cc66afc3df061a0U, 0x3bdf05693c1f1021U, 0x3dd6ed0e3dc3671cU,
  0xbd57328c3db6ba8eU, 0x3c77719ebcfb7ed0U, 0xbd7fba68bdab36cbU, 0xbb724246bdba697bU,
  0xbdb59b523d95a3d9U, 0xbc288e87bbe9bfc2U, 0x3dabfdd6bcd5f9f4U, 0x3c5b0bf33d9dabefU,
  0xbde7a611bd16b615U, 0x3d38f3f2bde78691U, 0x3c19a844bd88efeaU, 0x3e2e7cbc3d5fccaeU,
  0xbd10627f3dc5083dU, 0xbe58109c3d996034U, 0xbd26896bbce7d56bU, 0xbc968dc33d3ba24cU,
  0x3e28539f3d3192b9U, 0xbe86850b3d8a9b46U, 0xbd92b244bb3a7425U, 0x3db913cebd5648beU,
  0xbd24e4813d56f103U, 0xbc83006f3de83f1dU, 0x3de99cd93dce5bc4U, 0xbdf283573c9dcc60U,
  0x3d5c8f843d501ebbU, 0xbd5392c73c7eba3eU, 0xbcbeaeb63bbdc82aU, 0x3db45f42bc08da7bU,
  0x3d80aadc3d1dfea9U, 0xbd1e5151bd81b126U, 0x3d45ed61bd3ec441U, 0x3d2d1f3dbdea5cdfU,
  0x3d60984cbd81b7f8U, 0xbda316483e4c8e80U, 0x3ce22885bd34201dU, 0xbddb8f2f3d88fb5dU,
  0xbd88e9c2bdf53934U, 0x3e3d3b4bbdf6297eU, 0xbd97269cbe1008a2U, 0x3b344e2abb448193U,
  0xbd5b72903cd56375U, 0xbdddaf1ebc627c61U, 0xbd90b7dabca8e057U, 0x3e0876ad3cf55d14U,
  0x3c901f763c8ae83eU, 0xbd8b63bfbe0cc308U, 0xbbfe0449bc195bd7U, 0x3dcd7ddabc004eadU,
  0x3d4252943c87ab36U, 0x3e03e0963c67635cU, 0xbe04e7363d8037fbU, 0x3ccab0e5bda104f2U,
  0x3ca3ed6bbc8c5032U, 0xbd77f109bd55de4cU, 0x3cee45b33dc5deaeU, 0x3d25b017bd3a84faU,
  0x3e0ade343e047261U, 0xbce0debe3e0b996aU, 0xbe2c5a7f3d6eacdbU, 0x3be56bbb3dca5657U,
  0xbdfbbc07bcd320fcU, 0x3c39fd37bdb3bbb4U, 0x3d6500aebbed84b0U, 0xbe0fa1c7be53602bU,
  0xbd7114443bdfbe6bU, 0xbd0ec5913cba3112U, 0xbd20d7c9bd2dfca3U, 0x3e1828683cc60c2aU,
  0xbd9c4de1bd255250U, 0x3e4d449b3c034037U, 0x3d202ea53b843613U, 0x3ce1df08bd9d95b3U,
  0x3d415705bde023edU, 0x3a96b88f3da4ea0dU, 0xbe440d993c96e447U, 0xbda42552bd8b77e4U,
  0xbd992d00bd3dce76U, 0xbce1ff553e10f662U, 0xbd7a4ea43caa4e57U, 0x3e3eeb483dbe9bafU,
  0x3df2566f3e0d4467U, 0xbd1f4795bd22fc14U, 0xbba9b73dbd2eaf39U, 0x3dcd4fbd3bf44ccdU,
  0xbdcda96d3daa98c6U, 0x3d288a0b3e981f05U, 0xbe4d96833e3bbf60U, 0x3deb05743d75b703U,
  0xbe2c0f053cb07f7cU, 0x3cbca8c73db4c82eU, 0xbe36a5033ddc4313U, 0x3b5ec781bbb01017U,
  0xbc5f6739bd2ad3aeU, 0x3d6b188cbd92aed9U, 0x3bd457debc8763caU, 0x3cb28312bdc11c9bU,
  0xbd89cd633de2e93aU, 0x3dad5f223da92c7eU, 0xbd3af96c3bc24d2aU, 0x3900143f3b5e1734U,
  0xbe0a239c3e438e0eU, 0x3d4cdf2d3d86ab1dU, 0xbd75a88c3e0a0f0fU, 0x3c3fa2d83c99b9d3U,
  0x3e1f4cd83d42ab5eU, 0x3d9893023db8c8d7U, 0x3c5b500d3bd8b247U, 0x3e373986bd1df599U,
  0xbdb6e0063d705223U, 0x3cd346723abdbaebU, 0xbc5602e93d340452U, 0x3cba46673dc09231U,
  0xbd03f92fbc956dccU, 0xbc93bbcfbc6ef098U, 0xbe0a70763d7e6d43U, 0x3e68d5ab3d8645fbU,
  0xbcc07067bdfad761U, 0x3d494b803db18161U, 0xbd0bbb7b3d21c1f6U, 0xbde736453e194e2eU,
  0x3dab7a953ca1281dU, 0x3afb7c833c492342U, 0x3cb4cea83e021f0aU, 0xbd3c2402bd5d092fU,
  0x3e5a9307bddf6f1eU, 0xbd094f67be7b4bcaU, 0xbcda771cbca1ba9eU, 0xbcfd58503e0e55ccU,
  0x3d140bb43db99bb5U, 0x3b929ea53e0f2b27U, 0xbd4635d63e44fb5dU, 0xbda155d0bd7ee5e3U,
  0xbe022c2e3d2b8d29U, 0x3d52a25fbd86f3f2U, 0xbd9bc831bda2b0a6U, 0xbe4721de3da511dbU,
  0xb9f44a72bd87045eU, 0xbcb3991b3d2d0128U, 0x3adf4495bd6184e5U, 0xbe66fb103d115cb1U,
  0x3d993da83dabbcdbU, 0xbe1facd83d3b0e1dU, 0xbd0ed588bab471b5U, 0xbe08c27f3dcc74ffU,
  0xbdab81d73df2e8faU, 0xbd6710bebe1c3edcU, 0x3e1aed1ebda4f978U, 0xbdef8fa8be11e8d0U,
  0x3d43d64ebe1626bcU, 0xbdd06af73db3bf45U, 0xbd468e03bc9a9d54U, 0x3d8aabeebe33a83fU,
  0x3ceccd46bc01d783U, 0x3d6765d33d999e44U, 0xbe0c73c73e7372a3U, 0xbe8526243b87947dU,
  0x3db0c459bd4e5b2aU, 0xbe552f653db6f761U, 0xbdd685f13a27c322U, 0x3dd1f388be1172d6U,
  0xbd0176f2bd73aed5U, 0xbd08eb573e00661bU, 0xbdea5006bba37964U, 0x3e8a0b703db2161dU,
  0x3db7adabbd10bfa8U, 0xbe5621e33daba3c7U, 0xbdc31342be0ec17dU, 0x3d1864fcbca8d7a3U,
  0x3dba080a3cbcfcebU, 0x3e24c8753e676ca0U, 0xbd94522f3e0a663aU, 0x3e4816f1bcef5f6eU,
  0xbd1faa903c65d3a4U, 0x3d45c302bde21119U, 0xbe2ef2a0bdcff8a7U, 0xbdb2f2a6bdd30238U,
  0xbe30c11dbe5d45bfU, 0xbddb3dc5be424c5fU, 0xbd946887be4f2944U, 0xbdb4dcf3be33a6a5U,
  0xbc4731473d490100U, 0xbdd519c53da222f4U, 0xbe2264e3bdca4341U, 0xbd7a9985be00ba7cU,
  0x3dc84ce9be33fc37U, 0xbd6b8fe43e029411U, 0x3db5a36b3c72c8b5U, 0x3dfcc851bd060eb7U,
  0x3dc3166ebd0db70bU, 0xbd715e243d9407aeU, 0xbe387aadbe0e3dd9U, 0x3d18ce38bdee1bd7U,
  0x3d6751e0be2bcfffU, 0x3d0ad72d3e055f15U, 0xbdbdb105bc20f26fU, 0x3e4c947abcce0578U,
  0xbdc189ac3d08f081U, 0xbdf7b1ebbe1adf4bU, 0xbe22a9c4bcda059bU, 0xbb8d2232bd44fa22U,
  0xbe080183bcba7540U, 0xbdc40b6ebd904c97U, 0x3d40ca79bdb021d5U, 0xbd6666c5bd4526a3U,
  0x3cf24031bdfcce6cU, 0xbe12aba83dc36b71U, 0xbdc1fabcbe04f65aU, 0x3ce47aebbe0ad6abU,
  0xbd397bb3be581ac6U, 0x3db0044e3ad84730U, 0x3d728ef6bd35b203U, 0xbdaa11eebda85149U,
  0xbda91b3fbcce8384U, 0xbd0a2c983d24455eU, 0xbe029461be0c963fU, 0x3d3c28ccbc566624U,
  0x3a6f10c9bd8ea02cU, 0xbd108976bd0ac5e6U, 0x3db572c5bd09dcd4U, 0xbe3983fcbe136acdU,
  0xbcd17e0e3dbb66c2U, 0x3c5fa540bddecfa6U, 0xbdcd2e9fbd01d346U, 0xbd603eea3d91ba9eU,
  0xbdc5dfb6bcf35fafU, 0x3daa4b09bdbd7e3dU, 0xbd8e59cebd61768cU, 0x3dd9547fbd8c6e4fU,
