/**
  ******************************************************************************
  * @file    network_data_params.c
  * @author  AST Embedded Analytics Research Platform
  * @date    Tue Oct  8 01:27:29 2024
  * @brief   AI Tool Automatic Code Generator for Embedded NN computing
  ******************************************************************************
  * Copyright (c) 2024 STMicroelectronics.
  * All rights reserved.
  *
  * This software is licensed under terms that can be found in the LICENSE file
  * in the root directory of this software component.
  * If no LICENSE file comes with this software, it is provided AS-IS.
  ******************************************************************************
  */

#include "network_data_params.h"


/**  Activations Section  ****************************************************/
ai_handle g_network_activations_table[1 + 2] = {
  AI_HANDLE_PTR(AI_MAGIC_MARKER),
  AI_HANDLE_PTR(NULL),
  AI_HANDLE_PTR(AI_MAGIC_MARKER),
};




/**  Weights Section  ********************************************************/
AI_ALIGNED(32)
const ai_u64 s_network_weights_array_u64[121265] = {
  0xbe1a73f1be1b906fU, 0xbe1886f2be193375U, 0xbe1571ffbe16b27bU, 0xbe12f105be143182U,
  0xbe10700cbe11b089U, 0xbe0def13be0f2f8fU, 0xbe0b6e19be0cae96U, 0xbe08ed20be0a2d9dU,
  0xbe062bffbe07c4f3U, 0xbe03eb2ebe052baaU, 0xbe016f00be02aab1U, 0xbdfd8de9be0029b8U,
  0xbdf89a14bdfb517dU, 0xbdf3e204bdf55e31U, 0xbdee715bbdf255dbU, 0xbdeafabbbdec4ba5U,
  0xbde3e547bde749b2U, 0xbddfd2f7bde25092U, 0xbddb78afbddd45cdU, 0xbdd51e0cbdd8e3d6U,
  0xbdd1d8afbdd301cbU, 0xbdcac932bdcdcc6fU, 0xbdc79f31bdc96b81U, 0xbdc172f4bdc437abU,
  0xbdbcbd4dbdbf417bU, 0xbdb7ececbdba6310U, 0xbdb21891bdb51ab6U, 0xbdad31bbbdaf7d10U,
  0xbda8417cbdaae3c8U, 0xbda3b95abda61494U, 0xbd9e535dbda07133U, 0xbd99cd13bd9c00c7U,
  0xbd948c5bbd97c56fU, 0xbd8f6d0bbd921a22U, 0xbd8af80fbd8d493aU, 0xbd858576bd885317U,
  0xbd80220fbd82a682U, 0xbd76ee11bd7b9d83U, 0xbd6cd81dbd71c6cbU, 0xbd623497bd673498U,
  0xbd5965cebd5d953bU, 0xbd4f18a3bd5410caU, 0xbd444cc0bd49cf1dU, 0xbd39fbd6bd3eebdeU,
  0xbd305a4cbd3559acU, 0xbd2698e8bd2b5b3bU, 0xbd1ca34bbd21c1deU, 0xbd125945bd178955U,
  0xbd082944bd0cfac0U, 0xbcfd0da4bd036c6fU, 0xbce906a7bcf2f169U, 0xbcd52463bcdf2e94U,
  0xbcc00190bccafba1U, 0xbca997f7bcb503f5U, 0xbc97f9d6bca0b43cU, 0xbc852c03bc8ec329U,
  0xbc623843bc768c11U, 0xbc3b4bfbbc4ee7b1U, 0xbc13861dbc27770bU, 0xbbd6f7b4bbfef99fU,
  0xbb86ffeabbaecd4aU, 0xbadb7566bb3dd828U, 0x3a4a0b0bb9e6b3a2U, 0x3b507b763b012e27U,
  0x3bb5d48e3b8f6e2fU, 0x3bfd7eee3bda9f42U, 0x3c29b3c63c147fc0U, 0x3c4ff75a3c3d50bfU,
  0x3c77b2323c618dd2U, 0x3c913d133c86bceeU, 0x3ca5b4a53c9bb430U, 0x3cb97e003caf9a91U,
  0x3ccdad573cc3930fU, 0x3ce1bd8d3cd7ad75U, 0x3cf662d93cebcd62U, 0x3d0569623d004ffbU,
  0x3d0f0c773d0a5337U, 0x3d18fda03d13ebfcU, 0x3d22d4af3d1e124aU, 0x3d2d19863d27d281U,
  0x3d36ec323d3222f7U, 0x3d41662c3d3bd63dU, 0x3d4ae16d3d469653U, 0x3d54df203d4f915aU,
  0x3d5f3d3d3d5a2789U, 0x3d68ed3e3d641a4eU, 0x3d734fea3d6e4fd4U, 0x3d7daa7d3d792e87U,
  0x3d83ae853d813a7dU, 0x3d87e3433d85ea4dU, 0x3d8dcff03d8a7462U, 0x3d92405f3d905662U,
  0x3d981d523d956d17U, 0x3d9dd5c73d9affcfU, 0x3da22e723d9ff1b3U, 0x3da663da3da491acU,
  0x3daba87a3da895d8U, 0x3db07f8d3dae23cdU, 0x3db5c2203db381f3U, 0x3dba597a3db7be2fU,
  0x3dc019033dbd2db1U, 0x3dc4b5b73dc216caU, 0x3dc968fa3dc7468bU, 0x3dcf3c8c3dcd1927U,
  0x3dd36a3a3dd1f310U, 0x3dd940c63dd5bdc3U, 0x3dde01083ddb6b91U, 0x3de245373ddfbba5U,
  0x3de878c03de47ec8U, 0x3dec631b3deaa9b5U, 0x3df191463dee69ecU, 0x3df6f0503df46f57U,
  0x3dfc7dec3df9785eU, 0x3e00dea93dffac30U, 0x3e033e463e0224d2U, 0x3e0586ca3e04b30bU,
  0x3e0817dc3e06cc1cU, 0x3e0a7e003e093d83U, 0x3e0d148c3e0bbe7dU, 0x3e0f7ff33e0e3f76U,
  0x3e1226083e10c06fU, 0x3e14466d3e12c85eU, 0x3e1702de3e158f32U, 0x3e1983d83e18435bU,
  0x3e1c04d13e1ac454U, 0x3e1e85ca3e1d454eU, 0x3e2106c43e1fc647U, 0x3e2387bd3e224740U,
  0x73836f7275838271U, 0x726e81797277806dU, 0x7b6c7a7d8383807eU, 0x7d7d7c7773797d79U,
  0x76826c7a817e727cU, 0x767c7080836e8173U, 0x82717d80727a787dU, 0x707e6f6d8070727aU,
  0x80727a796f7b806fU, 0x7572827c73706c77U, 0x6d716e767c73837cU, 0x837d7d776d7e6e7eU,
  0x82776c746f787d7bU, 0x7083827c7178817dU, 0x70836f766c806c6fU, 0x8170777579707272U,
  0x716d7f748282787bU, 0x7c7073727b79707dU, 0x756c6d7079797475U, 0x7a77727e726f7874U,
  0x6f727a7679756d81U, 0x6e7a757b7782757cU, 0x7270747e7c788183U, 0x7481816c7b796f7fU,
  0x73807c768176836eU, 0x7e807c6e7b7d6c76U, 0x797e7b756d797279U, 0x727e7a797a72756cU,
  0x79847184797a7d7cU, 0x747375817e7c6f74U, 0x7b72817c84837180U, 0x70827d8283817d7dU,
  0x776f807a757e777bU, 0x787f837e717d8278U, 0x70807a7e766d7b82U, 0x7d6f6d8481728282U,
  0x717081776e827f73U, 0x818271746d7b7670U, 0x816e767d8075777dU, 0x747081757273737eU,
  0x837972736e786f79U, 0x7d74756c7083777fU, 0x706d827871717775U, 0x6d706d7d707e7f72U,
  0x807870817f777c6fU, 0x7279747d736f7473U, 0x6c6c7b777a717478U, 0x70727e7979797671U,
  0x7373747373768171U, 0x717a797270797b73U, 0x746c79767a727471U, 0x7b6b737e7f707773U,
  0x747a7e6f747a776eU, 0x806f75736c78716fU, 0x7470787e6c7b7c7aU, 0x727b6d7b74767b70U,
  0x7d6f736e806e837aU, 0x7d79706f70786b6cU, 0x7c7581716e796d77U, 0x70766f7872737a6dU,
  0x77726e7b8077806eU, 0x6e817e777d7d7373U, 0x7f7c707573777f7cU, 0x6e6d75826c767281U,
  0x75787f7a777c7977U, 0x7883777e6e7e776eU, 0x77717377767c7071U, 0x707a747583787e6fU,
  0x7d74777e7781797bU, 0x75728278777f7977U, 0x706e708372717075U, 0x787278786f70706fU,
  0x7682737e7f718277U, 0x80747d7876797b6fU, 0x83708274786d7f6fU, 0x75797070707b7975U,
  0x7a6e817e79818272U, 0x7771798373747b70U, 0x847682766f768273U, 0x758171836e718172U,
  0x7b82806f796b6e79U, 0x767f7584836f7c6dU, 0x7f807b727c828074U, 0x8375806c77827b77U,
  0x7e7a778377746e7aU, 0x7d70807a7d6c797cU, 0x6c6f777a7c847581U, 0x796e826d837b816eU,
  0x7a766e767e776f80U, 0x82747e82817d6d7aU, 0x7c716f6b7a7e6c82U, 0x786d7d6f7f767a7fU,
  0x76827c7e7982807eU, 0x7b737f81747d7f7bU, 0x737a7a7d7a7d7178U, 0x827f777973757879U,
  0x7d7e8170827e6f79U, 0x7f76837a70796e71U, 0x7c7c7470787b707cU, 0x6d816d7575727283U,
  0x726c7673847d7f79U, 0x7f82787871827378U, 0x836e7d84806f7177U, 0x6e7b817480706f73U,
  0x74727c737577817dU, 0x826f7471767b7d7dU, 0x7d827c76727f7c77U, 0x767380756f707e6fU,
  0x707c8284767c7278U, 0x6f836d7a7583727bU, 0x7d6d6e7b7770847eU, 0x7681797f7b827a73U,
  0x7d797a80796f7776U, 0x787371726f736c7bU, 0x7e836d76787d6d81U, 0x7f7574727f717670U,
  0x7783836f7f7e7a7dU, 0x817b74817580757bU, 0x797a7e836b7d7e7dU, 0x7c83757e787e7480U,
  0x716f7075716d7779U, 0x736b7a766c796f6dU, 0x74767f7d7f70817dU, 0x6c7a82737d817d6cU,
  0x7b77806d707b7173U, 0x7e6e796c78757f6fU, 0x6e70767e7a707476U, 0x7474757e6e798173U,
  0x70777a8178737176U, 0x82817c7274787d73U, 0x73786c806e7a7473U, 0x827c7b6e806d6e6bU,
  0x6e7774817c6d767eU, 0x6e6c727a6d787379U, 0x7b7982786d7a707fU, 0x6f786f7b7b7c7371U,
  0x7a77707e6c7d757bU, 0x836d757c836c6e6eU, 0x6e807777817d787aU, 0x76818281786f7972U,
  0x6e838174836e797dU, 0x7876817d7874716dU, 0x6d78797182787184U, 0x797a786e7b6e8371U,
  0x747d7e7a73806c84U, 0x7b7e6d777078746fU, 0x7e6d7b807c797984U, 0x82737270757e8081U,
  0x816c776e7e727770U, 0x7b6f7980807e7180U, 0x816d7f756f7b7278U, 0x757d7f73717f767eU,
  0x6e7a726e727c8383U, 0x707b7c7f7f75756eU, 0x7b757b77727e7775U, 0x757c6e6f7a79717eU,
  0x6b7c7670727d707fU, 0x7a7f6c767f6d7e7fU, 0x7080707a7b7a8479U, 0x7f7f7f7070817071U,
  0x778282746c757482U, 0x7c71736c77758181U, 0x73796c7b777e787fU, 0x726e707f70706e6dU,
  0x6e7f7a7a757b7171U, 0x7174716f707f6d7bU, 0x7c747480816c7d73U, 0x80707d6f737c816bU,
  0x6b73817573707771U, 0x7b6d6f7b7f707377U, 0x6b7573716e6c7379U, 0x806f746c7e7f7c81U,
  0x717f77756f787c79U, 0x7b82736e73787f82U, 0x7a78806e7b777f72U, 0x7e726f7e7880837dU,
  0x727b7f7d6c7e6e7aU, 0x7b72757a837c8173U, 0x827c757b7a7e726fU, 0x84786f817b6f7d6eU,
  0x81846f6d77736f77U, 0x736e7d6d71777f6dU, 0x73767a7a8370767bU, 0x726f73847e6c7183U,
  0x707e7c6c7a747c72U, 0x777c837c76707371U, 0x7c7275726e727183U, 0x796e7f82737f777cU,
  0x7b807a7174776d80U, 0x6d7b75716d827a74U, 0x817078817b7b7370U, 0x81737d79706c8174U,
  0x767a7a796e7a746dU, 0x746d76736e7c747dU, 0x72797e74756f7483U, 0x78807b7e73707576U,
  0x6c787e707f706e72U, 0x6c75817e81777071U, 0x6f7c6f7f77827773U, 0x76787d6e7a757374U,
  0x7a6f767f777d706fU, 0x7c767a7b7c707181U, 0x73837a727676807eU, 0x746e7c7c6c7c6f78U,
  0x6d6f7f787b74767fU, 0x787f7e748374757fU, 0x7d81726c7e80756cU, 0x766e8271747f767aU,
  0x77767b796e776b6eU, 0x7e74707b6b716b77U, 0x7a71797a747c7e70U, 0x74756c7b8374797aU,
  0x737a837b7a6b7570U, 0x7879816d6e77766dU, 0x7b80747a7779757eU, 0x7077817d727a787eU,
  0x776c7d7583798083U, 0x6e6d6f78757d7a76U, 0x7e826d7984727b84U, 0x6e78727c73747576U,
  0x81746d7c72827581U, 0x7f6d76847a827583U, 0x747f816f767f7c70U, 0x6d71807e6e707877U,
  0x826e7f767b766f6fU, 0x7c7e7f7e6f6e7981U, 0x6f747f83817e8378U, 0x827c777d76767776U,
  0x75807e82727d7a7aU, 0x78766c767f786f76U, 0x81766c737873786cU, 0x796e76726d777283U,
  0x797e7f757f7e6e70U, 0x757679717d797f6fU, 0x757b797a79737f73U, 0x72746f6e737f6f76U,
  0x736e82817d716c7bU, 0x786c787f7e7f7271U, 0x7e80807382827479U, 0x767b6f7c716d807aU,
  0x7f7773787183816eU, 0x7674706f8373827aU, 0x7381766f827d7182U, 0x7f847183847c7d73U,
  0x7f7c82706d707578U, 0x757f7a7181797074U, 0x6e6c746f77798170U, 0x7673736f77818181U,
  0x706f7e6a75817e6dU, 0x717a82717b757372U, 0x7e8274746d807a75U, 0x6d7a787e736c6c71U,
  0x6e76726e6c838375U, 0x717a77827f758373U, 0x7a7b7a6c6f6f737fU, 0x746e75737e797e78U,
  0x778379747b817874U, 0x737c7a6f7a777d75U, 0x7579817980797e82U, 0x6e71757f7c7b826eU,
  0x7d6e777e7f838171U, 0x757c7c716d7e7b6eU, 0x83788379817b7b6dU, 0x7d7d7c75847f8471U,
  0x7b7e7479787c787cU, 0x7a81768376748277U, 0x7b7b727f82847d6dU, 0x7b7e7c7a72837c7eU,
  0x7a736d81706e796fU, 0x767c81827f787080U, 0x716e737d7877787eU, 0x7373747c7b6d757fU,
  0x766e706b6b837771U, 0x76737e6e79807981U, 0x7b7c7f7b83777c79U, 0x7b6e846f82746e7aU,
  0x6f847f7c74767d74U, 0x7b8371827c76747aU, 0x75826f8477708083U, 0x786f787f7e717682U,
  0x7e737374816e6e6eU, 0x787e73737b7b6f7eU, 0x787e7a756f7c7b76U, 0x808275777a7d717fU,
  0x6f71837673818484U, 0x716c6c736e706e7dU, 0x75726c747c79776fU, 0x767c6d71727a7270U,
  0x7a816c7a706c7a82U, 0x8279756c77707680U, 0x826e74716b79777cU, 0x6b6e747e82737e74U,
  0x73837b82756c6e70U, 0x7984797176827082U, 0x7d72737a7e7f847dU, 0x8483776e82777975U,
  0x776f7e716f717679U, 0x7c7e7a6e7977737aU, 0x726c81737a80807cU, 0x7a846d726f807081U,
  0x817473737f797f74U, 0x6f7375737a6f7a73U, 0x7a6c7f7977737575U, 0x73847d746f6d7079U,
  0x7c7b77796f807c72U, 0x7080807983837d81U, 0x74777b81786e7674U, 0x837d7c7a75717882U,
  0x707a797f747d7670U, 0x71757a7f7e808274U, 0x797b6d7a7b6e7672U, 0x747d847979738273U,
  0x76737c78817c7d7cU, 0x7b72767277738478U, 0x817279847c778175U, 0x8073857585787575U,
  0x7f707572787a7571U, 0x81777e7e746f7b7aU, 0x727f767e727c726dU, 0x6d776f7d79707276U,
  0x837172717279847dU, 0x7b84766f7c72717bU, 0x7172837885768571U, 0x83787f707c82826fU,
  0x7f727c7a796f807fU, 0x7c7c78787d797f6cU, 0x787e7c786f78716cU, 0x707e7e7b707c7e82U,
  0x756f73727e7a8180U, 0x81706c7e756e6e81U, 0x797a78717c6d7d79U, 0x726e74837a797b6eU,
  0x787d6e8373767f76U, 0x70788382767a806dU, 0x7e7f787f6e737b6eU, 0x7f70736e7b787b71U,
  0x837c757377827f78U, 0x6f7a787a756f6d6dU, 0x737170798371807aU, 0x816d7b6e75817c7cU,
  0x747b756f81716d80U, 0x7a8483817377766eU, 0x7a747a75736d777fU, 0x7a82756c6f797171U,
  0x707e836e816e6d79U, 0x787c767f70717878U, 0x7f6d74758075717cU, 0x816e708276817271U,
  0x83837676727e847aU, 0x7b8178768282747cU, 0x7079757285786f74U, 0x80767376826f8172U,
  0x7d6d79827984757dU, 0x7177748371758381U, 0x6d6d757d82808274U, 0x6f7d7b757872727dU,
  0x8480827676847283U, 0x7370797e75716e7cU, 0x7e81806e767e7b83U, 0x77826f7e6f7a7f6eU,
  0x7e7c7b746f6f777aU, 0x6f7a7f857782836fU, 0x7f8279797f788575U, 0x7b757575726f7c7cU,
  0x808081777d796b79U, 0x707d7b786e727772U, 0x74806e7f6c747f7bU, 0x7f776e77746b6f81U,
  0x806f6f817a716e79U, 0x826f716e787c787eU, 0x82707a82837b8176U, 0x70837b807b707a76U,
  0x80807d77706f6e6eU, 0x7673777c6b78807fU, 0x7d826c7182797b6dU, 0x7b6e6e736d7a7c7bU,
  0x707c727981767f6eU, 0x807c7b756e7e796eU, 0x838079737e837779U, 0x78837e8183777f83U,
  0x737a6e7e827f6f71U, 0x6c706e6c77737c6eU, 0x826e82787381737fU, 0x83727d758178826bU,
  0x75757c70756c767eU, 0x7b786e6e787b796eU, 0x80756f7d807e7d71U, 0x7e6e788470827574U,
  0x8084847571728470U, 0x75827e7b82818175U, 0x8279737b7577777dU, 0x6f767f8183777375U,
  0x807d7e7c826e787aU, 0x7277818482736e7dU, 0x72837c7384837278U, 0x6f786f70767a827fU,
  0x837981837f786e76U, 0x806e6e7982708381U, 0x7d6e8283737d836eU, 0x857f7c758078777aU,
  0x7d74827f797e7c79U, 0x786d74816b73737fU, 0x78707c706d7c7378U, 0x72786f73766d6d7eU,
  0x79767d7c78737f74U, 0x6e7b6f7170757676U, 0x6e77737482727c7dU, 0x777a708070788475U,
  0x767c74717780797fU, 0x6e82747273797977U, 0x71766c7b6e83727eU, 0x7e827c716e797b82U,
  0x738483726e6c7c80U, 0x7382787a7e798176U, 0x736e7084836e7f7dU, 0x74707b79787d6e6fU,
  0x6e6f837681777a7bU, 0x7d7c7a7c6d7e7371U, 0x807e79817b7e7c7cU, 0x7e7c6f7b786d777cU,
  0x82757e787b787276U, 0x7d7f718377817b7cU, 0x7d817e85856e6e79U, 0x7873747f827e847dU,
  0x7d7a7f7d8073757fU, 0x7a7873767b727a84U, 0x7f6e80847a767179U, 0x746f73738384847eU,
  0x7f777b6f7f847375U, 0x787a6e7b757c8374U, 0x6d787772826d7a80U, 0x7470716e84807c78U,
  0x6d7f7b796e7c7c7fU, 0x76777b8277737e7dU, 0x726f6f7b6f807b73U, 0x767c7c717e727283U,
  0x7773717f8184747cU, 0x7d737270746d6d74U, 0x7774858282838073U, 0x7778737d71787b7cU,
  0x817d7f6a6b776e6bU, 0x7481837f6d828276U, 0x76707c78797c7d73U, 0x7f73848478818173U,
  0x716d75787f737e81U, 0x787779757f73826eU, 0x706d7b75807d7574U, 0x7578717882806f75U,
  0x7675797b717f827eU, 0x7071798182777a80U, 0x7a716f7d807e717fU, 0x767d7c77797d7773U,
  0x797f7c747d807d7cU, 0x787d7d6f806f8281U, 0x727c7b70737e747fU, 0x6f6c71806d747b6fU,
  0x726d7a7f787c6f78U, 0x7d8174796d747378U, 0x747c6f7c827d716fU, 0x7c7b7a7f767b7780U,
  0x7a7784808474706fU, 0x6d83707c7b7b7a80U, 0x6d727a71807a6d79U, 0x7878797d74786d70U,
  0x6e7c717d7682716eU, 0x6e826d7d7a847283U, 0x7d7d7f8082817c81U, 0x82787f768277787fU,
  0x7e7c847f816d6f82U, 0x7a807382827f7081U, 0x817a7f6e81707c83U, 0x6d756c827e748374U,
  0x83747581746e6d7dU, 0x6e80766f7280747cU, 0x827e73788082797eU, 0x7c6f788273717c7aU,
  0x7b8182747e827270U, 0x7a6f7b7b7f787c73U, 0x6f7876807c7c707cU, 0x757270727e7f7171U,
  0x7378838380727a76U, 0x7f817c7971757a6eU, 0x7c7378807b707271U, 0x6c747370747f797bU,
  0x7c7c6c7a81827575U, 0x7279816d70818271U, 0x6e837a7b74806d74U, 0x7e718176826f8380U,
  0x7473716f75727079U, 0x7a6d817f73837b75U, 0x75827d7472757378U, 0x847c806d73767b79U,
  0x74757d7f7f6d6f82U, 0x707a826e7c767d83U, 0x7b72737a7d7a796dU, 0x71716d7f7e727b82U,
  0x747a847277837473U, 0x8184837979747e76U, 0x727f7470727b8075U, 0x827d8181757f777fU,
  0x6e717c6f76726f76U, 0x807e72817d7e7975U, 0x7482728373807a7eU, 0x787a737971747776U,
  0x7880787f6f757f73U, 0x837c816d6f82757cU, 0x7e717f726f7e6e75U, 0x7e83786f737b6c6cU,
  0x7b707b80787a6e80U, 0x75757b827b746e70U, 0x807b756d7e75706dU, 0x717072817a6e7d80U,
  0x82757c817e718073U, 0x71836e847672797bU, 0x7775837379797770U, 0x707177708285717fU,
  0x6f717e7d6e797d7cU, 0x6c7c6d7876837480U, 0x7f77847e7f836c76U, 0x717d7b737473737dU,
  0x78707d7876717c73U, 0x7b737f77826f7678U, 0x7a7c796e7774797bU, 0x6e6f7c6e70716e83U,
  0x756c7d808472826fU, 0x747f827576826e7eU, 0x7073758270717e7aU, 0x7878736c7983817aU,
  0x7d7a748480717484U, 0x8172717b847b6d82U, 0x74737c797e766d72U, 0x72746b786e7c7b75U,
  0x7b7c72806d777472U, 0x71858082737a8181U, 0x7b82767b807d7b79U, 0x826e756f73776e7aU,
  0x7f7683727d80806fU, 0x76716e71717a6d71U, 0x736d7e6f7a7a836dU, 0x7a80737a72837476U,
  0x7b757482727e8076U, 0x737b7b7e7c7b827fU, 0x7c767b6e7f6f757bU, 0x737a77837f7f817dU,
  0x7e83717783717383U, 0x6c776f7f74717d73U, 0x7a817e81827d8075U, 0x6d7076727d7e6e6fU,
  0x6e82787c6d826c74U, 0x7c79746e7d7c726eU, 0x717d777171796e6dU, 0x7a7f6d746c847279U,
  0x76867c6f7d7c836fU, 0x77726d7a747b7e74U, 0x747878727b816b7cU, 0x6e766d7672757879U,
  0x7382768081767683U, 0x767f6e737f72737cU, 0x717972797f716c7fU, 0x706d787b7e828072U,
  0x73808279716e727eU, 0x827784756f7a7379U, 0x786c7e73806f7283U, 0x797d817e6d827d70U,
  0x758283787783777aU, 0x787b757f74748178U, 0x787b757c786e7371U, 0x7770716c757e7f7bU,
  0x777575767c737276U, 0x7e7f836c7a746c71U, 0x72706e777f778472U, 0x71746f717373797fU,
  0x76797c8484708275U, 0x738171707e77787fU, 0x7e748372797c7c70U, 0x75786f7f72787f6dU,
  0x7a79778172798373U, 0x817e6f777c827e71U, 0x767e80737672847cU, 0x767277808170716cU,
  0x7378718079827c7aU, 0x7f707b7e7d7b7273U, 0x7c7271736e7a7a6fU, 0x816e747873736d81U,
  0x6d6f6d7a6c777177U, 0x7275787b72817a6dU, 0x81837d7f6c807f6cU, 0x8371827d746e7078U,
  0x836c7c75786f726dU, 0x83747b7c79828176U, 0x768275737c857b74U, 0x7178747f797a7670U,
  0x70796d6b6a7a7b7eU, 0x767c717e7a737673U, 0x76826c7c717b706dU, 0x746e738083757c79U,
  0x6d7772717d716f7dU, 0x78797982726e816fU, 0x717a6c7b707e786eU, 0x766d7c73837f7b74U,
  0x787782787c747773U, 0x6f727475807f7d6dU, 0x706f7a6f727e7f7cU, 0x747e728174718282U,
  0x6c79808081776d7eU, 0x707081726d766e7cU, 0x6f7c6f7683767481U, 0x6f72847084837e84U,
  0x787c856f847b7e72U, 0x7a7c7e737379827eU, 0x7c707b7481778273U, 0x7283747c757e7080U,
  0x7f747e797b7e8078U, 0x7971727278787383U, 0x7b8174746d777a83U, 0x7f70837a77717d81U,
  0x8280797a7e7d7770U, 0x797a8177807a7179U, 0x817e796f837a7181U, 0x7c777f757e787a82U,
  0x6c737f747b6e7a80U, 0x7e7d776c6d7e7e74U, 0x6c6e7d74837c7b7eU, 0x7d81827d7a6d7f76U,
  0x816d81766b7f7376U, 0x817e7e7372777083U, 0x7677797b836b7b7eU, 0x6d7b787b6d7c7584U,
  0x848284737985757eU, 0x767880747d758481U, 0x7376817f7a7a7082U, 0x6d7a6f7f71798073U,
  0x7883837b73768381U, 0x72727b717a83837eU, 0x7082707f7a7d6e76U, 0x7970737d7e75707cU,
  0x707d706d706c7370U, 0x796f7d6e7079767fU, 0x6f7c736c7276787bU, 0x757773706e7e7275U,
  0x6d7c7b7170786e7fU, 0x767a79777d78796dU, 0x837b7c736c6e7683U, 0x6f7174707d787080U,
  0x848477837d747c81U, 0x8574806e7d728174U, 0x836d766f757b7883U, 0x7f7a707c737d7375U,
  0x6f776f7a777a8079U, 0x7776708470767d76U, 0x7b767b7570747a81U, 0x7d746e7683737583U,
  0x736f777070726c6eU, 0x84787a7a73768473U, 0x816e73837a81827fU, 0x80767b787c757071U,
  0x777d7e6d6d7b7d6cU, 0x75717c7076797a71U, 0x6f78796f7c7e7e74U, 0x737b7482777b757cU,
  0x816e6d8071767076U, 0x757b7078797e7c79U, 0x817d707a6f817a7bU, 0x7c706f7078707070U,
  0x6e7c737d7e777c72U, 0x70828275726d837cU, 0x7c7d7f81797e7082U, 0x7d746c8270818283U,
  0x6b797674737c716bU, 0x736f73706e7a6d74U, 0x77787b8079817780U, 0x7470767d81717e7aU,
  0x6d7b798478767a7eU, 0x7a7280767d7a6d7dU, 0x7c767f7d7480746eU, 0x7b7d8376756f817fU,
  0x7780797e74727277U, 0x766c776c6e778275U, 0x7d797c7f787b7e83U, 0x7c746f7a787d7f7fU,
  0x7e796e7c807e6d77U, 0x7b70806e81717574U, 0x71807e7b7f838284U, 0x6c6f748281837974U,
  0x7f806e7073738176U, 0x79787e737770777aU, 0x8476817172766e7aU, 0x847579787b826f82U,
  0x81757d6d70766d7dU, 0x717b8374787c7f7fU, 0x837975706e737b6fU, 0x7471786e75767177U,
  0x756f786b727c7d80U, 0x6e6e73786b6e6b7bU, 0x7a81727171756a7cU, 0x80737c7673787674U,
  0x8177737a76757572U, 0x787b7c8178787373U, 0x7f7d79707d7c757fU, 0x6c7977736f787a80U,
  0x7e7e7e6b6c7f7275U, 0x7b79776e6d717079U, 0x7e817882707c7b77U, 0x7d746e78736f6f7aU,
  0x707e777c77727577U, 0x71756f747f7f856fU, 0x6c826d7e6d707d79U, 0x78797d7172797080U,
  0x7e777f8180777581U, 0x767c7474716f7f70U, 0x716d807e83777d6cU, 0x8278767f7a6f8379U,
  0x6d77746f727f7d76U, 0x71746e83777c7d7dU, 0x74787d7e74837d84U, 0x757b75718175717cU,
  0x767d796c707c8281U, 0x79766f73817e7076U, 0x8073798175707073U, 0x6f73708379717082U,
  0x806f7c74707e777aU, 0x796e7c827f817b71U, 0x778470747b807d76U, 0x838371707881766fU,
  0x766f707c70806e76U, 0x7e84837970827d75U, 0x75716d7380768073U, 0x75807e7c75797d6fU,
  0x7e7c71796f81776fU, 0x69817f787d7d7a6eU, 0x707973796a6f7f6aU, 0x807f7e727977807eU,
  0x6c8077767a707d72U, 0x6f80747d81757274U, 0x6e71767d7f827573U, 0x7970796f79706e6bU,
  0x746e77797d6f7671U, 0x777f6e7a71826f7aU, 0x74797f757b6c7971U, 0x737f737f7b6e7f6bU,
  0x80818180726c7b78U, 0x7e6f748383818378U, 0x7d727d7c71727172U, 0x717b736a73747582U,
  0x806f6c726f7f7675U, 0x7c727b7082707d70U, 0x6f706e7175767c75U, 0x7a6e7e777d7b7076U,
  0x8172757f7d706d6cU, 0x7770716f6e7d8479U, 0x70737a7b826d7774U, 0x82747d7e837a7c78U,
  0x82716f77706e8183U, 0x707e7d7681837577U, 0x757677757c6b796fU, 0x7f7174707c828081U,
  0x7a6e817080837276U, 0x7f7275777c706f80U, 0x847f78797481787bU, 0x6e7d7d74817f7e6eU,
  0x7179808182806f7dU, 0x798279717175827dU, 0x7373777677797c7aU, 0x6e6e6f7a757b8180U,
  0x7476817f7f74776eU, 0x726f84747e837f7eU, 0x7b707d6a7b6b757eU, 0x7d7b6a6b7c6d787fU,
  0x6c757f7274727770U, 0x6d727c797472707cU, 0x6e70727973707e6bU, 0x7d76807b7b6d7175U,
  0x7c796a6a70807170U, 0x7d727c7b80807f7aU, 0x707f756d75747f7bU, 0x7b7979807f7e8278U,
  0x7e807d777d787776U, 0x6d6e7c7273797c7cU, 0x8183716c71757c72U, 0x6f83787982787f80U,
  0x7f707d8081857d73U, 0x756b766f746d7c73U, 0x796c788273786c7eU, 0x827e7d7577737a7dU,
  0x7f7f786e6e827580U, 0x7a6c6f806f778079U, 0x78796f716e6e7c70U, 0x76707a7a6e786f76U,
  0x82766f8481787e85U, 0x727c83717a837973U, 0x7e757383827b737eU, 0x7b817e6f7774806fU,
  0x81817b767077766dU, 0x7e76718083838472U, 0x766e797f85747e7dU, 0x7f70707176717773U,
  0x82766e756d807a7dU, 0x7573807c747a7679U, 0x73726d8473847b71U, 0x71797a84767a727fU,
  0x7376787883747975U, 0x79767a71797a7b78U, 0x76728279786f8285U, 0x70746f6b72806d79U,
  0x7f6b7f776a786a7cU, 0x71807b787077796cU, 0x7f7975727d82746bU, 0x7a7d6e717a70707fU,
  0x7572787c7f837975U, 0x7d75817b7e7a7e6eU, 0x7671777b6b6d807aU, 0x7a7b6e717f776e7bU,
  0x7982837d7b726e71U, 0x6d7b7a797c7a6f76U, 0x787f81797e776f7cU, 0x7c6f7e79727b707fU,
  0x82786e7c7e7f7071U, 0x747b716f797c806fU, 0x79767273767d7376U, 0x75737d717a79717aU,
  0x7c77827a78807a71U, 0x7a7e7c777a7d6f72U, 0x7b7573807080736cU, 0x6f7f6d7f80717584U,
  0x7c7271848271787dU, 0x6e74817f7778807eU, 0x7a707672716e706dU, 0x7576716f7e7f7f7aU,
  0x6e7379716e726e82U, 0x847970816d777d7dU, 0x858084828585767aU, 0x7d817a837f7b7d6fU,
  0x7d7c7b837e7d7284U, 0x7b6e797b72717a70U, 0x767d6f7d6d6e777aU, 0x717579707979857cU,
  0x7d7b857c81727178U, 0x7c807d6f7e7c846eU, 0x816e83768478787bU, 0x846f6e7f7b848478U,
  0x71766e6f6d816f6fU, 0x7d7d757274817d7bU, 0x7a81797380737b7dU, 0x7670737d796d746dU,
  0x8179726d74807977U, 0x6d6d747b747a817bU, 0x7d83796f81767583U, 0x6d7d757c7a737c6eU,
  0x74706b707c708172U, 0x827a7b80807b7471U, 0x7a6e7f73747b6f6eU, 0x767a7c7c6c80777dU,
  0x817b777b7f7c826cU, 0x7b7e6f707b7c6b80U, 0x7a7f7b79777e7a77U, 0x7774847c77808381U,
  0x766c7c7f777d7683U, 0x7e6e717778777180U, 0x7f816f7872737182U, 0x7e7f798170807d77U,
  0x8178716d7f84737eU, 0x6f73727a7e788281U, 0x777d7c7981767f71U, 0x7e83738270727c6eU,
  0x78837d6f7c6f6e7fU, 0x6c71717973707678U, 0x6d7b707a816f746fU, 0x718183768382707eU,
  0x81717d847b7c6f75U, 0x6f6f767c6e6d7b78U, 0x7e79756d72837b6eU, 0x767c6d7f7374847fU,
  0x74837e7c827f7a7bU, 0x83787c7f717a7e7aU, 0x71747d787f707d85U, 0x72787581766e7f7eU,
  0x7c74866e73827476U, 0x716f796c717e7d71U, 0x6e797d7f7e797677U, 0x7d767b7f79748176U,
  0x807b6c81816d7c7aU, 0x6e826d797482747cU, 0x786f6e7f7473707eU, 0x787a84717a827771U,
  0x82837876756e7278U, 0x6e7c84847079857aU, 0x7d798383736e807cU, 0x71807b6c6f75707fU,
  0x8270747a777c807cU, 0x6e827476816c7673U, 0x6d6d7776726d756cU, 0x7b7073817e6d6c82U,
  0x70806e817a717179U, 0x7173747e75807876U, 0x7b81807e6d847672U, 0x7e72717e6a7f756dU,
  0x8470716f80746e73U, 0x7b75766c83768279U, 0x74827671726e786dU, 0x6d796f717a707774U,
  0x77736f7a7a756d75U, 0x816d7c83797d826eU, 0x727d6d6c6d73746fU, 0x6c736f7e6c7c756dU,
  0x736e717c80757b80U, 0x7282798478737876U, 0x7473747478837a83U, 0x82767d74717c7a83U,
  0x817d6d7171827775U, 0x7077757877777a75U, 0x7f7f817e71796e7dU, 0x77838370847f727aU,
  0x776e7f837d7a8381U, 0x837c7e7a71847085U, 0x6e72777271847a76U, 0x6c758074747f6a7bU,
  0x7b6f7a7c75816c6cU, 0x7c6e7c7a73768170U, 0x8280836e777f7383U, 0x7c77727f8181777dU,
  0x7e6e7a6d70777983U, 0x7882857b727b767fU, 0x76806f768574797dU, 0x7b8275756f737b71U,
  0x756d757f7476787cU, 0x737e6d74777e7670U, 0x837a6b72736c7574U, 0x6c808078797b7279U,
  0x766c746f74757e77U, 0x7176756d7e787579U, 0x7f817e7f8083786fU, 0x737d83866e7d8582U,
  0x6a6b737d7c6d7f82U, 0x7c7c8172727c7277U, 0x73717f736d6e6e74U, 0x816d7c7e7c71806cU,
  0x7a6f83726c73756dU, 0x7c787d7271786d6fU, 0x8170747a7e77787fU, 0x827870757a7a7472U,
  0x7a7e796d82767a73U, 0x7076786e7c82756dU, 0x80737279856f7e7aU, 0x767776717781736eU,
  0x7c7a837a7f747b6dU, 0x7a7b72836d76756eU, 0x7d7f6e847e827983U, 0x7c77827c83707b76U,
  0x6d73838579787485U, 0x74717672837f8276U, 0x818270707d708377U, 0x827b8577797b7384U,
  0x717a7c7a6e717875U, 0x6f6e766e7e70707cU, 0x728271708375766cU, 0x7876767871727d71U,
  0x7b847a7f8179827bU, 0x7f746f7b7f7c7485U, 0x72787f7278707883U, 0x80747b717870827fU,
  0x7272816f787d7775U, 0x74857f747178827bU, 0x7a717b8083757071U, 0x73716c708377777fU,
  0x726c7871806d8072U, 0x757a6d7074787581U, 0x70716d7c7c7d787cU, 0x8074787378717779U,
  0x6f7e7a7372837878U, 0x6c6f727f6f79727fU, 0x6b7c6d7c78737b79U, 0x807a756e716c7879U,
  0x7b7d837a6d82826dU, 0x7f80738070837072U, 0x7f727e7d7c7a7b74U, 0x7874807f7b74776eU,
  0x7682716d76737278U, 0x71757371776c7b82U, 0x776f807681797277U, 0x74737e847c7a7674U,
  0x82837380827a7d74U, 0x746d6f7673776d7eU, 0x6d7c6d72817f766dU, 0x83786e70827d827dU,
  0x82816d707f7f7e6fU, 0x817f727078737682U, 0x856e6e7577786e72U, 0x7f6e787475787774U,
  0x7d7c778272806f80U, 0x776f726a797d8272U, 0x7c716e766d70777bU, 0x797e806e7470827cU,
  0x747b7e6f7b807e6fU, 0x7d73807f84797c7aU, 0x8585717b7476707bU, 0x8280818076847a80U,
  0x7385787b77828174U, 0x7574738670787481U, 0x777282787e79737eU, 0x72777f8578817077U,
  0x787a6c7e70847577U, 0x6c7a747979837776U, 0x6f6f6c71777e6f73U, 0x7478747f74827a78U,
  0x706d6b72766f7e78U, 0x7873717979807d70U, 0x707370746e6e7183U, 0x757d78707c6f7b76U,
  0x75787f7c747a6d6bU, 0x6f6e8076836d756eU, 0x6e758171706d7c7fU, 0x7376837d76786e6dU,
  0x7a74727a6d7e7975U, 0x7882787782738380U, 0x7a75797f836f8379U, 0x7b6f6d82747d807eU,
  0x747b7e7e757c7e82U, 0x8073857c71738382U, 0x7976727773756f82U, 0x81727d83726f6e71U,
  0x71777b73847e7a77U, 0x7b7d7c7d827d7575U, 0x80727d7e72766d73U, 0x7a7c7778746d787aU,
  0x72787d76737a7076U, 0x7d7f757682817780U, 0x7f6f78747f84756eU, 0x7478786f756d7371U,
  0x7172817f7f7a7b73U, 0x80777781807b7e6eU, 0x7b8177847a7d787bU, 0x73767471747b7171U,
  0x7877726f6f807174U, 0x7076767f727b7074U, 0x757e7f737a6f6c74U, 0x7884856f85807570U,
  0x7f827b7c72838480U, 0x797b7c8282706e84U, 0x777a79757a797f73U, 0x75747b76727c7879U,
  0x7a7275786f7f827aU, 0x737a797f7b79757eU, 0x6d777c817c7c7b73U, 0x817b7d7f7c796f70U,
  0x74707d7d75778374U, 0x6d797b747f767382U, 0x81707b786d73817dU, 0x76817f6f75776e80U,
  0x767e6e757e717b7bU, 0x72737a78736e737aU, 0x8378797a7b72736dU, 0x7675776c79756e83U,
  0x7d7d788174747b7bU, 0x7e846f7476718070U, 0x7f7a6f8079857c84U, 0x74807a7f73767484U,
  0x6c6e6e7c807c7084U, 0x74797b7f79717170U, 0x7e7d7b756d6d7e7aU, 0x7882747a75818378U,
  0x78797e767c767884U, 0x7775707f7d787c78U, 0x83847e73837a7a82U, 0x75746e797d727083U,
  0x747d716f7f7e816bU, 0x776e6c7e7b74777dU, 0x787b7e808083866eU, 0x727c7b7f8070796fU,
  0x7a7a857a7d7f8580U, 0x6e8072767a787978U, 0x7281736f79847376U, 0x7872736b707a747bU,
  0x8180757679807a6eU, 0x7d80797f7a7b7c73U, 0x857885717d7c807bU, 0x6e776f7a7c837a7cU,
  0x6e7973766e82767fU, 0x7c7c7c777e817e82U, 0x737978817177737dU, 0x78827777746f7579U,
  0x6d767a75787e847aU, 0x737279747f836d7bU, 0x77787d7785837579U, 0x72827f7e6f727b79U,
  0x846d6c797679827cU, 0x747b7783737e7e6eU, 0x817f75717f6e7c7eU, 0x707f797a7d788180U,
  0x828172727875827aU, 0x6e7c6c6f71707a74U, 0x707a826d816b6d74U, 0x717e7d718584746fU,
  0x7278707d84807570U, 0x6e7c77828378707cU, 0x75726e737b738173U, 0x7a6d777c72758377U,
  0x7070757481747871U, 0x7f816e7a8482807bU, 0x7f7a79747a6e8276U, 0x7b7b7e73827c7083U,
  0x7e747880807a7076U, 0x797d786c79786e84U, 0x718271807370746eU, 0x7e7478797772747eU,
  0x817f70727a82726fU, 0x6f807f7f7f7d7d7fU, 0x7e7d788485778282U, 0x7f7c73737181767aU,
  0x7976727274706e76U, 0x746c7a7d706c727cU, 0x847a767b706f7a6cU, 0x857b7f7f777c7777U,
  0x6e7b6f857f81847fU, 0x7782786e727d8084U, 0x6f8179776e747b7aU, 0x6e70707b81717c75U,
  0x7b7770747d816d78U, 0x74717b7c70778071U, 0x7f71748384717070U, 0x768276826e796d72U,
  0x8082806d81827b7bU, 0x777d6e746c777c75U, 0x7980737d6e827f6cU, 0x796e807e6e777580U,
  0x7e7f78787670837eU, 0x827a8079847c8476U, 0x757c80817781836cU, 0x71777578747c7876U,
  0x75856f7485717b82U, 0x767a787f83757b75U, 0x758375797f7c6f84U, 0x727f7a6c82827375U,
  0x787472777f6f8082U, 0x6e8276827b6f6d79U, 0x726e7e7c7d7d8375U, 0x797572757d837e72U,
  0x7175718177747e7eU, 0x857f7e7e75807072U, 0x6e7776767d7a8072U, 0x7f7d6f7677786c78U,
  0x7e7a7f84817d7c7aU, 0x7d787f7f7c806f7cU, 0x82747b747676777fU, 0x737a756f807f7182U,
  0x7c78796e73837378U, 0x836d6f7581716b74U, 0x756f6d776a736b7aU, 0x7f6e7a74827a7482U,
  0x747d7f8076717d6cU, 0x77767b7782847880U, 0x7d6d73787a718385U, 0x807876787c7b6f73U,
  0x7f74807e78836f73U, 0x807d75778178756eU, 0x6b7d73817d7d7d6fU, 0x6f766e75747d8171U,
  0x75776d827c7a726fU, 0x70858572797b786fU, 0x806f7c71717f7d7cU, 0x828272746f6e777aU,
  0x7f74808282747276U, 0x6e74717e7e798083U, 0x75788383827a6e6eU, 0x7b6e737f7f818071U,
  0x7e777b80817a7f82U, 0x826e766f77787377U, 0x827d8173867d7a78U, 0x6d79787284858475U,
  0x7070797970767e73U, 0x756d7c6e7a7b8479U, 0x7f78767e7c7c817fU, 0x7b737e6d6e7d7384U,
  0x7074818077776f7bU, 0x768381837e6f6d7fU, 0x7a7c7b817b71837bU, 0x7273817d787b7672U,
  0x6c757a767f79737eU, 0x787774716e707b79U, 0x6e84807884846e7dU, 0x82856f747c787d70U,
  0x7a81737971846f86U, 0x74747d817b6e7f70U, 0x747c7e6f807b7c6fU, 0x78827b7b837b6f6dU,
  0x6f7470827c807481U, 0x7c85766a6d797671U, 0x726f7b7f757b7a76U, 0x838583727d747082U,
  0x77827a7473817e78U, 0x7a737f6f757a7376U, 0x837f7872726e8279U, 0x7d737772736c7a80U,
  0x7c817d7974827978U, 0x79707d7e727b7b80U, 0x77776f8082727080U, 0x7c7871817b81727fU,
  0x6f757a75716f7b79U, 0x7f7c6d6d7e7b726cU, 0x826f7d826f7a6e70U, 0x7f81827f7e777f6fU,
  0x7a7f7472836e767cU, 0x81777f837d767e79U, 0x7b727182826f6f73U, 0x827d7a7d85798382U,
  0x6f74707483797e7cU, 0x6e82736f81837379U, 0x7b6f747b7d818174U, 0x7f78716c80757f73U,
  0x6e75817974837c82U, 0x798270778173766eU, 0x8483737d846f8478U, 0x807c777e7b6e7f7eU,
  0x7c73786f7e748574U, 0x747b8079736f7675U, 0x777b7e6c7e6e806dU, 0x7c7a7f6e80827184U,
  0x7275717480857879U, 0x7b6f70767e7f7687U, 0x7f867c7979767272U, 0x7a6c7977727e6d86U,
  0x7a6f7a817a707871U, 0x6c797a777e79706fU, 0x6b7b6f7a7b707e7cU, 0x766a796f7a7a736eU,
  0x7f76827c80727173U, 0x8379797a7f727d7dU, 0x776f7b6b747e7272U, 0x807b6c73786d6f70U,
  0x7f767d7f81767177U, 0x7276707376827b78U, 0x707b78747a746c6bU, 0x727e6d6e816f7183U,
  0x7671786d81707275U, 0x737074818170816fU, 0x7579757c776d6d80U, 0x6f7c6f7e7f6f7476U,
  0x7d6d757a83757d77U, 0x777f6f7481767b6eU, 0x7d7f7072806d727fU, 0x796d7b747e7c6f74U,
  0x7d7a7f8380777772U, 0x81796f797d7f7876U, 0x6d7e707583828171U, 0x80757f76766e7c6eU,
  0x767371747d707971U, 0x77778172717f6c73U, 0x71727c6f6d80737fU, 0x6f7b807480797f7bU,
  0x84787972777d7b74U, 0x8585837a81748274U, 0x80717c7473738484U, 0x7e6c7a7971746d77U,
  0x7e7a70727680786fU, 0x707b818470707586U, 0x7f7d8582817a8482U, 0x778483847f738480U,
  0x727f7f786e786d7eU, 0x7c7875746f757f78U, 0x777e837677707c82U, 0x7a737c76806f6f77U,
  0x7a767d7d6f7a8281U, 0x74806c8378757783U, 0x83827f6e797b7983U, 0x7b78727d6e807d84U,
  0x7a8283706f81756fU, 0x837c73747f6d767dU, 0x7a7677786b767f6dU, 0x74816f7c7b6e7172U,
  0x787072836d6c7b7fU, 0x817281706f7b7e7eU, 0x747980846f7e7479U, 0x747a6d7a7a7c707cU,
  0x766e7d6c7d826e7dU, 0x7b757a747a73767aU, 0x787279816c777072U, 0x81716f82777b7483U,
  0x797173746f7e7d73U, 0x727a718073726c7aU, 0x7e6d7e7d7e7b7a79U, 0x78798076817b7083U,
  0x71787b7d75707d7dU, 0x73756d7578787e7fU, 0x707e787e74776e7eU, 0x757b7f837c6c7582U,
  0x7d75737270717274U, 0x6e7b80788075727cU, 0x8076786e7374797dU, 0x777b80746f807d7bU,
  0x817f727284788579U, 0x7775776e73766f71U, 0x7c84797c81837777U, 0x7e7485777b857b83U,
  0x747c76747670757bU, 0x786f6f77787d8076U, 0x717372756a737579U, 0x6e786c7373796a6fU,
  0x727a737d7f758076U, 0x7c6b797f706e7778U, 0x757773757d786f6cU, 0x727b6f748475787eU,
  0x7d7a807b8084796fU, 0x6c6c706f6f6e7079U, 0x7a6e7c787d7c6e7dU, 0x7d757f816d77817fU,
  0x76827e757e737b75U, 0x767f78777e817b7bU, 0x757a7f6f787c727dU, 0x7f7a81717b767379U,
  0x7a7682817380787bU, 0x7982767881717178U, 0x75837a7c826e6d7cU, 0x6e7f776f6d76837fU,
  0x7b82776e74826c7bU, 0x7583806f6e836e72U, 0x7d7079816f766d7aU, 0x727d707b7e6e7473U,
  0x757874827e6b7682U, 0x7f6b7272766f8083U, 0x737d78737575827dU, 0x717f707072776e70U,
  0x84837a72707d7c81U, 0x7871838274767c75U, 0x70766d8270727179U, 0x75707c7680827883U,
  0x737e7d6f787b6f7dU, 0x7971847275807984U, 0x7f7477746c707782U, 0x827b7b7c82817d80U,
  0x7c767d8081768373U, 0x828071777b727877U, 0x73776d7c80828273U, 0x6e78757180728374U,
  0x72727077846c7579U, 0x7180818370727075U, 0x81797879736b6d6fU, 0x7a76717973807883U,
  0x7d7b80797870736eU, 0x6f83776e74818373U, 0x797776807a73787bU, 0x6e6d6c7778807379U,
  0x6f7d7075727b7479U, 0x8272827d6c79837dU, 0x7f7e71796c6d806cU, 0x727e7e7175837d76U,
  0x707f7e6f6e787680U, 0x7279737170768273U, 0x826e817570826f70U, 0x707b7c6c816c7183U,
  0x767a807d7e81847dU, 0x6e717c6e7e767176U, 0x828377807e74797bU, 0x7b717877737f7274U,
  0x757578827f787279U, 0x7978736d7f747c70U, 0x757176827d7a707fU, 0x7379777a73817c7bU,
  0x6f7f6e757e797d6eU, 0x8273757c71807879U, 0x7a836e7b7d6f777fU, 0x7f7e7e7276748471U,
  0x6f7f776e7070767aU, 0x8171817c7f7a8084U, 0x7085707f7c7e7882U, 0x7e6f72827a79797eU,
  0x827e807077737878U, 0x848077746f717c84U, 0x6f83778180767571U, 0x818775726c6d857cU,
  0x796f74687d857871U, 0x817c6d6b826e757aU, 0x6a777278796c6f71U, 0x77816e7c78767c7eU,
  0x7972686d6c70747dU, 0x807d6f7b7172796dU, 0x7d79848071767072U, 0x7f6c7e818370797aU,
  0x6c7074807d70717cU, 0x6d76837f767a6f76U, 0x7881827581717a83U, 0x716d726d746d796dU,
  0x76798283747c7c75U, 0x747c70757a6f7b77U, 0x70807b7f7b7d736dU, 0x71797c83787e6f7bU,
  0x7c7e757271747c81U, 0x7180768181817a6fU, 0x756d747a7979767dU, 0x6c6d7c7476736c7fU,
  0x6f7a826c82727a75U, 0x7074766f6c7d7175U, 0x7981807678748481U, 0x7e7b7a8079737f72U,
  0x7e756b6e70767572U, 0x7c6b807b6c71797cU, 0x7e77767573726b6eU, 0x7d7a7f6c747a7175U,
  0x7c79746f7b786c81U, 0x6f7d717482737080U, 0x7a776e79777e7c7fU, 0x75847d7c807c747bU,
  0x7d85758378758478U, 0x6f6c716f7f87757fU, 0x7c706f80827b747bU, 0x7a6f847a79817c7fU,
  0x76747c7d82767b84U, 0x6f757d6e6e7c707eU, 0x7271777e7c797c70U, 0x70687a6a6f796c6bU,
  0x797b73787569697dU, 0x797d74777c706f72U, 0x74776f7a6982827bU, 0x727a73807074736fU,
  0x747371717d807d83U, 0x787c767d7c7b6f7fU, 0x7b6f7872826f6d7cU, 0x82737c7771737b72U,
  0x7371827a706e8280U, 0x767d7b787e6c7d6dU, 0x81767d807f70786fU, 0x6c6d7b7475727373U,
  0x7181756f78787f81U, 0x7f718177727d7477U, 0x817a7b746d798383U, 0x7b76807a8182717fU,
  0x727a76837d79747dU, 0x6e716e70797b7874U, 0x7b797c7f6e798275U, 0x766f7b6e7b72786cU,
  0x6c7d7a7d796d7277U, 0x75767f7b7b7d6e7dU, 0x6c7b797e7d7e796fU, 0x6e766d816f707e6eU,
  0x7c7b7c727e727172U, 0x727b76776e707182U, 0x82716e7a757e6f81U, 0x7d8171836f797a7fU,
  0x72767e7f797e7f78U, 0x6f8370757d727d7cU, 0x7c7f827682736f7bU, 0x8372717d7d7b7c7dU,
  0x717a7d8184777b83U, 0x84817473777a7082U, 0x6e766e7576757385U, 0x797280788173787cU,
  0x70797281726a6a73U, 0x767b7c70726f7076U, 0x787a7678747e7776U, 0x6d696e7c6a6d8181U,
  0x7a707e7d7e817671U, 0x7d7a737f7d7a7272U, 0x757b71747677816fU, 0x70778374806e8272U,
  0x796d727283707972U, 0x8372816d70707e81U, 0x72757b7573717c75U, 0x7b8370777576707dU,
  0x76827c6d80756c7eU, 0x777f7b7c7c71767cU, 0x76756d7c83818070U, 0x6d827982847e7772U,
  0x6e8179707e6e837cU, 0x7772827873757470U, 0x7873758375757878U, 0x76747c787e7e767eU,
  0x747a6d7f807c7778U, 0x7980817a7b778176U, 0x76756f83787e7672U, 0x6b6f7b756e7d7b82U,
  0x7b80746a80777679U, 0x766c757a736f6b6bU, 0x807977806d747f7aU, 0x7d7b6d81786c6e6cU,
  0x7a836e806e83717aU, 0x7670837280777876U, 0x6e82757b80767a7dU, 0x7e6f79806f7a7178U,
  0x74817c797b837171U, 0x75726f7580757082U, 0x837f78857e7c827dU, 0x7680827877797681U,
  0x72736a7b7c7a6d71U, 0x80777682717f6c7aU, 0x7c6e736b7f817385U, 0x746d746a79747c77U,
  0x6c7b76717a7e717dU, 0x6d77806f7b6a687bU, 0x837b757b7f79786eU, 0x72857d7976857f7fU,
  0x73826d7a72727381U, 0x837a797e7c718376U, 0x798075776d7a7578U, 0x7e7d72756f756e80U,
  0x7b71727b817e726cU, 0x737e756e80796d76U, 0x7e816e7977707475U, 0x767374787c6e7c74U,
  0x7574717477747072U, 0x6e6d727e76708485U, 0x7d7175756f7e7879U, 0x76707f747d77796eU,
  0x797e707d7b72796dU, 0x7178747f7e7e7479U, 0x7a7d737582797f70U, 0x788080807f74837dU,
  0x7e7276838076837dU, 0x717e807e74806d7fU, 0x716d7d6c6c7e7073U, 0x7178747676807280U,
  0x6c6d7171776b7b6aU, 0x718278707d818382U, 0x7d756c7b80707581U, 0x737a7982717b767dU,
  0x757f797c71767b83U, 0x757d6d6d847b6e76U, 0x6f8080756f7a7a84U, 0x717f797285728670U,
  0x7c747975826f8077U, 0x817a716f727a857eU, 0x757d7e81737b7479U, 0x757b8077766a6e7dU,
  0x786e7b7b706b7b7fU, 0x7a736f777f6d7374U, 0x726e767d7f737877U, 0x7583857386826e7cU,
  0x7c7e7a7186817886U, 0x80777a7a7185807bU, 0x716d7b75757b6e75U, 0x7f81806d7c83797cU,
  0x6c847e6f6d818180U, 0x7282736e7a747873U, 0x81817f7b80827174U, 0x6f7b817d77817f73U,
  0x80707a7672807a6eU, 0x7d827d7b827c767bU, 0x7b7d807e73757084U, 0x8271817a78748376U,
  0x78707b746e737970U, 0x747d827772797c7bU, 0x7f706f837e6d6d6dU, 0x80837c7280787e71U,
  0x8483798276707974U, 0x777675717b748477U, 0x786f7670797b7075U, 0x6c756e7e777d807dU,
  0x7d6c6c736f70807dU, 0x75706e7b7b6c7d74U, 0x7278726e6b777874U, 0x7982786e787f6e80U,
  0x73796f75746f7971U, 0x75767d7a7e75716bU, 0x776d786f6c827f71U, 0x787a806c74777677U,
  0x767c7e7a7c827d77U, 0x7e7f84707c797780U, 0x718383857a807f85U, 0x7977717e6e77757bU,
  0x7d7b6c846e727d7aU, 0x73746c7068716a7cU, 0x697c767071746b69U, 0x80766d73726c717aU,
  0x7371796d767a6e76U, 0x807b757a6f73877eU, 0x7581737f80807a7eU, 0x79747881747b7f77U,
  0x7d7d827679807172U, 0x82737b7d71817b7cU, 0x7270826e8079706fU, 0x7d78776d747c757aU,
  0x84727778777d837fU, 0x81827d717b796e6eU, 0x7d777a836f817184U, 0x707070837b7b846dU,
  0x6c79797c797c8081U, 0x747f7f8378717b6eU, 0x7b7b7d7f7b787e7aU, 0x70727f6e737e816eU,
  0x7d6f777781716f79U, 0x777d797576746e80U, 0x6d83817b7c82847fU, 0x837d7573787b8183U,
  0x6c816d7d6b7b7284U, 0x757272757a6e8372U, 0x7e7d7f8175817176U, 0x7f766d817c767a72U,
  0x6c6d7e7179767d74U, 0x8179737b7a7e766eU, 0x737d806c6c747777U, 0x7b727b7b737f7a6aU,
  0x7f6b6f7a6e756d79U, 0x796e70786f757276U, 0x7c7172707b7f7f6eU, 0x728479837e727a74U,
  0x757f81837a83747dU, 0x697d7475837e7981U, 0x7a6b706f74708072U, 0x7a697e7c726c7879U,
  0x717373747b6b737aU, 0x857f847375817579U, 0x7583848072847a78U, 0x797c6e85777a7977U,
  0x757c72708479827aU, 0x7275817a6f767c82U, 0x74757f7b7d7c7379U, 0x737f787e72837976U,
  0x737f808274798082U, 0x7c717c6d7c7f7780U, 0x7b786d827d7e746dU, 0x8077817081707682U,
  0x817d786e777f6d7dU, 0x7e82767d71827883U, 0x70777e737478707bU, 0x816f706f847b836dU,
  0x7a73727a797f727aU, 0x8271797480727279U, 0x6f7e7076837e716dU, 0x736d6d7872797682U,
  0x707680776f817870U, 0x786b6e73817b817eU, 0x7a836d74796c7582U, 0x70826f7770806c7cU,
  0x7f6f74726e72717bU, 0x70706c7b6c71787aU, 0x7e7a7f7c7a807a75U, 0x7079707a7f797c72U,
  0x7777767773797474U, 0x73766b6c7879776dU, 0x7676747f6c767775U, 0x797d7d75757d766cU,
  0x6f82856e83857f86U, 0x837a807f797e757eU, 0x75827d7d76807d82U, 0x7b747e7875766f79U,
  0x777975796f6f7377U, 0x7c7e77736d70747bU, 0x79727b827e706f6aU, 0x787875817a727182U,
  0x847a7f7f7b7e716fU, 0x817d85707f848382U, 0x7a8377756d81857cU, 0x6e6f797a716e6f83U,
  0x7b827a797a6e797bU, 0x7e78757c767d6e6eU, 0x6d747670776f7e7eU, 0x7973737377797e71U,
  0x806e83737b7d8475U, 0x727a71757a847b76U, 0x7b807781796e7475U, 0x80706f737178707cU,
  0x6e787d80797b7382U, 0x7277766f7e71816eU, 0x806f837182747679U, 0x787c75837c707d79U,
  0x747683837b707a82U, 0x787183777b717e7eU, 0x6e73828270706d73U, 0x726d7e7572748071U,
  0x7a747a6c7a6e757bU, 0x7a70837f7d6e7174U, 0x8177707882836f7bU, 0x707b767a7c786b7fU,
  0x7a6e81797b746e69U, 0x806d707272817a74U, 0x6a6e6e756b746b79U, 0x7d747f7b78796e74U,
  0x7f6b7278807f737aU, 0x787382837f6a7677U, 0x71727d797e78757fU, 0x787d6f8073727b7aU,
  0x7b757a757f7f7983U, 0x806c797e6e6f7f7fU, 0x836e797372797e7dU, 0x6f73817679806e78U,
  0x8279807c7f6c817bU, 0x73727b7b6f707c72U, 0x807877798375857eU, 0x7f74706e7d70747fU,
  0x7b7a757d797d7980U, 0x827c806d7370827aU, 0x7d737e7870706e7eU, 0x6e6f727379786d7eU,
  0x766e83737a6f6e70U, 0x7376716d757c7e79U, 0x7c767e6d82757980U, 0x826e787c7c827773U,
  0x7f837e8474757e7aU, 0x7e6f6b777c828477U, 0x6f7078766d6e7e75U, 0x846f7e7a786f806eU,
  0x8077786f6f76707aU, 0x7074797b757e7081U, 0x7575757d7d7d7073U, 0x7e717e84727e7b84U,
  0x7c6c707c796c7f81U, 0x7c7c717772806c71U, 0x7373806d78737c75U, 0x7a8183757676737bU,
  0x8073747880757371U, 0x77806d75707a6f7fU, 0x6a7773737e6b7181U, 0x7a70706f6b6c7478U,
  0x6d6b78747b6e797eU, 0x77726d6e7f808174U, 0x6d7c6b6a7f6f7869U, 0x73777c706d797874U,
  0x827f7475717c7a74U, 0x7f818676767d8172U, 0x7c80738372766e81U, 0x77806f6e6e767d84U,
  0x7b807e6f7d7e7380U, 0x827c7f6f7784847cU, 0x7b7a6c7a7f6c837cU, 0x7c7e787170737d7bU,
  0x817876807e7f7173U, 0x6b6a7280696b6d6cU, 0x7079757278797074U, 0x7b81766c79796f7dU,
  0x727c727c6d737280U, 0x8177787b7782827dU, 0x736f78726f6d7e78U, 0x79787d80736e837eU,
  0x7c726e817f7b7e6fU, 0x7d6f816d6e72797cU, 0x80726f82757b7371U, 0x777d6d7680708182U,
  0x707d7c727f767079U, 0x74767e6f7d847374U, 0x7c7481727d7e8370U, 0x7b6e846f797d6f7bU,
  0x6e6d7a7e6f787b6fU, 0x77737e766e838179U, 0x6d727e7e6c807b7bU, 0x707d827e836e7b79U,
  0x6f7b7c787d7d747aU, 0x7a6f7d7376707b81U, 0x74817c767980797fU, 0x726d7f75787d6d77U,
  0x7b7a71746d6c7776U, 0x6e7e786b80747473U, 0x6f7577776b7d807fU, 0x6f7c7b6f7a7e7f80U,
  0x6e77757b7e757e71U, 0x75737c78716f7970U, 0x8077786d7a7d7c81U, 0x8272817f787b7575U,
  0x84797484757c7771U, 0x7c796f7a74756d7aU, 0x7d7c81846f747e7cU, 0x8477756e7d7a796fU,
  0x7b726f76757f797bU, 0x736b7e6d70798283U, 0x75796e6b796f6d7dU, 0x79796b7176817c6eU,
  0x7d6d6f7d7b75816dU, 0x7e70756f7d777181U, 0x6e82706c6f817a72U, 0x7d79746c747f777aU,
  0x84707473817c7175U, 0x7d8383816e707d70U, 0x6f6e767581746d6fU, 0x817e797f6f7c7871U,
  0x707c7c746f728377U, 0x71776d767881716eU, 0x71747e7a74757c6fU, 0x81816d7c816e7682U,
  0x82758370796c6f81U, 0x7173767674847a80U, 0x7b7777796d776e84U, 0x7c70727b757c7c6cU,
  0x7f6d6e79757c757fU, 0x76827d798178757eU, 0x7b7a72706d7e6d6eU, 0x6e6b747a72727470U,
  0x7e788278747e737cU, 0x6b7f7a827b6d7377U, 0x7e7e6f707e787174U, 0x73766e6d6f6e7e80U,
  0x807f6b7c70787f7dU, 0x6b79788272736e7bU, 0x6d70766e7a7a6a72U, 0x7e7f808079737b74U,
  0x7874787f79807b7eU, 0x787b7b7f85848480U, 0x7c7a857d84798472U, 0x727b6f847874777cU,
  0x6f807c7272777772U, 0x6e727c76796e6d70U, 0x71728175777b6e76U, 0x78807a707e7f7e80U,
  0x76816e7e6e7e8078U, 0x818474757074817eU, 0x767b7c70747a846eU, 0x7478717f787e7078U,
  0x7881827e6e7d6e7dU, 0x748378777e7f8276U, 0x6d7f70717b6e7b74U, 0x6e7e6f7a75757672U,
  0x7c806f7b716f7071U, 0x7c727b7a727b8076U, 0x82807b7976767280U, 0x717e716f7c737f7cU,
  0x738082837c837d7fU, 0x7b70728470807f80U, 0x6d7b8185706e7378U, 0x74786e807d72746eU,
  0x7a76776f7c7d767aU, 0x7a7783706b81807cU, 0x747976787f7b8173U, 0x827c6f7e80717c7cU,
  0x74708382767c7c7cU, 0x6d766e7d7b78727fU, 0x827f7f836e717e6cU, 0x6b7c707b82777474U,
  0x7f776c82817f7070U, 0x7f70707979747d80U, 0x7c6e707870737979U, 0x7d7871707d6c7580U,
  0x8475736f72777874U, 0x83797d6d766f8272U, 0x7071737d7170717dU, 0x836e7e77747b7181U,
  0x837e6f7c8775787bU, 0x72767e717f7b7d73U, 0x6f7b7d7273747b6eU, 0x80797e79767c776fU,
  0x817e76837e806e71U, 0x717975747e817081U, 0x8278767773767e76U, 0x74757e7e6e7f6e7eU,
  0x7f787b756f7e8481U, 0x737e7e7f717b7875U, 0x74727f757b7d7c78U, 0x7580726d6e7b7179U,
  0x807174837e77717eU, 0x726e80797e6f7b7eU, 0x767f747b837f8483U, 0x7d72737a7e717f81U,
  0x7f788076776e7474U, 0x7d6d76797f84767fU, 0x7078766e797a7c6cU, 0x6e817d7c7d716d7bU,
  0x6e7a758477837b84U, 0x73786e716e777d7cU, 0x716f8079807f7872U, 0x7c7e787b837e7372U,
  0x7b75808270727271U, 0x7d746a6c6e6f7875U, 0x716d736d766b6d80U, 0x7f71706c73777e72U,
  0x767a776f837b707fU, 0x777e746d777a747fU, 0x6f7d7d6b82757f82U, 0x6c776b83786f6e7bU,
  0x736e707a72797977U, 0x7c816f6b8371807aU, 0x737e767173726e76U, 0x797e81727d6f8571U,
  0x807578766e71726dU, 0x757175827877786eU, 0x7e7d7f787b6d7a76U, 0x7a797e777b6a726dU,
  0x8183837570797e74U, 0x72797d79736e7b80U, 0x74797b827b807e73U, 0x6d758584827c7d81U,
  0x797e8479797b7282U, 0x77806d818075867dU, 0x787e7c7a7d847973U, 0x6d7c75707f756e7bU,
  0x6d79747576756e7bU, 0x727e747f7b7a7275U, 0x73837c797483717cU, 0x8077736e717d7d76U,
  0x7871807c8182747eU, 0x6f78777a836e7672U, 0x7572748071717d75U, 0x78727e6e71728183U,
  0x72826f6f707d7971U, 0x7e8180747a857381U, 0x7f757d7d8483726eU, 0x7e826f7e79787977U,
  0x7f7172827f7d777dU, 0x7084777d6e737470U, 0x7b7b7d6f70716e77U, 0x72717d7d7b707174U,
  0x7a8280737b6b8082U, 0x7e70847f827e7b73U, 0x827275726d7b746dU, 0x7e74727e83727672U,
  0x786a818378797677U, 0x7e79767c747f707aU, 0x82817f777c837f6eU, 0x7c6e788373808473U,
  0x727274777580727fU, 0x827e80717b707075U, 0x6c6e6c7b746e7c6eU, 0x6f706d727e73777cU,
  0x7476787c7a7c717cU, 0x707a7b7c6d797a84U, 0x7b837c8475808476U, 0x6d6f7a7c6f827f7aU,
  0x7d847a787e6d817aU, 0x77827f6f6f6b8477U, 0x757073777077767eU, 0x6e7e747b7a7e736fU,
  0x77797580797b707aU, 0x717e73757c7b7273U, 0x7c6f7371787b6e76U, 0x797c8073797b6f6dU,
  0x6d8274727e767a77U, 0x7a75727876847e72U, 0x70757a807f7c7983U, 0x7d746d70727e8077U,
  0x6c6d7b7d83777a81U, 0x7a817d7b6d7b8378U, 0x707d847d6f78796dU, 0x75757e707f767377U,
  0x7983837579817274U, 0x6e7381706d727a78U, 0x747b7a8372787076U, 0x6e7d827372706f83U,
  0x6a7b7f786d717f7dU, 0x737879766c737880U, 0x7e8073727573707cU, 0x76807a7e7c75707aU,
  0x7f6f717c79737881U, 0x7d6c716e6c7b7f81U, 0x807d6a6b7a707078U, 0x6f806e747f736e72U,
  0x6c7c7b777f7a7478U, 0x787276717b767885U, 0x7080837b6e80757fU, 0x78747d7a7b7f786aU,
  0x70716c7a757b697bU, 0x797d797877737080U, 0x7074838071787973U, 0x7773827d7d7c7671U,
  0x8174847c717f8282U, 0x71827678796c7c7bU, 0x6f728373827c7081U, 0x72796c7f7181707bU,
  0x77846d7e7074817bU, 0x827870757d727c76U, 0x70847d7f7679727fU, 0x70736d7371726d75U,
  0x7a7a6c70777f8278U, 0x748283707183706eU, 0x727a7f7e726e6c74U, 0x7377737b7f807c72U,
  0x7a7d776d776d7576U, 0x797e82848377707bU, 0x82787f6e6e82716dU, 0x727d7480787a8181U,
  0x766f837773797877U, 0x837d7e72727d7d6dU, 0x757f7a707e777d82U, 0x827c76727f716e80U,
  0x7f7a806e70757370U, 0x8076806f7c6f7678U, 0x6c7d7e736f727a75U, 0x7d7b767875747874U,
  0x6f78737c7773766eU, 0x8082787b826f7280U, 0x836c776e766d7280U, 0x7f7d727182747c76U,
  0x766c72827681777fU, 0x80777073706c747bU, 0x7d7375767872837cU, 0x71836e8379817277U,
  0x6c6f80766f6e7e6eU, 0x7c6e75747f737872U, 0x797e706a7d797e7cU, 0x7b7a7e8480707b71U,
  0x7778787775717883U, 0x7b78717b7e7c7577U, 0x72737f70717f7878U, 0x7672717a8381767bU,
  0x846b7e807a7b767dU, 0x7077767778806c7eU, 0x717e847282746e7eU, 0x7f8281797e6f7f80U,
  0x77786d737f7e787aU, 0x797381717a77727eU, 0x727c6d6d76817974U, 0x7b75757777758072U,
  0x7c7f8276826e7871U, 0x71776c7a7d7f7b80U, 0x79787483727b6d7cU, 0x806e727d7a798071U,
  0x6e70826d787d7674U, 0x77706f817c837a80U, 0x756f817981786e6fU, 0x77756d6e7f758178U,
  0x7c786e7e77737c77U, 0x75727a747f7d766cU, 0x7e79797d796f836dU, 0x7a767875816b826cU,
  0x807170776b7f7580U, 0x7c70757384787a77U, 0x7c7f7a7c7e74787cU, 0x75756f7c7374766fU,
  0x797d706e777d796dU, 0x76707c807f767c78U, 0x81706e7c766e8179U, 0x82757b7f6b797580U,
  0x848079827d737571U, 0x77806e7771847c74U, 0x6e766f78777c7483U, 0x78717a7377717370U,
  0x7b6f6f777d717e7cU, 0x71796f8478817773U, 0x7672767977727e6eU, 0x7486837b7f847482U,
  0x73717d7b74757b84U, 0x738181817d767082U, 0x6e6f767b73847085U, 0x707c767a74826e78U,
  0x79816f708370727aU, 0x767d7b7b7c717f85U, 0x736d776d7d6c8083U, 0x6f727c816d726e70U,
  0x6f747c8182757179U, 0x837e826d7d757c77U, 0x83796f8085828380U, 0x786f70807877787eU,
  0x6e7f84707380826fU, 0x7b6d6c7e6e7a707cU, 0x72776f6e847c6f75U, 0x77776f8082707172U,
  0x81797675716d8377U, 0x7671777b7d747a6fU, 0x76757d7d736f6e77U, 0x7d837071747a7a7cU,
  0x7e6f7d76756d787bU, 0x707272747e767c76U, 0x706f817a6e756e72U, 0x827c777476837675U,
  0x7e70797f787b7083U, 0x6e7873746d7a6d75U, 0x7c6c6d766a806f77U, 0x7779737a6f6f6b6bU,
  0x6f7a6e7e776e726fU, 0x777a74777b72757cU, 0x7976706d74807981U, 0x737f7873706e7f78U,
  0x747d69787e737971U, 0x74737e83817f7072U, 0x7878738082706e73U, 0x7e8584757b7a6d82U,
  0x7c8078866f7f7874U, 0x80827f8186767973U, 0x7084717176836f72U, 0x7876787b73738083U,
  0x847d7b7b81748076U, 0x83817873726f7476U, 0x836e7e79726f7d7bU, 0x7e7d6d6c70727382U,
  0x777972756c747579U, 0x726e787478727a81U, 0x72706e7376807c83U, 0x7d717b7070836f7bU,
  0x747275747d7f7b7eU, 0x7f767a6d8173737aU, 0x797b777c6d807a7dU, 0x786d7d8383707977U,
  0x6f797e6d7f727f78U, 0x78807f7680827f7dU, 0x787b6d7372717284U, 0x79706e7d6f767070U,
  0x7c7c72746f71767eU, 0x7682806e7f7a817fU, 0x76737a787a717b7dU, 0x737284706e77707fU,
  0x78827a75797a7279U, 0x6e7a6f747a738378U, 0x7572787d6c7d6b7fU, 0x74816c7f7379786fU,
  0x767b7f777c7f6d72U, 0x76757e75727c7070U, 0x777a8078746c6b7aU, 0x807474808075747bU,
  0x767875846e717672U, 0x7570806e737c727fU, 0x6d6d6c807e78787bU, 0x6c7c7e6e7e6f777aU,
  0x7c7978827a797276U, 0x70707f7370837c78U, 0x6e7c76767b757e74U, 0x7c75827883797172U,
  0x7b79706f7c7e8085U, 0x796e6c6e7a766b6bU, 0x7d7c7b7b7d7f787fU, 0x767f7e8172786d6cU,
  0x7d72817885848272U, 0x77797075736e836dU, 0x7e7a7972756c7872U, 0x767f72748182796fU,
  0x6e6e7e81727e757dU, 0x6d6f708184777783U, 0x737a6e82817b827dU, 0x7978717e767a8180U,
  0x7e7d6f82837c7d7fU, 0x6e7d767483747471U, 0x727880757f816e70U, 0x7572788177836c7dU,
  0x7072767a84817770U, 0x7a7c7e81797b6e75U, 0x706e766f77797078U, 0x826c7c6d7a766e6eU,
  0x757976736c7c6c7cU, 0x7c707a7e71767180U, 0x6c7d7f786f706f82U, 0x7d6f7279817a757dU,
  0x72777c76706d7a71U, 0x81717f6e6a817d7cU, 0x7d7a7f7f78817b7cU, 0x747f7f6f82757278U,
  0x7f6f7e837e7a7e6aU, 0x727a8477847c796eU, 0x73727d7a706d7581U, 0x76726f6b6c75707aU,
  0x79767e746d717c74U, 0x787286757c74797eU, 0x7b7c797383748276U, 0x7f84808584758485U,
  0x7473746f7f7b7d86U, 0x8084828378837e70U, 0x797e7c7474828380U, 0x77737986847a757aU,
  0x7e7384837b817872U, 0x757f8282756f7f7fU, 0x75717f80717d7b75U, 0x717076827a75717dU,
  0x837081797a797d7dU, 0x797d807f6d837874U, 0x7573787b7075837aU, 0x79746d7676837c81U,
  0x708279747d746d73U, 0x83716b767384717dU, 0x7f7e777076747a81U, 0x70786c707a7f707cU,
  0x83727e7f787b7578U, 0x6f7c707f7a717677U, 0x7f7b71747a6c7671U, 0x7a717f707179727aU,
  0x6f71828373808074U, 0x6f7873837d6c786dU, 0x85827a8072757c6cU, 0x7f767970736e777bU,
  0x767e72717d6c826bU, 0x7e6a7c6c6f78706eU, 0x787f77806f7e786dU, 0x7b706f71747d6c71U,
  0x8082736c6d7a707aU, 0x6f7b7d7474796e78U, 0x767274818371746eU, 0x827d6d797d79746cU,
  0x777a817772747383U, 0x847b7a787475767aU, 0x827a7984746e6d72U, 0x757f8483747b7f7eU,
  0x7c6d7e7680747f6fU, 0x727c7f8573837083U, 0x6f838584817d8678U, 0x7c7e857a79827b75U,
  0x6e79847b77817278U, 0x8577887771707984U, 0x846e74717d817385U, 0x747c796e7d708176U,
  0x7a7574736d727176U, 0x7975807072787573U, 0x716d747b6d828177U, 0x6f6d797475788375U,
  0x797572837775757fU, 0x6e797a8373817081U, 0x77767d767c7f7083U, 0x8372737674727573U,
  0x807f6d7b6e767980U, 0x7473827875808178U, 0x818381777474767aU, 0x7e73767073827382U,
  0x77737d817c706d73U, 0x7d797b827674836fU, 0x827576806e727a80U, 0x7a836f79737e7e7eU,
  0x81726e8376707e73U, 0x817c717c6f6f787fU, 0x6f6c7f6d7b6c7478U, 0x747d73786d717474U,
  0x7f76807179797c7aU, 0x806b83786d6c716eU, 0x7683807f6e726d70U, 0x70787481756f7d7cU,
  0x747970837a76767dU, 0x7a7c7b7e6f73777bU, 0x80716a7b7a7d6c78U, 0x767771726d747481U,
  0x70747570817c7e6cU, 0x7c73736f7480817aU, 0x727e8370807e786fU, 0x717d717e7d787d7dU,
  0x8586717186768676U, 0x818583787b848177U, 0x797d70837b7a7e7bU, 0x7d707980776f767bU,
  0x7e8383757b817b7dU, 0x727f757175847077U, 0x7d75757b746c7976U, 0x79807977827e6e7eU,
  0x72776c7a71797077U, 0x7686707b78837776U, 0x767c7b7270727674U, 0x70717e6c75787778U,
  0x727a747974707477U, 0x7075806e7d7a8278U, 0x727c7b7075807774U, 0x70797f7778797377U,
  0x7d7e7d7e6d7e7f72U, 0x6e806e73827d756dU, 0x71798480706e6d83U, 0x767a70776e7c7178U,
  0x6d7f79846e6c7b80U, 0x7f7472786e84807fU, 0x7073786d7675807cU, 0x757e776b806e7a6eU,
  0x7f716c816c84827fU, 0x6d7a74807b71786eU, 0x787e8182757c797fU, 0x7684727f716d7180U,
  0x6c6c706a72837276U, 0x796e7c787076797eU, 0x7c79846e76738074U, 0x787a7c806e6f7973U,
  0x6f7d736c807a6e6eU, 0x787e7b74836e7a83U, 0x78726c7c836f767eU, 0x808182717b7c7983U,
  0x7c85837180808177U, 0x7884797c71828374U, 0x7d70816d79847680U, 0x827f767d76727382U,
  0x76747984757d726bU, 0x7c79837d82757582U, 0x8172837c7280787aU, 0x736f6c8276707e6cU,
  0x7c767f8277737971U, 0x7b6f6c787b6f7e76U, 0x7d707d7e7578776fU, 0x7d6d6c747881787bU,
  0x717e8073707a8277U, 0x737b7a7b7080717dU, 0x7b7e757b7b76757cU, 0x817f7780777b6c77U,
  0x82837f777d797680U, 0x767d797b7d727177U, 0x6c767378706e7078U, 0x7b7e7f7c82737a74U,
  0x6e7971777978746dU, 0x7871826f7572767eU, 0x7a7a8573756f737aU, 0x84858376757d707eU,
  0x6f6e77717e6b777dU, 0x70767d807b7e7a80U, 0x727c757b7b7f816cU, 0x80756f8575848279U,
  0x6c787a7973757e79U, 0x6b737f73707b7e7dU, 0x7d777a7c6e7e846cU, 0x6f7175836f807877U,
  0x7f706f7d80828475U, 0x716b7d7a75787083U, 0x71847e7f7d7b8078U, 0x81788378747e6f70U,
  0x8286797b7d777471U, 0x857c7185867b7571U, 0x74757e777f707c73U, 0x737f6b6e71847c71U,
  0x767583727a7f7082U, 0x77837481847a8375U, 0x7b737b7b75847d71U, 0x7671717b7d7b8177U,
  0x777e7d7378847d71U, 0x6d827e747a7c786eU, 0x6c837583796f8173U, 0x73727a7d766e6e6fU,
  0x7b8070728176757aU, 0x7e777f8070726d78U, 0x717e70836e757079U, 0x7f7b6d7d6f78736dU,
  0x7e7b827d75716d70U, 0x77726f7d77756f72U, 0x717d7675756e6f6fU, 0x73827378827b6d7bU,
  0x7d74827c76706f7eU, 0x837c7e777972756fU, 0x7e737d7377768070U, 0x6e76837976717f7eU,
  0x84707470817d7a71U, 0x7578848482848372U, 0x76797f80717f7c7eU, 0x8078716e7b82746fU,
  0x7375747674708179U, 0x717e7b827a738182U, 0x806d7e717382757dU, 0x6f7a717a6b707b76U,
  0x75827d7a71756f7aU, 0x7c7c788475737173U, 0x6a6d7d7675757977U, 0x8280707374727072U,
  0x8175847071827971U, 0x8171778881717877U, 0x6d7e7f7970717380U, 0x7f7b7f827d797b6dU,
  0x8383748280867a7aU, 0x6f848078846e7e6bU, 0x7e7a767178757f70U, 0x7b8577727c6d757eU,
  0x828171797a72857dU, 0x806f6d7280726d78U, 0x6f7c786e7e72797aU, 0x8275836e7173756dU,
  0x7c837a707472797eU, 0x837a73837f7f7e73U, 0x82837175707d747cU, 0x7c766f82767e7c6fU,
  0x7f737d75726d8180U, 0x726f767e6d828076U, 0x78807a726d6e8176U, 0x7283747a71837a82U,
  0x757f6d847c7f8178U, 0x807c738070837680U, 0x7384807c71717d6eU, 0x76847d8379847480U,
  0x76777c7f72826c72U, 0x7e727980857a7880U, 0x806f7d6f847a7f82U, 0x7b756f7b70707673U,
  0x736f767a79797d79U, 0x787180718274757aU, 0x787f7877807b8182U, 0x708173756f717076U,
  0x7771727170737684U, 0x7675706e6d6f6e7cU, 0x76717a6c7c797b6dU, 0x7c7e73716f768080U,
  0x7c73707b6a75786cU, 0x86846f7a8273797aU, 0x6f777b7477818082U, 0x6f81757b84777c71U,
  0x7f717e74787a7880U, 0x82727b786f727f79U, 0x73706f797b827f72U, 0x75718080817a797aU,
  0x7f757a7f817b7e7dU, 0x797480797c827979U, 0x79836d7877847577U, 0x6d746c73786e7679U,
  0x7d786b73796c7f73U, 0x817a6e757a737674U, 0x78777877737b7c7fU, 0x777a6f797d767f70U,
  0x7881708079778375U, 0x81727d78776e8073U, 0x80796c827884786fU, 0x707271717c737679U,
  0x707f717e7a6d7f78U, 0x83857970747f7874U, 0x6e757e6e73778471U, 0x7081757376827d82U,
  0x8173807d747d7f7aU, 0x757e7c7d817b7080U, 0x85757b7f73736f6dU, 0x707d7970767a776eU,
  0x7d71847e827a6f70U, 0x777e806e82807480U, 0x7f6e827e6f7c7e75U, 0x717f757c82847170U,
  0x6e7d6d6a7d6d8172U, 0x73817f75716a7073U, 0x777984757a757b6bU, 0x7c7e817677717683U,
  0x83747a807e7d7776U, 0x77707b736e6e6f75U, 0x7a7684767c6c7b72U, 0x6e84817f78806f77U,
  0x837c6c8282807782U, 0x827d6e797585817fU, 0x8282816e7a7a8176U, 0x7b6c7872827a7b7eU,
  0x7c7087877f828682U, 0x7e71787c71717180U, 0x80776f8071807a6fU, 0x74807877837c7474U,
  0x7076786f776f727bU, 0x6e7c7271807f7b7fU, 0x7b807f6e6f706b75U, 0x76796f827376776eU,
  0x7371776e767a7377U, 0x7c787a7f717f7675U, 0x747a73786e6d826fU, 0x7d79838079817670U,
  0x6d7a776d7e747a80U, 0x7b7e7f806c7b7f72U, 0x817b787c7077787cU, 0x757a777f7c7a7175U,
  0x74797e8071748071U, 0x706d747f7370817aU, 0x7f75707073776e79U, 0x6d807a7a7c6f787cU,
  0x757470747d7f6f79U, 0x7d78737c7c727b81U, 0x6a6d70778181737dU, 0x7170817975707a6aU,
  0x7d82787077707179U, 0x737b8379707d7d6eU, 0x717f756e787b7970U, 0x767a6a796f7d8371U,
  0x80707a6d757e7977U, 0x7e797d6c85826c76U, 0x7a6f7a728071727cU, 0x6d77787471777c7bU,
  0x8370747c7180767aU, 0x867a827675797173U, 0x6d7679717f787381U, 0x767c778472787b6eU,
  0x85767d7a81858379U, 0x8880827c776d6d73U, 0x72717c728572777fU, 0x82787a82776b797aU,
  0x806c76747a7b7b78U, 0x777c72817672777dU, 0x726d6c6f70817f70U, 0x76767f6d72817f70U,
  0x778272717c7d7976U, 0x6f82757b82836f7aU, 0x6f8074837a83827dU, 0x837b70767a828270U,
  0x7f7c6c827c83777fU, 0x7b78777a78718283U, 0x7a736f8077757972U, 0x7c6e6e716d6e817bU,
  0x7c7d7f796e848473U, 0x7d80727e807c846eU, 0x816f827d7f6d6e70U, 0x837f827978827b83U,
  0x7c7b817b7c78837aU, 0x82777477847d6c7eU, 0x8482837280767c73U, 0x787f7b7c807c727dU,
  0x777170776b7c7c84U, 0x72786d707e7e7e7eU, 0x7371797c6b827278U, 0x6f7d7e7e836e7b7aU,
  0x6e716b736c6c6f7aU, 0x7f7274838377797bU, 0x78837880836b7f7dU, 0x8371797e846f7677U,
  0x7e716f747b7b7376U, 0x73727c6e827d7e6cU, 0x8485807a8482747bU, 0x76828381706d8382U,
  0x73767f7d76736f75U, 0x718284747a807b7aU, 0x7a737e81847d7685U, 0x747c768382847282U,
  0x757a6e7b706f7b78U, 0x7f7d7c75827a7674U, 0x7274717f807c8077U, 0x7d84807f817c7183U,
  0x7b767c7277796b6eU, 0x7e6c807c7a7e7976U, 0x7c7d6f72767c6e7fU, 0x7876787b6f827580U,
  0x7d7773787272766cU, 0x83796e7b7b7c7c7aU, 0x7d6e7c70816d7770U, 0x707a706d7e737b72U,
  0x7a756f77837d7476U, 0x74806d747d7a7e71U, 0x7b7c71777d756e81U, 0x7271848074798171U,
  0x766f828383708376U, 0x76807b747a7c7974U, 0x7f76716d777c6f77U, 0x7d6e78787f728074U,
  0x7280827e8073757aU, 0x74757a7d6e737572U, 0x7e6f7b7b6a6b6d82U, 0x786c7b7681707573U,
  0x707f7a7e717a7276U, 0x6e6f717a7a6c7c81U, 0x8272707371776e71U, 0x847c847a7981777cU,
  0x7f8380747979837eU, 0x83807d7e817e777bU, 0x6c76707d6f71807bU, 0x7b8376856f7c767aU,
  0x717f78757b757082U, 0x757d7f7f79798175U, 0x7d6d807f6e76807eU, 0x7286857b7a7b7b76U,
  0x7a7e828577838072U, 0x7c7973707281736fU, 0x7a747a79726b6d77U, 0x75847f807578817eU,
  0x846c777c816e7575U, 0x7e72807c6f7d816fU, 0x7f70827373737c77U, 0x767f7173836e787fU,
  0x7d7a818471727a6cU, 0x72747a7a7b83717aU, 0x7671766e81827083U, 0x7a816e827d7d7a83U,
  0x6e73747284788170U, 0x7c746c786d7f817aU, 0x8376726f8282756cU, 0x8275707282827677U,
  0x6f7c7283727b7681U, 0x777c82847b847475U, 0x767e78767e7e7575U, 0x806f6f837c7d797aU,
  0x7e72837f83767e83U, 0x777f7c7f70816f77U, 0x6d78796d7f7f6e7cU, 0x7b7a7e7d7671727dU,
  0x6e70807b6e6f6f7eU, 0x7e807376816c6e76U, 0x7c6e7b707080727eU, 0x806e80837175716cU,
  0x6f707e777a7a7c71U, 0x6e8575848180777cU, 0x826f727a7d6d7d80U, 0x757d75746e7d6d6fU,
  0x79817b787b748275U, 0x6b7a7e777a7a8280U, 0x777071748378797cU, 0x7f83707670828075U,
  0x767f777f796d7177U, 0x7a80817572748274U, 0x7a837c757f727a80U, 0x76787774727e7e76U,
  0x7f7770717a6f727aU, 0x7670838478757f7fU, 0x7f6d7a7380767a7cU, 0x7780767a7972766dU,
  0x797079776e6f707aU, 0x767e6e717b757f76U, 0x807573807e6d7d73U, 0x7c75806d7f737a81U,
  0x727e797972767f6eU, 0x7e80817d7e7c7275U, 0x7d796f727d767270U, 0x6e6e7778816f796dU,
  0x72817e7173737883U, 0x808080827481827bU, 0x787f798074767d76U, 0x7f827c7b7c7a796dU,
  0x7b75706e817d837fU, 0x727a7a71727e766fU, 0x6d7b7a767681736fU, 0x7c707e777e6f7982U,
  0x797d7e6f72846f7eU, 0x767b7d71717a7876U, 0x736f8077777f6e7eU, 0x766d726f6b716e79U,
  0x80777c7d77727d6cU, 0x83847f7b837f6e72U, 0x837571837a717977U, 0x7974826d75797871U,
  0x84777b70787c7781U, 0x737577757283707aU, 0x7979747781747c72U, 0x757a86757c798170U,
  0x7e7e7c797d6d777eU, 0x83747c7d757d8384U, 0x73727d7085707870U, 0x847a8377737c836fU,
  0x767a727481837584U, 0x7773796e7e707d71U, 0x7e7e7f7082818282U, 0x71826d7179717c76U,
  0x757d7d8078816b74U, 0x736f72736e71747fU, 0x7a777c737175707aU, 0x6e7a7f6e7072777cU,
  0x7577826d74716d72U, 0x73807f7a7e727078U, 0x757a83747b6d7b7fU, 0x827e71817d788170U,
  0x757c757b757b6d79U, 0x7c747b7b8379767dU, 0x746c7d7a7b7a8070U, 0x727d6e767e78736dU,
  0x7a847f7778746e85U, 0x7d6f7b6f8179786eU, 0x8276738475816d6dU, 0x84846f8471777a78U,
  0x6f6e6e7b72787c78U, 0x707a73737e7d757bU, 0x71836d7271807a6fU, 0x7f756f7e79827f70U,
  0x7471787c81727f77U, 0x807f806d826a7370U, 0x73736d70816b7d77U, 0x817b7a807a7f6e81U,
  0x7d767b737d817184U, 0x8375787b81707a7dU, 0x827b7b7b73798076U, 0x7883827780818176U,
  0x717a7d8183767f7cU, 0x7579797180708380U, 0x806f838278796d7fU, 0x757c7c8370818173U,
  0x7d847a80786b7f74U, 0x7e7d746f6f816f7fU, 0x6c7c747b7c816d76U, 0x717c767c6d757583U,
  0x73746f737b707c79U, 0x7e6d7e776c767f74U, 0x70776e6d6f6c706dU, 0x727c7b7c6d826e75U,
  0x7a7c75757772787aU, 0x7880838073746c7eU, 0x797572756d808275U, 0x776c817b77787c77U,
  0x7b7b7f837a7b747cU, 0x70747570766d797eU, 0x7d837f6f7271706eU, 0x857a6f7284817a70U,
  0x6f8474757b76747cU, 0x78707f7d6f79777dU, 0x796d6e7d707b7171U, 0x807e7f7f7d807b7eU,
  0x7375847d817b7372U, 0x7271736e79818078U, 0x7f827d807373846fU, 0x73718379797c7c6dU,
  0x77797b7e7477767aU, 0x727e817372766e7fU, 0x717e6d8078827377U, 0x81706d6c75767382U,
  0x757b6d807e777275U, 0x81817e7474717f6cU, 0x7c83707f747d747cU, 0x776f6f798079727eU,
  0x787e718076767677U, 0x757a827e72708286U, 0x7576808172847372U, 0x7e7d7b6f70727383U,
  0x7376727d74707e6fU, 0x7879717c757d7e71U, 0x746e7e806f7a767bU, 0x76757385747b6f6eU,
  0x6d787a7f77777880U, 0x7d6f7c7c77817372U, 0x7a776b7c796c8078U, 0x7a7376816c6d6c71U,
  0x706c7c7481716e71U, 0x837c6f7077817275U, 0x846f817a817a8074U, 0x7f837f706f757a75U,
  0x7a827d7072748081U, 0x75758176736c797cU, 0x7f7882817f718383U, 0x79727f727e807b71U,
  0x7c7b7c7174756e70U, 0x7f70708380847f7cU, 0x7c7b717c7973827dU, 0x7f7d787e72786f7cU,
  0x82816f6f72796d84U, 0x827c7471717c797eU, 0x73827d84786e827fU, 0x7f74817d7d71737bU,
  0x797874787e6e7d7bU, 0x7379727683777085U, 0x82767e7675838371U, 0x766f807e70787e79U,
  0x6d787b807578787eU, 0x737a7683707e7b79U, 0x807f6f6c7a737d73U, 0x70757d81746c7b6fU,
  0x726e797f7775717eU, 0x7c84777384747683U, 0x787e7e757c857878U, 0x7a6d768382778472U,
  0x8473757c777d7c7eU, 0x736d7d836e817c75U, 0x7c807c7175737970U, 0x6f83727283758585U,
  0x6e7677717f83826dU, 0x6b6f6e757e806f6fU, 0x6f8180717e7f836fU, 0x6d806f716c7a6c73U,
  0x6d707973797d7972U, 0x707f7374706b807dU, 0x78797a8371777875U, 0x7f6e726f6d7d7a7eU,
  0x7b7376837384847eU, 0x7b747c78806e707dU, 0x7874837680827780U, 0x8070707c7c6e7f7eU,
  0x7c77788078817782U, 0x7271807780707d81U, 0x78707874737f6c70U, 0x7c78817175726e74U,
  0x7672707b776d7a7dU, 0x79837f837371717bU, 0x7b8070787a806d72U, 0x77797981727a737aU,
  0x84707a77817f7683U, 0x6e6f827a78737a6eU, 0x7679837a78707082U, 0x7370746f75836e7cU,
  0x797c7681766b8278U, 0x6f717b847484837aU, 0x7a7c847e78757a7dU, 0x78797b6f80728281U,
  0x7f80787d817a7d73U, 0x8475757984757c7eU, 0x8280857f71827678U, 0x788078738078847eU,
  0x7d757c8672737772U, 0x8071707181797773U, 0x7f7f72827984797fU, 0x6f707e747b806e73U,
  0x7f6d7a767f727881U, 0x81807f7d71718185U, 0x84797481797b7184U, 0x817478806e7f7580U,
  0x77786d6f7a6b8076U, 0x7f6d7b7d797e6d6fU, 0x727f826e6b787780U, 0x70797a837c768071U,
  0x7a6f7d817f787c6dU, 0x7971747471827c6dU, 0x7973777976827d70U, 0x778071727a7f8272U,
  0x7b747a7877726c76U, 0x797b6f7579766e71U, 0x6f7e7b726e707b6fU, 0x736f787471707277U,
  0x847e777f817c8374U, 0x7f82806e717e7082U, 0x707e7f6d7783777dU, 0x7c706d6f82838072U,
  0x6e70817b797b7c81U, 0x7775797b80768174U, 0x77807f827b7b6d73U, 0x6c737074787e756eU,
  0x7e84756c797e7374U, 0x827b75777b807971U, 0x7674807a7c84747bU, 0x7970806d7681737aU,
  0x797d6e7b7a707b72U, 0x807576738183827dU, 0x7983716f84717584U, 0x7b7479727f7b7782U,
  0x7784818180838076U, 0x7b7870857a76847bU, 0x748271807d768278U, 0x857675796f7e8085U,
  0x7a76857872857b6dU, 0x7e737a7a797e7670U, 0x7773777f716e7573U, 0x72706f777e758081U,
  0x7a7a7179737f6b82U, 0x7c6c75727a817b7bU, 0x7d7f706d817d6e6eU, 0x6f7a727080788375U,
  0x6d6f758071767f7aU, 0x7d7a837070808481U, 0x827473796e737a75U, 0x7480786c7e787d75U,
  0x816e738375707377U, 0x79786f6f71717670U, 0x7b7e7f7482776e79U, 0x7a6c7e70717c7180U,
  0x827c6c826e7c6d6fU, 0x807974707e7d837dU, 0x6e70787d73847c6eU, 0x80767e727877827bU,
  0x8372777e81707f75U, 0x7073827683757776U, 0x786f766f807a7875U, 0x70797d76746e7970U,
  0x75717a727c7e7571U, 0x767e777579746d6eU, 0x6e806d777f767970U, 0x6f737582817d747fU,
  0x6e7b7e7a716d8474U, 0x7d83727e7f7c7372U, 0x7a76836d7a7e7a7fU, 0x7b79756e6e766e79U,
  0x748276787c728478U, 0x7b7681766f6f786fU, 0x8370848271827776U, 0x826f7f7f80788379U,
  0x79767c7577757a7bU, 0x718184806e797977U, 0x707a7e84726e8276U, 0x7881856e7c79707eU,
  0x6f7f7d72756c766fU, 0x6e6c777b757a7373U, 0x7b707f746b837b80U, 0x83816d7e7070766bU,
  0x6f736c6c8376706cU, 0x7a7c7c6d76717e6dU, 0x797f6d6f757b7276U, 0x777e7a756d77747bU,
  0x6c6f786e716f7872U, 0x7e777f6f6d6c7671U, 0x766e7f6e75707670U, 0x74776c747e807074U,
  0x6f7c6e7b70767d6cU, 0x7b7c817c6e747277U, 0x75837075746d7582U, 0x6d817f77777d7e82U,
  0x71727d837b6f7d72U, 0x7f7e827373726d7eU, 0x80717d83837b846eU, 0x7b6f806f8077737aU,
  0x767876708180786fU, 0x70817e756f837879U, 0x827e747e6d766f84U, 0x7c7b8183836f7c74U,
  0x716c706f6d776e74U, 0x74827480717b767bU, 0x8374786e84778078U, 0x7175766f70756e83U,
  0x707184807e76747dU, 0x827183797e737d72U, 0x7474817476737c7eU, 0x827f7b7e757c7a85U,
  0x746f8278807b7a83U, 0x73727d7f7579817dU, 0x817278717d6f8283U, 0x736d707d74847a7dU,
  0x757b7977827f847cU, 0x78807179767d737aU, 0x837c7d7f827b7274U, 0x797581747d7b7a6fU,
  0x7a7e70747a7c6e73U, 0x6c6c797a826f7071U, 0x717573727c708174U, 0x82797d8272737e72U,
  0x73727976707d7e7cU, 0x7976727b80777b6eU, 0x766e7e6c737e787eU, 0x72727f826e737681U,
  0x83827e75797e6e70U, 0x83777781796c7473U, 0x826f726e74767c76U, 0x777f7677816e786eU,
  0x7d726f796e757881U, 0x84817a7c7e767b71U, 0x6f6f7f6f84797671U, 0x806e7b7a8278817dU,
  0x716f787b6f807181U, 0x838184787c777d82U, 0x6f6d7c748374706cU, 0x74846f717d817474U,
  0x7975727d797a6e6dU, 0x7d7b727b776f797bU, 0x768174706d798080U, 0x7b706f7779797171U,
  0x83707d77757d7984U, 0x75767f6e7d807c81U, 0x8475798380838483U, 0x7b786f7c7b7e6f70U,
  0x7e7f727e81727274U, 0x706b6c7a6e766f82U, 0x75767a857e847e6dU, 0x747d7a857b7a827dU,
  0x847e73787874787cU, 0x7776767775728079U, 0x84766e777f847685U, 0x75737c6e776e7a6fU,
  0x7273846d7c767681U, 0x746d817077736e72U, 0x6e6d7173747d7d78U, 0x6e71757c76817570U,
  0x75767b7081828076U, 0x72707f747a76806cU, 0x70777a807d717879U, 0x7f757a7778748380U,
  0x7f7d74806e6e7c77U, 0x6d797a736b7f7b7aU, 0x76766f8372837a70U, 0x7372837180767c81U,
  0x74807d7c776f706eU, 0x79787878817b7982U, 0x78737e83767b7270U, 0x82736d7878716e76U,
  0x7480787d777f7b7aU, 0x737f81716d7b827fU, 0x74777c7c74787b7aU, 0x737c767f7f76757bU,
  0x84836e6f73758378U, 0x7078758283758179U, 0x84797a73847d7681U, 0x71777b73817b7271U,
  0x73817c7772797078U, 0x6e6f728380848274U, 0x807c7282737b6f77U, 0x7a7a7b846e707e7eU,
  0x7d7b7c83837a7a7bU, 0x6e76706e747a7f80U, 0x738083786e716e78U, 0x7f76758172728078U,
  0x7284736f8273787cU, 0x82757a827082707eU, 0x70846f8378706e70U, 0x707a758074717073U,
  0x72787d81817b7a80U, 0x8284847e71827776U, 0x7a6e70777c6d7870U, 0x7b737979766f7879U,
  0x7572807e786d776eU, 0x8178766c80757e7aU, 0x7f7b8181797d7973U, 0x806e7e72817c727dU,
  0x7b6e737e707a7372U, 0x727e6d7f7c7d837fU, 0x6e7283836e70726cU, 0x767d787e817b6e7fU,
  0x78717f6d6f758070U, 0x797c7274777c7672U, 0x7a727b807a75787bU, 0x776f7b797775707aU,
  0x7f6f77837e727d75U, 0x7a7d7e758283717dU, 0x7178737b7d757a7fU, 0x757575787d7e736eU,
  0x777a6d6f71738581U, 0x76766f8071848478U, 0x7c7b767d827a7280U, 0x8377837474816f75U,
  0x777b80727382736dU, 0x7e8082847483737fU, 0x7c786e75727d7c82U, 0x7382847776777b83U,
  0x79778370726d7384U, 0x72766e8071837177U, 0x826d728370746d6eU, 0x777a797b76818174U,
  0x7177787181787583U, 0x6f7779797e75806fU, 0x7d7e737d74737b76U, 0x7b737071737a7071U,
  0x7078728375717f70U, 0x7b738376816e7d78U, 0x847e72797c79717aU, 0x7673726e71776e83U,
  0x6c6f75717f747b79U, 0x75826f7c8270737eU, 0x7d6f7280786f8072U, 0x78787581796f7f70U,
  0x6e76747f83737875U, 0x747d8374737f7674U, 0x736f7c6b6c6d8071U, 0x6c6e816b7e6c7974U,
  0x7b76717a7e827d7bU, 0x6d7b77817e746e78U, 0x7a6e787c74717283U, 0x7c6f787e806f7b74U,
  0x73817b787c707c72U, 0x7173707170837170U, 0x747270737e777f72U, 0x717a767f76807883U,
  0x837b7d707e707b74U, 0x7e76747576857b74U, 0x737b7a7579746d7dU, 0x718281817c7d8477U,
  0x7e728074757f7971U, 0x727984777d757477U, 0x776f737682737782U, 0x7a80777478788172U,
  0x737476727880727cU, 0x718177857d718174U, 0x747a837f76807d6dU, 0x7079827e77786e80U,
  0x6f7b7a7b817f8175U, 0x807c7d8081808476U, 0x7b7c78717f837a74U, 0x6d7172707683817aU,
  0x78826d7e7183776dU, 0x736f6d79717c6f71U, 0x7473746d83826f77U, 0x7f7571717275837bU,
  0x7f717c79707a7d80U, 0x8374826d787e7b7fU, 0x71836e7d6e7b746cU, 0x787f8077767b6d80U,
  0x8080766d79798274U, 0x8071796c7379837aU, 0x8270787b82787a78U, 0x7f6d8075716c6e72U,
  0x727b7882706e7079U, 0x78836e8070756c7fU, 0x6f7e7b7479748271U, 0x7c806e71756e706dU,
  0x7270797d7773797bU, 0x827677746c787f7eU, 0x74797c727c797f73U, 0x78707d817f81747eU,
  0x7975767a71777c6eU, 0x726c78776d7e7b6eU, 0x7a7373717880756cU, 0x8477767772827f75U,
  0x767f757872797571U, 0x6d777e7b7a7f826fU, 0x6f787b7c706e6d76U, 0x7d82707080807075U,
  0x776f737a716d7076U, 0x7e726f6f837b7b76U, 0x8279738470816f74U, 0x8380787e7c73827fU,
  0x6e7079797c817f76U, 0x79776e787e717971U, 0x6f7574756d7c7874U, 0x7473816f7082737cU,
  0x7376827d80716e76U, 0x83726e828276737dU, 0x7c6d7f7383727b84U, 0x7081758176728180U,
  0x7f7f786e74837a81U, 0x7f787882727f7f6eU, 0x78827a7d82828374U, 0x7d7f78817875756dU,
  0x757e7f7377707d6dU, 0x7a7f71777380776cU, 0x7c7c6f8174747675U, 0x7d6f7e807e767d7eU,
  0x81766f7f7578836eU, 0x777a7c81707b837bU, 0x7381756d6f787975U, 0x77736e736f7a6d6bU,
  0x7d7976747f6f7077U, 0x7483806d7a777b6fU, 0x707c817d7c6d7078U, 0x82767f7e6c7b816cU,
  0x7e777773777d7d70U, 0x7e73756b6d6f736eU, 0x74847e72836c837aU, 0x837d78806d817777U,
  0x6f767b75716f7e80U, 0x7481817d86727e78U, 0x77747f8381808479U, 0x6d7e747e83807f7dU,
  0x727872718378727bU, 0x7177717d8470787eU, 0x7a82777972778084U, 0x847f7f7c737e8483U,
  0x7478796f7c6f7b76U, 0x7f7e7d78737d7772U, 0x737b79726e768477U, 0x746f7b7b6d7a7482U,
  0x83766e8480777584U, 0x7d73807c7d6e6e83U, 0x7d7b767474738083U, 0x83777b726c768170U,
  0x7976786b77717a80U, 0x6d7372827e717382U, 0x7e84757a6d776e7dU, 0x6d7c6d8083727572U,
  0x6f7a8176787e787fU, 0x7b7f6c6e817d7d6eU, 0x7b6d7d757f848381U, 0x787f78816d718174U,
  0x83728475846e847cU, 0x807d7874756d7682U, 0x728183707a818383U, 0x6d6c8281707a6d6dU,
  0x747a80757a748283U, 0x76747a7f707f7b7eU, 0x80746e6d777c7676U, 0x8074807f72737a6eU,
  0x8179716f7d777779U, 0x727b7d6f78736b7cU, 0x7578817971776b7bU, 0x826e8072786f7c76U,
  0x717c8382847e7c6fU, 0x6c79757e777c806eU, 0x8174767276747b7eU, 0x84817c7d707d7c73U,
  0x83716d8074776d85U, 0x7c74738373807a81U, 0x736e786c807b7673U, 0x7d7d788483727f6fU,
  0x80767f6e82828170U, 0x7f727a7a83808078U, 0x76807c7f7d77807aU, 0x84766e8479787c82U,
  0x766e777f717b7d72U, 0x707b80757b747380U, 0x7c7c777e7183837eU, 0x827f7e807179777eU,
  0x7b837980777c7279U, 0x736d6d837571836fU, 0x807582816d757478U, 0x6e7f787d7f717579U,
  0x7a717d74727a7d77U, 0x787d6f73757a7d79U, 0x7082737b7c817b74U, 0x7382777f7f716e7bU,
  0x7c7880737e75737bU, 0x73816e7c747c7f80U, 0x8076738070827380U, 0x72787c826e81727aU,
  0x717a77707b7d7773U, 0x74776e79816e7171U, 0x7576737c79786f6eU, 0x7374727a816f6f70U,
  0x806d7179727b7e6fU, 0x7e6c756e7e79767bU, 0x70827181836a6f7eU, 0x786b7c7e7172737aU,
  0x6e816d7c8373807eU, 0x7780796d816d7773U, 0x748479787a757079U, 0x817175706d7b7581U,
  0x7a86807c7e6c6f81U, 0x706e797971777975U, 0x6f7e80757f787479U, 0x7278797073747f81U,
  0x837e7c747e7d816dU, 0x81736f6f736e7f76U, 0x757d797c807e837bU, 0x6d6d787280708070U,
  0x6f81817b6d6e7e79U, 0x7873717877798081U, 0x6c797584757b7f81U, 0x7d837a7d797f7a81U,
  0x818075777b83797aU, 0x837281767c6f7d6fU, 0x7d827b786f7d767dU, 0x7d72777c716e6f7eU,
  0x71776e736d787a76U, 0x7a75796d73787b7fU, 0x8475766c7c837373U, 0x757f747183807878U,
  0x847c826c7e797a6fU, 0x7f75717a737d7770U, 0x7b70766d6f7d767dU, 0x6d737c836e727981U,
  0x7a7f74727077797eU, 0x757b727981778282U, 0x8174787271717d7eU, 0x8182717775717679U,
  0x736c82777d706e7dU, 0x7678837375796e7eU, 0x7e786f717d7a6d6fU, 0x717d75717f706b7fU,
  0x747f73787d7f717bU, 0x817e726f6d6c7a75U, 0x6e707f747c817b70U, 0x7d786e6d72847a74U,
  0x747575757270746dU, 0x797e79806f797f73U, 0x817d837c7a7c746fU, 0x8485817e7e7d8376U,
  0x7983836f7380726eU, 0x7f757370807f837bU, 0x716e778071836f7eU, 0x80817d76847c7073U,
  0x6e737a6f7f6e6c7eU, 0x7e8378787b728475U, 0x7b6f6d7d6e7b7a7eU, 0x837c6e7b84826e84U,
  0x7f706c6d71836d7eU, 0x78727c7b74776e6eU, 0x7878797f7c7e747aU, 0x74747f73837a777cU,
  0x776d7f7c7e7e827dU, 0x796c777f6f6e7679U, 0x6d73777d6e847980U, 0x727b8078847c8174U,
  0x70776f7877777d73U, 0x7e738178836e817fU, 0x707e737d78748074U, 0x7377817f7f817e73U,
  0x6e7b7a8379737778U, 0x7d7880757f767c76U, 0x6b767d7b737f737dU, 0x818171737e737980U,
  0x80706e796e6e7c76U, 0x717e747c777d7a6cU, 0x717071727e7f836dU, 0x79837e7c70747a76U,
  0x817a78767e70747eU, 0x717575816e807e75U, 0x6b7d80787f797777U, 0x797d70777e7d706dU,
  0x796d727a76717975U, 0x6e7f807c83737775U, 0x7d727d8383777a76U, 0x787e7d7f7b817580U,
  0x7e7b7f84726e7b7eU, 0x6e7875837d737774U, 0x6d7f827b6e847b85U, 0x737f6f7d727b6f7aU,
  0x77747875807e7e6eU, 0x7c76758279787273U, 0x6f6f74736d81817dU, 0x7c716e706c797c6fU,
  0x7479736e797f7477U, 0x6d7b7381817d7a77U, 0x72828079786f717cU, 0x716e767b7e82797cU,
  0x75827a7171797074U, 0x6f73778270757c83U, 0x747a6d6f707f7d75U, 0x80807483817d8280U,
  0x73787c748176807dU, 0x7f71716e7c71757fU, 0x7d717e7c7a7e8378U, 0x76807c826e807c6eU,
  0x6d768083707c6f80U, 0x7c82717b827a6e81U, 0x7e837d846d7e796fU, 0x6b7b7a6c7878817fU,
  0x817b7c767b6e7e74U, 0x7d81816d6c7e806dU, 0x6e787d72727c7c7bU, 0x7075717d8274807dU,
  0x786d80827e6c7576U, 0x767c756c79787d7fU, 0x6f7d6b7b73778171U, 0x766e7c807d7c807fU,
  0x70747e6f787d6e76U, 0x8074807f827e7371U, 0x787e6f76827b786bU, 0x7c856d82777b7081U,
  0x6e71727b7e73807fU, 0x6d82797972807470U, 0x778672857185726fU, 0x747b836e7b857b7aU,
  0x7d76728283708080U, 0x7f77787379787a73U, 0x757d7c6e746d837fU, 0x6d707b7f83807074U,
  0x6e76707f757d7880U, 0x81837e707e767c6fU, 0x7e7d6e75787a786fU, 0x6d77777a756d6e77U,
  0x77776d7f7d727d7fU, 0x717978836f81747fU, 0x806d6f726c846e71U, 0x7c8271796f70706eU,
  0x786f7a827f7e7972U, 0x7f7d787672807470U, 0x7974737d7f717d70U, 0x84836c8474757884U,
  0x8270837075817d79U, 0x707a777870837b81U, 0x7171786f796c6f80U, 0x7875747c7f7a707fU,
  0x7278738071706f7bU, 0x76777e706f777e6dU, 0x76717a717970817aU, 0x6c817a7071737d72U,
  0x746f787b8076817cU, 0x7b736d6d75767472U, 0x7f6f827d83708178U, 0x806b736f816c7c7fU,
  0x6e6f7d717d6c8381U, 0x797f7f7683828172U, 0x7d7270766f7e7f7dU, 0x7f827881767f7479U,
  0x7a7a737f7e6e6f7bU, 0x797d7f7f72776e74U, 0x798284766f7a7782U, 0x836f81807170777bU,
  0x757e7e7980717582U, 0x6f7c7f70837e7276U, 0x7a79748071707476U, 0x81847871827d7b84U,
  0x8276777f7e747e73U, 0x75796f6f727f8278U, 0x6e72797477817072U, 0x6f837d6f76777d74U,
  0x706d7e776c7b7573U, 0x6e75736d70767072U, 0x8175818474727c7aU, 0x737079747083766eU,
  0x7c707a6d6d6c7883U, 0x6f7c756f706f7874U, 0x7e6c71817c747474U, 0x706d6c707a83796fU,
  0x82786e7273776f7cU, 0x7f6f82707d6d757aU, 0x7f7e798272777483U, 0x6f7875827c787e83U,
  0x807c6d78747f8179U, 0x7f82837270837d82U, 0x71766e7379787683U, 0x727f7571707e7473U,
  0x71837b7773716f7eU, 0x7c75807276777e6eU, 0x776f7e807f6c6c82U, 0x83787a8173808083U,
  0x7a82727575746f7aU, 0x7d737776727b6e81U, 0x7b6f71787979737cU, 0x8279726c6c7d717bU,
  0x77737c766c828180U, 0x757f747075767876U, 0x707a787080727a76U, 0x7b7e7b6d7f717271U,
  0x8171806f82776e81U, 0x707b73706c766f80U, 0x737b707e7e7d817bU, 0x827379787b79727eU,
  0x8177837c81747b79U, 0x8177788376788070U, 0x746e6f716e788275U, 0x796d808277797673U,
  0x826f717181756d75U, 0x776e7f6f7a818379U, 0x84837b7e71778075U, 0x6e82818372847b81U,
  0x836d7e7477837b7fU, 0x7c7180717878776eU, 0x7072797c797b787fU, 0x8173757e84717873U,
  0x78706f7873766c7dU, 0x6e79817284817b77U, 0x736d6c8478717e75U, 0x7d80797d72738375U,
  0x7c81826d6e6f817eU, 0x7d73766c6e777079U, 0x7e6f6d7080707375U, 0x807675767d7b817bU,
  0x82776e6c7e837c82U, 0x747272787c746d7dU, 0x707c71717a827381U, 0x7071787877796e7cU,
  0x737971827e7b6e81U, 0x747874706e847b7cU, 0x71706d8382737177U, 0x8078827379757b75U,
  0x77757f726b7c747aU, 0x7d7d7a7277707e6dU, 0x746c7081737d7981U, 0x7c8378777a706f78U,
  0x837a81777a827774U, 0x787d778579817d7dU, 0x7e827c7d7a786e70U, 0x7975806b7983766eU,
  0x82737f7f766f7b82U, 0x837e7e6f7e7d7c7aU, 0x6e84847d82867475U, 0x7f777d756f758084U,
  0x6d7b757b70757d80U, 0x6d7970807b756f71U, 0x7f737b6d7776847dU, 0x7980747a70777182U,
  0x817e7a767e767d7cU, 0x83827c6f797c7d79U, 0x7383807e7381747cU, 0x7c747d837b70736fU,
  0x80746c7c6c6f7878U, 0x7b7e847c6e716d80U, 0x727d808273807574U, 0x737f6f7e6d76756eU,
  0x70767c7f78717a81U, 0x708172807f766d6eU, 0x7372766e76816c6eU, 0x707b72807f6f7376U,
  0x827b6f6f73757f7aU, 0x737b7b8278776c77U, 0x737e7c7c8472817cU, 0x7d82747c80737e76U,
  0x747e7d6d7e7b7881U, 0x7d77827a6f7e7679U, 0x6f7679837177767eU, 0x84716d6e816e7873U,
  0x79787a7d75786f80U, 0x79827e7379777972U, 0x7283767b7d6f717eU, 0x707d7073777e7876U,
  0x7d7f7e787b70816fU, 0x8271707579807f71U, 0x6f76788075826d70U, 0x778176777e7a7381U,
  0x8277786f77847575U, 0x7475788074808077U, 0x8082766f717a7e77U, 0x7d78737d7582717fU,
  0x7f7c767883798683U, 0x6e716f8382737e74U, 0x827f7d83787d8173U, 0x6f7e78787f7a817aU,
  0x707a7e6e7d827575U, 0x776d847384738377U, 0x756e726e6f80817eU, 0x706c757a74827371U,
  0x6e7f806f76737780U, 0x796c736d827c757fU, 0x6f73738080818173U, 0x6e707a7175797179U,
  0x728277756f6e7d72U, 0x727b7c7e796d7d7dU, 0x7e78796f796d6f7aU, 0x787877827d6c7d76U,
  0x726e7c797c788183U, 0x7f7c737d6e708070U, 0x7b7471716f6c8079U, 0x837c6e84726d806cU,
  0x8170717377786f6dU, 0x71797f6c7a808176U, 0x7f8375776e817482U, 0x7074787674767977U,
  0x6e797e75776f7d81U, 0x7679816d836f7b7aU, 0x706e817674797276U, 0x7b7675807f727572U,
  0x6e7c6e806f807774U, 0x7076767b7c77797bU, 0x82748177737c6d76U, 0x7578847078816d7cU,
  0x848270777f757d75U, 0x7f827481777f797fU, 0x7981728083817c83U, 0x74757a6c827d7f78U,
  0x847e727f84837f6dU, 0x857a846f7d727872U, 0x8781838579727c78U, 0x7c7b7b7d7573727cU,
  0x76716e807f84786fU, 0x7d817f7e74718283U, 0x7a6d6e7d6d80716dU, 0x7f826f7672827e75U,
  0x757a6c6e7174746fU, 0x747c817f7c747472U, 0x7c7d6f6d7b79716eU, 0x836e73757c797e83U,
  0x84837d7578737e73U, 0x7e7b78777581747bU, 0x6e71827f747c7874U, 0x8378707b6f838277U,
  0x718478817273747aU, 0x7b6e707b75717474U, 0x7484808478737a78U, 0x6e7b7f7073836f79U,
  0x7678787371737682U, 0x727b797a7b817175U, 0x72837b6e77728377U, 0x7f70757f717f7376U,
  0x727d7a83757f786eU, 0x74847e77767a6e6eU, 0x716d7e7c79817b6dU, 0x726c746d816e796fU,
  0x788383796d786e7fU, 0x6f6f7b7274727373U, 0x7070817e7b71826dU, 0x74727d787b807e76U,
  0x7c7d81797d7b7472U, 0x6d75798174807481U, 0x7f827d7682807080U, 0x7e817a72776f7076U,
  0x7b80817983837073U, 0x737a75737b708179U, 0x76747c7c73717e7aU, 0x6f6e857c747d7a80U,
  0x817a717174757f73U, 0x7874827776857274U, 0x7d7c74736f6f8473U, 0x7a8178786d81767dU,
  0x81767c83757f7a7aU, 0x777e81747c838178U, 0x816d79737d837077U, 0x7d747a7b727d7070U,
  0x7a83717d7c786e71U, 0x76717e81846f7d83U, 0x83706d7b7d7b7f72U, 0x8379718079807182U,
  0x708382807f837073U, 0x74847e727e7d6c75U, 0x816e74777a806e6fU, 0x7b727a727171796eU,
  0x6d76777b80827073U, 0x7f70756e7071807fU, 0x817082716d768374U, 0x79817b717e767672U,
  0x7e837a776e82777cU, 0x817f73778171746eU, 0x6d7882707783806eU, 0x7a7274787b78727dU,
  0x847a7f6d7c716d7eU, 0x6d7c74756d736d6fU, 0x6f807d837a777773U, 0x72807f83786f7973U,
  0x788373836f768078U, 0x807a6d746b6c777aU, 0x6c827f807477816eU, 0x76767b797b75837dU,
  0x746d817a83796e7dU, 0x7d7977707f7c7874U, 0x84736e847084777aU, 0x757f76806f6d707cU,
  0x7e78767270747172U, 0x738176737a7f817dU, 0x6f797e7e84788070U, 0x7f7a776f77767283U,
  0x826f7c8282767579U, 0x7885817d7c798472U, 0x736d748079737e7eU, 0x786f827774847180U,
  0x7785797b7982717cU, 0x847c7275726f7b6eU, 0x7c756c837c7e7b72U, 0x6e82737d7b7c6e84U,
  0x716d7f74816d7b78U, 0x847b7a7a7f78747aU, 0x72767c75767e7074U, 0x79797e837f728371U,
  0x737b6e798271817eU, 0x6d746c706e78797dU, 0x716d7270716d747eU, 0x7f787e8470837a71U,
  0x7d7f72776e6e807fU, 0x7983817b716e8476U, 0x77717a7e72826f72U, 0x72777f6f7e7c707dU,
  0x81816d8276716f70U, 0x6d6e7b7f7f73786eU, 0x7d80786c72827576U, 0x6e6f70746e806e76U,
  0x7f706c707a807076U, 0x6e7d707476756f6eU, 0x78757d758173797fU, 0x736f7e7d71826e6eU,
  0x7775788275787d7eU, 0x796e767b817d7879U, 0x7b7b747f77817883U, 0x717f746f82807773U,
  0x81787f7579838477U, 0x757f7a6f82838483U, 0x73767a7a727b787aU, 0x78717474787e7f7eU,
  0x85707c7e7d827a6dU, 0x77757c6e74787b7eU, 0x7772828082857c7dU, 0x7a7a7b7d73747181U,
  0x787f717d76796e7aU, 0x84756e7b79777580U, 0x7979708172717d71U, 0x6d706f7675747c7cU,
  0x827b7379826c737fU, 0x827a807a7f747783U, 0x748171716e777d6cU, 0x7274807f6f827c81U,
  0x827b7571737f766fU, 0x76827e7d77837472U, 0x7a716d7e74807878U, 0x747575737d6d8172U,
  0x7e6d707475727573U, 0x8376707e77817f77U, 0x727d7a7280847e70U, 0x7d78837274827c72U,
  0x847676766d7a747bU, 0x8173737b846d8277U, 0x8080746f7a7a837bU, 0x6d74786f81827d72U,
  0x75816e80746e7281U, 0x777c808074767975U, 0x808482747a7d7976U, 0x808470817980847eU,
  0x6d7c757f847a757eU, 0x7f71778376757a7cU, 0x7f82747e7076717aU, 0x827a777c70707570U,
  0x80826f7c6e777b6fU, 0x767f747e83737771U, 0x7f71756d8175777cU, 0x6e79727c81787073U,
  0x6f766f7183847372U, 0x79778084767b6c6dU, 0x76706d6f75757f75U, 0x817276786e7e7c80U,
  0x747f7d7483818083U, 0x7873827f78737a6dU, 0x717f766c7f76817eU, 0x6d75717973797782U,
  0x7f6f817b7e736c7cU, 0x7c7e6d797e767381U, 0x7882817e6e6e7870U, 0x77717c6f79806d7aU,
  0x797a726e7570716eU, 0x818274847b6e796dU, 0x777a7a7770757e74U, 0x756f6c7e82707470U,
  0x6d827f7f7c7d797eU, 0x7f84727f727d797fU, 0x736e827671767475U, 0x7076746e6d7a7876U,
  0x7a7084746d7a756fU, 0x827877726e72827cU, 0x75717a7a7e826d77U, 0x7e7875806f717178U,
  0x817772797b7a7b79U, 0x7d7475807271707bU, 0x7a7f727274817971U, 0x7d7d7173737b6c7cU,
  0x7a6e76827884757dU, 0x756f6e7272847775U, 0x7579717979727d70U, 0x7a6e7c827e6d7374U,
  0x7a7d6e777f718384U, 0x6e808080847a727cU, 0x6e6e797c786f766fU, 0x7e77767682827f7eU,
  0x757d79797c7f7770U, 0x79747f717f847672U, 0x717c788483737782U, 0x837a73817e7b6e80U,
  0x737c7c7375807d7fU, 0x6f7b7677707e7e80U, 0x797c767671767a7dU, 0x7c6d6e6f80717e7fU,
  0x7d7c80777e6f7b81U, 0x7a7371747b7c7881U, 0x7b827e797c727b83U, 0x746e7d7b7177777fU,
  0x6e826f70836f707eU, 0x7c7d737171767c74U, 0x7e8277837c7f7574U, 0x7f757674796f7570U,
  0x7d767575737c7d7bU, 0x826e7c7476777b76U, 0x6f77777b6f737871U, 0x6f78808077827b7fU,
  0x786e827d6f7c746dU, 0x74747f747979836fU, 0x7b767b787a70756eU, 0x727b787b837b836eU,
  0x7473727c767b8073U, 0x7a796f718183777eU, 0x827d827680787877U, 0x6f7a746c74727f78U,
  0x7e7b83716e80776eU, 0x7878727e7372727aU, 0x6d7d8180836f7679U, 0x7d776e727578717cU,
  0x77807b6c74746e7eU, 0x817e7d767c6d797cU, 0x7b7d6e77747b7a75U, 0x80807e726d837a7cU,
  0x7274746e81776e84U, 0x717583817d7b766fU, 0x7c7c7078827d7771U, 0x74787c706e6f757dU,
  0x7c7970817f808379U, 0x6d79827c7f717684U, 0x6f7e788373818082U, 0x83757e7883768070U,
  0x71727671796c787dU, 0x717773817c7d7684U, 0x6c75777577707373U, 0x7e6f767c6d74756dU,
  0x846e7e837f767f7cU, 0x7b6f736e756d7484U, 0x747c737175786e83U, 0x817c7e83797a727fU,
  0x7b716d837173796dU, 0x77777576747d6c73U, 0x797e7b79737f796fU, 0x70717f7b7c73737eU,
  0x717e6c7879807f7eU, 0x70767e817f6e7e81U, 0x6f737a707480766eU, 0x797b747c70837c79U,
  0x6d6d84787b777c78U, 0x848377767783847aU, 0x7370707584806f79U, 0x76827076847a6c7eU,
  0x75797871766e8272U, 0x6c736c756e7a6d73U, 0x817b7c727f786f7eU, 0x7173846e7d817473U,
  0x6f7a746c71738275U, 0x8076757583827f6cU, 0x788571717e80787cU, 0x7a84707e7075816eU,
  0x70746d7271767083U, 0x6e707080747b8175U, 0x6e746f7a767f727eU, 0x757b837e737f7778U,
  0x736f727272787e7eU, 0x7779707782727782U, 0x6e7b747e737f737fU, 0x8173767375827f77U,
  0x7783736f836d6f6fU, 0x81787477837d847fU, 0x786f7f828076837dU, 0x7b807b6c75737a79U,
  0x6f6e70837a726d73U, 0x8382777a7976787bU, 0x796f717383846f7eU, 0x727573757d787072U,
  0x7f727183826e796eU, 0x70706f757f7e6e79U, 0x7c727c7e717d7980U, 0x7e757c82736d7071U,
  0x7d73747c71728283U, 0x757c827b7f7c727dU, 0x70768277737d7c6eU, 0x727177726f6c7873U,
  0x6e8078826f767a7aU, 0x817370747482827fU, 0x82767a78827d7180U, 0x797b737079836f82U,
  0x796c788274707478U, 0x7676726d756f756dU, 0x786d7a7d787f797cU, 0x83756d7d6d7c7e7bU,
  0x7070797a757a7673U, 0x7c816e7475787972U, 0x6e6f75837f776d6cU, 0x6d77706d77727576U,
  0x6e78798371826e71U, 0x7d7f7277736d6e7dU, 0x7a7181797a7b7682U, 0x7c756e6d7284817eU,
  0x767875767e798475U, 0x80807577726e7f7eU, 0x776e80787f747682U, 0x8280707c7076836dU,
  0x807a7b7f727f7b7aU, 0x7a7e7a71736d7a74U, 0x7b807c787270817aU, 0x7679727d7e7e6d6fU,
  0x78827282746c7271U, 0x837d758274786e7aU, 0x84776d72737f847cU, 0x8472838271817a81U,
  0x717a7d7670757782U, 0x80837e717b7c7b83U, 0x7d81757081797c79U, 0x81787b707e777670U,
  0x7a74797f7f6d717bU, 0x7972716c807c7781U, 0x756f6e75776f7b71U, 0x73797b707b72797bU,
  0x6c757881737b767aU, 0x78708384837d7081U, 0x7673787d747e8370U, 0x70797e7273787574U,
  0x8080707182787775U, 0x747076797f817282U, 0x81766e7868756c71U, 0x69736e6f69776b78U,
  0x6d716b75787d717bU, 0x7d8375817f7c7073U, 0x73717f7483738270U, 0x73717e6d7c767a70U,
  0x877e897a7b8a897eU, 0x727f908d8e7e8586U, 0x757d6e817d80738aU, 0x88858271797a7b7aU,
  0x8483807484897b79U, 0x8492898a847e7784U, 0x8782777b7d838989U, 0x7084727379747e78U,
  0x7d806c82766b887fU, 0x85777c787984807cU, 0x837d867e7d808578U, 0x8777867378818981U,
  0x786f76757c877473U, 0x8579777378757588U, 0x7c7d76887d85788dU, 0x857277767c788779U,
  0x6e847a8171867379U, 0x7e7a7f797f6e7481U, 0x82827e8280817c84U, 0x7e7683888289817cU,
  0x838883807b727a85U, 0x81798a827d8f907aU, 0x8577757478868273U, 0x8e7b8177806e737cU,
  0x7a7a897a7f758474U, 0x797b7c7e7f7f817dU, 0x7b7a7a7c727f7174U, 0x69658583737e8887U,
  0x75777778716b7a78U, 0x7f787d777a736b73U, 0x766e7c727b817c80U, 0x7170637768707b77U,
  0x6c6e6a7f6c727a73U, 0x7168726b7a7b746dU, 0x72707d70747e7c79U, 0x7c7c727b7669796cU,
  0x75717f746d6d7a7cU, 0x6b88818485766d71U, 0x84798577767c8380U, 0x82738b7c83809078U,
  0x6e7a777c8075847fU, 0x757d7e78706e7171U, 0x7b8b857b85867984U, 0x858a7d8a79798b79U,
  0x837b888380808777U, 0x787282837c7a7987U, 0x79867a75807a848cU, 0x877e7f7c887c8883U,
  0x837d809087858479U, 0x7b86898a7d83818fU, 0x91907b9190867e8fU, 0x847e86887b898e79U,
  0x7f8586738586888bU, 0x8b7d7f828287817dU, 0x787b7d8479897a7fU, 0x7b83867a88807d7eU,
  0x7976797f727a7483U, 0x82898f8679788685U, 0x71838889817b8b84U, 0x7e74837e81817d71U,
  0x797373846c82777aU, 0x737f736f71817e7cU, 0x7870777b7f758373U, 0x75786c7e6a837e71U,
  0x6a79706c7c787477U, 0x817e717766746a72U, 0x707a6d7a7679706dU, 0x757c7e727570757aU,
  0x676d6f7e806d7b6bU, 0x68796e7668797479U, 0x727b76677069656fU, 0x6f747e7a7b7f6977U,
  0x727a8475777d7f6fU, 0x7a716b7177796c75U, 0x83707b6e7c797186U, 0x8673727e6e817c79U,
  0x858f817f82868373U, 0x7d83767d8784777bU, 0x83827e7e808a8885U, 0x758a8279788b7c80U,
  0x87887f9288798377U, 0x72827d7d798c8187U, 0x8a7c8a7389828675U, 0x8a887f767f838e8cU,
  0x79748080727a7c75U, 0x8d8983887a837775U, 0x7880748a85898e8cU, 0x838484898a7d7b81U,
  0x857c8c7b7a8b7c90U, 0x907f7a91828a9188U, 0x8175778575819182U, 0x7c79798186887c7fU,
  0x7d7180747c7e7e84U, 0x847d868479747d83U, 0x7d7579787c808378U, 0x7d877b85777d8f84U,
  0x7f82798474838f75U, 0x737b857281897b89U, 0x85868a758a788275U, 0x72747c756a87817cU,
  0x827586707272716fU, 0x6e757f8689877880U, 0x728081727e708178U, 0x7586797b74787f7bU,
  0x7c7368787f707f71U, 0x6f7b70756a776e71U, 0x6f7a766864797570U, 0x716e6a7c6f686c68U,
  0x726b7b7d777b677aU, 0x78737e7b8687757eU, 0x80766e826f758978U, 0x897f786e736e7568U,
  0x7188868680757e73U, 0x797d887f85788980U, 0x817885877e7e8979U, 0x81868c76848a7f74U,
  0x8474867a84787683U, 0x84847e8a887a8182U, 0x7c8c8275897c8485U, 0x8788837a79777588U,
  0x80848c827d858a7bU, 0x837c7470827e7a84U, 0x71777c807574797bU, 0x747683746d798182U,
  0x7f7776766c717c72U, 0x8179737f83858074U, 0x887276717970817dU, 0x7370887e887d7d7cU,
  0x7f8a7488777b7784U, 0x7e79837979837b7bU, 0x787a868083828478U, 0x848274897a78877bU,
  0x908b9086888c8876U, 0x76758c89867f7585U, 0x868f8a82908b877bU, 0x8d857b78848e8983U,
  0x74787e777a797489U, 0x827d807c7385837cU, 0x72817f77757d7978U, 0x7475807175717a75U,
  0x8087817f7c7f7586U, 0x84797b8183847f85U, 0x6c6f756b77777c85U, 0x7769656f6474696fU,
  0x7d6a6b76676c756fU, 0x6d7372766b7b786aU, 0x6f7076807f79816dU, 0x777171878181796aU,
  0x6d72777e726d6c7dU, 0x7c7670737e818373U, 0x7b817573776d8474U, 0x7d768c8874718474U,
  0x8b7e887c837a8288U, 0x927f8990857a7e78U, 0x86777f8677778585U, 0x898885817a847878U,
  0x7e8584918c89777aU, 0x8074757a888a788cU, 0x73717d8683707074U, 0x7e7d7e776f767074U,
  0x7a88847c7c76716fU, 0x787672797d747883U, 0x7e7a767473767b77U, 0x7a6e766f80798089U,
  0x807e7f7f7c6f7b84U, 0x76737b816a7c7f79U, 0x7f756d7d7a736c75U, 0x7e797477716d747aU,
  0x908b7e77887d8a80U, 0x88897e838381858eU, 0x7a8472858c827c88U, 0x7d87949482787887U,
  0x8a8491858d857c8fU, 0x7d7e798b867c817cU, 0x727c818677737d70U, 0x7d79707473806a79U,
  0x6f7d807f74798682U, 0x7672717f756d757dU, 0x79737685877b7b85U, 0x73747c727b6f8977U,
  0x776778736b707166U, 0x816a707b70626768U, 0x6975697d726d7f75U, 0x7f777e757c6c6e76U,
  0x727b6f75717a6879U, 0x80837075706b6b78U, 0x8b79778c80768176U, 0x7a71798185768578U,
  0x84738172787a7877U, 0x80858d8b88887973U, 0x7e917e8689837b7eU, 0x82907a897f7b8482U,
  0x8473858082847e71U, 0x74858e8a7c777784U, 0x8377737a8c75778aU, 0x78716c717c78706dU,
  0x6a786d7a7271737dU, 0x79877a7b846b7b7fU, 0x7d848e82778e827cU, 0x73828376817b8190U,
  0x7c807d7c847b8d80U, 0x837e897d7b8a8e74U, 0x6e8a7976868f7492U, 0x68716b69796a7c7aU,
  0x7d807070766d7c7bU, 0x7f7d72707f776b7fU, 0x8486837b8f848c82U, 0x797c7a8785868c7cU,
  0x81827b78857f7c8fU, 0x7b88847d88818c97U, 0x888b8d8d878a8680U, 0x84867e767b7e888bU,
  0x76738074776f7d89U, 0x878680777a868078U, 0x696d797384797489U, 0x7f836b71777e7978U,
  0x78766c6d7c696e6bU, 0x7373716f7c83727eU, 0x7469667f767b7778U, 0x777a71807e676971U,
  0x7e7f7c7f77727374U, 0x74776f787a807b73U, 0x77766d7b6b827774U, 0x8984828473766a87U,
  0x7d867a8782718279U, 0x7e84757d7e7f7377U, 0x7f85837a7e7f8384U, 0x7982837d837a837dU,
  0x7f7d7a807c818382U, 0x897e7f80817e8088U, 0x75767f807771868fU, 0x81818470776f7970U,
  0x7e6f776b7c786d79U, 0x848c718276707872U, 0x8876777a79847f7dU, 0x7e8c7d797d837575U,
  0x7a757f867f7e877dU, 0x756a718374807b67U, 0x777b81776f7a6e83U, 0x777d8084787b7984U,
  0x767f807f767c7987U, 0x718973737785848cU, 0x7a676c786b6a8673U, 0x737f7f7f76676c72U,
  0x7d7282837f727973U, 0x8689868286817684U, 0x7a80877f7c808980U, 0x7f7d7e7584817589U,
  0x84897776847e7d7fU, 0x6e7d7e7a87828888U, 0x796b7e797d78806fU, 0x888280807972737aU,
  0x837886828472837cU, 0x777d7d767a757b73U, 0x777d7079727f7e7eU, 0x7d807e7979727880U,
  0x787c7e7868736a7cU, 0x7f7e7f71816e7b78U, 0x87727c74737a727cU, 0x7f7c716e8477887eU,
  0x88767181737e8577U, 0x77728482877c7f88U, 0x7f7984787c716d85U, 0x7681827583827970U,
  0x7f73897a77867b7aU, 0x897f7d77837f7b76U, 0x7c77858a8786867bU, 0x6f6d868179817c79U,
  0x7b71806d7e7a8171U, 0x817f7e7a796f7a77U, 0x86828779838a8776U, 0x7e70757f8170707dU,
  0x82867a797f6d7c70U, 0x81807970847f847dU, 0x7e68736f7b7d6b77U, 0x6f7f67787f757b77U,
  0x777584808374736eU, 0x7d78767e877f7185U, 0x7d7469736f7b7780U, 0x74807d8a7977746eU,
  0x76716e7a7c757d82U, 0x6979726b7f796f71U, 0x7e7b7f80806a6e70U, 0x7e7b8d8b77757b7eU,
  0x6f76787b74839088U, 0x8b8a8589817f7376U, 0x747371747b7c7683U, 0x6c70756d786d7174U,
  0x7c80717c7d7d7777U, 0x6f7c7b7a89858584U, 0x7779738087858078U, 0x6c6e7176767c8873U,
  0x77716f7f707a7869U, 0x707a677a70758181U, 0x797a736a79767075U, 0x74848776747b7681U,
  0x7a7f717789778980U, 0x7c837982767d8b7dU, 0x8d877b767c73847bU, 0x8380828f7b7d8e84U,
  0x8179867d7676807fU, 0x857b788176877174U, 0x827c7880848e7589U, 0x846f79728382897eU,
  0x7e7a6a77757a7d6fU, 0x7577737f727a6e73U, 0x797477857d897d6cU, 0x7f707c717e79757bU,
  0x746d717f7f6c787bU, 0x716b6e776b6c7777U, 0x707c6e756d807a78U, 0x7b7d707d737d6c75U,
  0x827d8187726f7681U, 0x6f85786d78796e73U, 0x80727d8380817a84U, 0x8077777881837c6cU,
  0x73827a6a75817f7dU, 0x777c7f76777a717bU, 0x796d7c8680857a82U, 0x7575766e78707585U,
  0x757c7176767b7982U, 0x74787c85827b7f77U, 0x77768c82707a7287U, 0x7f7f7c7f777d7c8dU,
  0x8a846f7873838779U, 0x807477767f7b877dU, 0x7a85848b8b857f85U, 0x7d7975716b858273U,
  0x847d81727a8a787bU, 0x7f78738586788980U, 0x757673726b6b7079U, 0x70757c7e76727577U,
  0x7f6f7e717a73836dU, 0x8179898789888f75U, 0x8b8c7b7676847e7aU, 0x7b70827783768786U,
  0x8986807774857a80U, 0x7a858c8888778586U, 0x8b7a7770857c767eU, 0x847d7b8674797984U,
  0x7a807b7f73767182U, 0x6d787f7c726b7771U, 0x836e7d83736d747fU, 0x7c7e7e7487777f80U,
  0x7672668372697d7dU, 0x80788079716c7c6bU, 0x71727b78746c7a70U, 0x7b88747d896f7b7eU,
  0x7b7278738485817cU, 0x766f857974736f77U, 0x787d778085827580U, 0x7976796f75857a80U,
  0x827f867674817e76U, 0x7b6b747b6c6b7e75U, 0x7a747b6f7d7c6d7dU, 0x70717e736f6f757fU,
  0x7b828482767b7477U, 0x717372767d807d79U, 0x7f777d766c837a80U, 0x7f82718280706d75U,
  0x817375868477877aU, 0x798688768b8a7977U, 0x7f7c817588807e87U, 0x7b7b817d76817475U,
  0x717a6a6b797f707eU, 0x837e7d877c7a7b79U, 0x7879767b757c7584U, 0x6d79818182787c7dU,
  0x6e74657e74758078U, 0x7b72676b74717974U, 0x778a817d81706a6eU, 0x817583778672757eU,
  0x837c7e78877a7d78U, 0x7170767d727a7687U, 0x768279877976777aU, 0x7b747e7a84777985U,
  0x70836f6d88828477U, 0x7e817c747474747bU, 0x8173707084707478U, 0x71817e74766b7875U,
  0x827f7676857d7f70U, 0x74837e717a776e77U, 0x7f726d6b6e717170U, 0x7b85837a877b7474U,
  0x7372758071847e77U, 0x8675787886888886U, 0x7f7e727488718674U, 0x7373797d7e7f8077U,
  0x7275837d7d727673U, 0x8487788a73807d7dU, 0x8274788172777d70U, 0x7a817e787b826f7dU,
  0x786f7c72747c777dU, 0x6b7474837776706eU, 0x6d816e6f75726574U, 0x6e6d6a6f6e727872U,
  0x817f7d6d6c74807dU, 0x8087827678826d7dU, 0x6d6b7e76837e8587U, 0x737f7f7874867c83U,
  0x7173757d7e817980U, 0x6f6f70837c6d8376U, 0x7f77758181766e6bU, 0x857a887b71717282U,
  0x747d77837e838587U, 0x66676d7c737a7979U, 0x6e6479696d61626bU, 0x757b6c6b72656578U,
  0x7d747e887f887886U, 0x7b7a847978877d83U, 0x797e7f7586808888U, 0x797e778576727b6eU,
  0x6f7d7e827e7d7575U, 0x827b857685797e73U, 0x796e81727278786dU, 0x747d82766f6f7170U,
  0x8477727c7c7b716dU, 0x746e84746c79717bU, 0x6b7d737973786a6dU, 0x76797e7b7c757972U,
  0x75738380796f7073U, 0x8084808177747a73U, 0x7980827786798579U, 0x8880867b7c887589U,
  0x7b7a74738673757aU, 0x7a87717c73807979U, 0x7e8287768a83767fU, 0x867b7c8274748383U,
  0x767f7f7d87847f82U, 0x7a71857280747c7bU, 0x696d797980837c72U, 0x6f7b7c6b756b7780U,
  0x81746b7277727167U, 0x76787f697b7d7a7cU, 0x7d6f7879717c767fU, 0x727a7987876a8079U,
  0x79797e83757b7c7dU, 0x7c6e747a83797f84U, 0x8375727777846e70U, 0x70847b7377727a74U,
  0x758a7c727d817278U, 0x7871877874838c7bU, 0x7a6f78737e80747dU, 0x68646b6472696d79U,
  0x77747567685f7172U, 0x83897f7f6d6d716eU, 0x7e7f7c827e757e87U, 0x89768c8e7b7f7d7aU,
  0x77877e728a7f8389U, 0x827c878f7c797d80U, 0x8284747b77858c7aU, 0x7b7e7181737f847bU,
  0x6f816b6e80777c72U, 0x8371727f6d7c796fU, 0x6b7c66696a726f7aU, 0x6d656b747e69746aU,
  0x7777716f696c7c76U, 0x6f737a73727e827bU, 0x767a77887a738177U, 0x797d868574707c7dU,
  0x847d7f86847e7b78U, 0x82847d8a7b887b8fU, 0x7f807f7d777f838cU, 0x7b7a7a84768d897aU,
  0x7a8a7e868a8c847cU, 0x8075758884768b7eU, 0x8474807f737b6f80U, 0x787f757b77747b7cU,
  0x777e73757878837fU, 0x7c777c68737b776eU, 0x6f73627e8166756eU, 0x777c808280736f77U,
  0x797a78766d776e72U, 0x7e717e80717e7b7cU, 0x848471887a7e8082U, 0x77767c7c767a7074U,
  0x817e7c7476747d7dU, 0x8279898c797b7576U, 0x7e82797d8574807cU, 0x7c7d75797b818883U,
  0x706666746d787082U, 0x737763716871716bU, 0x7a7e857871726168U, 0x6d717e6975847b7cU,
  0x7b82878a74817c71U, 0x75867d838587867eU, 0x8a7d88747275757aU, 0x77757a80737c7981U,
  0x83716e83746a7e86U, 0x70807c7881747880U, 0x79787a78697e687cU, 0x6c6f6c736f62767bU,
  0x6777777271756e70U, 0x797970726d7f6d68U, 0x77786d837d6c737fU, 0x737b767e7986736fU,
  0x75787c7a7f7c7e71U, 0x7b7c7d808c77727dU, 0x8a798c81888e818cU, 0x7c7d807c7e7d807aU,
  0x83777f897a7b7b78U, 0x83888c888a87817eU, 0x897b89847a8d8a91U, 0x7980767e897c847fU,
  0x74717373737e8687U, 0x7175827d717a747aU, 0x747f7b74767a847fU, 0x7d8073756e79756cU,
  0x64757a6b73837f78U, 0x7a7c6e71826b7369U, 0x6c7b6d7973727673U, 0x7d717f8382716f7eU,
  0x79757880847b7b78U, 0x758080836f7b8379U, 0x78817c8188848274U, 0x808c82868a768f8eU,
  0x7177827a7b7c7a80U, 0x7485847180848372U, 0x727d696978767277U, 0x7f6a7b70787b7769U,
  0x77796c7775737974U, 0x817a797f7686786fU, 0x80787b7f747d8273U, 0x727f7d8284727077U,
  0x847f817783837772U, 0x848584797a7d8476U, 0x6a6d747a6f797071U, 0x757c796e7e786f80U,
  0x756f7b6676736b73U, 0x6d6f69697c7d757eU, 0x72757f77796b7a7dU, 0x7b7d868372887577U,
  0x7880747670788173U, 0x7580848c8a7d887fU, 0x8f7e7784787f8a80U, 0x7e8481797f8a7889U,
  0x757f86757f828780U, 0x7d7d747784888386U, 0x897e757e86867d72U, 0x827a85817e848075U,
  0x8e8a7b8e8a7d8a7fU, 0x827a7e7c7c7b868bU, 0x80807485897a837bU, 0x8775797c7783777cU,
  0x71737f69897f6c7dU, 0x8068727b716a7274U, 0x7069706b71768172U, 0x7e7384797880766fU,
  0x687d727179727676U, 0x817c847a707c7374U, 0x7979828779737883U, 0x838b867a7e727f73U,
  0x7e8a7d8079777b85U, 0x898b857d7b8b8887U, 0x7b88788786738480U, 0x6f707d82777e8582U,
  0x75717d8376726e7dU, 0x7475787a6876877eU, 0x89747c7d82757f83U, 0x8282847a727c877aU,
  0x7d71758984757b82U, 0x7b837c7878706f72U, 0x768080757781767dU, 0x747c6d807f787880U,
  0x8074857f78757d7cU, 0x62796a6375636570U, 0x6f7d7a6b70736d7cU, 0x7d7c737f7d728272U,
  0x7171767480787887U, 0x8588857d7e7a8786U, 0x8b7f7b7f77747e78U, 0x7d827986857a7c80U,
  0x897a8c898c85788bU, 0x8c86798378857d86U, 0x7c7083787085797dU, 0x73817d8086837882U,
  0x7f797b7d78827f7cU, 0x8a7687877e808879U, 0x79848079827d7b8bU, 0x7d84817c7d7c8581U,
  0x748379738b817c7cU, 0x758275717571787bU, 0x827e87887b88766dU, 0x7d6c6d6c787b7385U,
  0x726b6d77706a6e82U, 0x7c7382726e686e6dU, 0x7f776f6e7a6f697dU, 0x7677767777728076U,
  0x797b8485857b847dU, 0x7c74737471737976U, 0x8178868f7d888078U, 0x897a8f8876837281U,
  0x78787d727a768281U, 0x7d82837e81868170U, 0x7d7a7573776d7e7cU, 0x807f747c7f797670U,
  0x787d798174787977U, 0x7771777a777c8375U, 0x7b85858276857784U, 0x858685787f7d7e77U,
  0x767586817c8a8388U, 0x6e7875817d7d6a6eU, 0x6e696e7b73707871U, 0x7a74796c716f7d6cU,
  0x7c7a767983717979U, 0x76847a8078777a89U, 0x7789777c74807d83U, 0x8c8483897a8c827aU,
  0x827a7e8a8a787b7dU, 0x7c8d84867c88877bU, 0x88807a81868a7a78U, 0x7c81836f7c7a8785U,
  0x84717179846e7170U, 0x707078776e7b837cU, 0x7976727886857c7dU, 0x7b7d7776857c767bU,
  0x777f8a7f7e857775U, 0x7a7a74757d87747fU, 0x74807b7e7c8a8974U, 0x7a7f77847e7b8282U,
  0x79787e85756c7b80U, 0x7f7e7272697c7b78U, 0x6c797967737c6a81U, 0x7c7c7789717e676fU,
  0x7c7f7c6d76727271U, 0x86787f727c777874U, 0x7e82817873717e7aU, 0x8a7b837a717e8774U,
  0x77837977898a8083U, 0x857d6f777a77807dU, 0x7473766f7870867dU, 0x6b7a707d7b7c737fU,
  0x8375737c79787375U, 0x77747b80857a8581U, 0x6b81727e72806971U, 0x7c7e7f747d746c78U,
  0x7d727480877b7772U, 0x75807b7571737f8aU, 0x7b7d767688726f7eU, 0x6a766b6a65778070U,
  0x747d6f6b6f7c6a6eU, 0x76767f76707d747eU, 0x72807c737d77747dU, 0x808578787a858478U,
  0x87817b8a7b78847cU, 0x798183788a7c818aU, 0x7f738a7c77848079U, 0x7786797787758885U,
  0x86787a7b877c8b7eU, 0x79787d787d7b877dU, 0x827f7577897a6d7bU, 0x807c8b897e8f8b82U,
  0x72838876817a807bU, 0x7b787e71887f8279U, 0x7a868a7f747a7378U, 0x767d7c7d7e898575U,
  0x86818774888a8382U, 0x7e73847476857375U, 0x6f79847f83757f79U, 0x75736d7d7d737e81U,
  0x6c766a7060837880U, 0x8285857a77767872U, 0x81757b7083747f7aU, 0x877275807c76716fU,
  0x7d788179767c6e7cU, 0x747376787476787bU, 0x827c7a7b7e857f72U, 0x747672828a817784U,
  0x786e72717a6f7476U, 0x7a86796c72777c6eU, 0x857e817780847e77U, 0x77697b787e727c7dU,
  0x6c776a746a79747dU, 0x7c7b77787f747e76U, 0x7d8077877f767c72U, 0x807d75747c6f7b81U,
  0x6a70756e85746b72U, 0x7b6d7a7d7d767f7dU, 0x847e7f76716f7e7aU, 0x828875798572767bU,
  0x7d7c888377757185U, 0x7676857979768678U, 0x787d7477857b7f78U, 0x768583847f84778bU,
  0x85847c7f827d8282U, 0x8a7682887a858173U, 0x847a8c72887e7d7cU, 0x8d8e768b7e7c848cU,
  0x8579937f7a8e9174U, 0x7c84847c7e848380U, 0x75717b867b708c84U, 0x7d7778808182756eU,
  0x7373857f847a7b8aU, 0x877a807c79717a71U, 0x71817c8479877785U, 0x8872787179798485U,
  0x7c72747d707f7a70U, 0x6e787e6a7f716a7dU, 0x78716569726d797aU, 0x757585727b767a6cU,
  0x797b78757a7f8376U, 0x7d736d8172697d74U, 0x6f6f7773826b7d79U, 0x7772777d7b71797eU,
  0x7a7270828876887bU, 0x7772787985777a73U, 0x74717a7d7d6a787fU, 0x8289887b7b706a7fU,
  0x6b7871807178716cU, 0x7f787279766d8072U, 0x87777d777a6f716eU, 0x777b78837e817e70U,
