/**
  ******************************************************************************
  * @file    network_data_params.c
  * @author  AST Embedded Analytics Research Platform
  * @date    Fri Oct  4 10:51:07 2024
  * @brief   AI Tool Automatic Code Generator for Embedded NN computing
  ******************************************************************************
  * Copyright (c) 2024 STMicroelectronics.
  * All rights reserved.
  *
  * This software is licensed under terms that can be found in the LICENSE file
  * in the root directory of this software component.
  * If no LICENSE file comes with this software, it is provided AS-IS.
  ******************************************************************************
  */

#include "network_data_params.h"


/**  Activations Section  ****************************************************/
ai_handle g_network_activations_table[1 + 2] = {
  AI_HANDLE_PTR(AI_MAGIC_MARKER),
  AI_HANDLE_PTR(NULL),
  AI_HANDLE_PTR(AI_MAGIC_MARKER),
};




/**  Weights Section  ********************************************************/
AI_ALIGNED(32)
const ai_u64 s_network_weights_array_u64[149305] = {
  0x3cfb2f363c938a9aU, 0x3c4cd2c9bd8a4f39U, 0x3d4493ffbd3e68e4U, 0xbd492e803d8a71bdU,
  0xbd5d185ebd02e6fcU, 0x3cc3d7a4bcaa037fU, 0xbd394008bcb71c50U, 0x3c0b0a6bbd3b1025U,
  0x3d845152b9f974cbU, 0xbd1fa485bca08355U, 0xbd02618fbd523be0U, 0xbd76d8c4bd3c7d60U,
  0xbd0b4fdf3c4fc1b5U, 0x3de17d38bcb736b5U, 0x3e0bc5163e1d8370U, 0xbd6e4bcfbd96d4eaU,
  0xbdc004a13d932072U, 0xbd806d15bda648f7U, 0x3e0137a83cb4b428U, 0xbad773883cef6f50U,
  0xbd9e0724bd9a0646U, 0xbd833cd0bdc4ef82U, 0x3daddab13bf408d1U, 0xbab13266bab32349U,
  0xbdd80bafbc73c9b8U, 0xbde9e85dbb301aa6U, 0x3c33b94bbba0f351U, 0xbd9e2aacbd43a63eU,
  0xbb8512ed3cf878d0U, 0x3d7ecf233d59e4ffU, 0x3d0ed46c3c8996b8U, 0x3c3221ddbd88329eU,
  0xbdc1b01fbd679319U, 0x3d94ee573cc11819U, 0xbd57de9abd8bb2c8U, 0x3d58766d3d8ec4d4U,
  0x3d7939bebb4d3b2fU, 0xbcd4144dbc196995U, 0xbca09c803d9df984U, 0x3d7c7d5abd191822U,
  0xbda77393bd29a94aU, 0xbacfbb2c3c874c8aU, 0x3d081740bc4adfc3U, 0xbd5b933cbbf4c1c8U,
  0x3d6f16fc3d68a516U, 0x3d86e6e3bd097323U, 0x3b44f879bd15926fU, 0x3d18fb00bc9c3d44U,
  0x3bdf8188bdbe6b0cU, 0x3d89d0f73d2b29aeU, 0x3cd5e2d73d8a9de0U, 0x3d274ab13c3d8622U,
  0xbdafdfd3bd95cfa5U, 0x3c7ca39ebd20cd01U, 0x3d0744ffbcaa6759U, 0xbd68449bbd3bf264U,
  0xbd78d7453d8bc26bU, 0x3db052b43d65857aU, 0xbd2f92be3da739d9U, 0x3d86e9693d8767f7U,
  0x3d9906103c7bc1b1U, 0x3d3624a43baf0093U, 0xbc247545bc845fb5U, 0xbd921509bcaf1397U,
  0xbd9d640fbd651812U, 0x3cb7b22abc84ca4aU, 0xbd3abf07bc4696b8U, 0x3d8540ddbda14265U,
  0xbc6854bd3b802bc2U, 0x3daef3fabd574449U, 0x3d48259fbd131544U, 0x3dc51c223df6b7feU,
  0xbddaf8bdbd36224dU, 0xbb451bddbdd46c0bU, 0xbd238550bd497cfdU, 0x3d24bbf6bc2c08c6U,
  0xbdb6995e3de9fe4bU, 0xbdbd0d8abce0b430U, 0xbd85f4c5bcda0b3aU, 0x3d8e864f3d213894U,
  0x3d177317bd51f7f3U, 0xbce5c1ff3d8e97e5U, 0xbcca8b09bcccf5c1U, 0xbd18cbccbc25249cU,
  0xbcd3062f3d0ab67eU, 0x3d5e3e033caf9244U, 0xbb8b30b9bd584076U, 0xbd1ca2113acbd8ceU,
  0x3cc44605bdab758fU, 0x3c252dd63d2f37d7U, 0xbc27b14ebcb02ab1U, 0xbd34ac5d3d6e76a6U,
  0x3d877bd73d267187U, 0xbc1e56d93ccddebdU, 0xbc3305ec3bb6bf48U, 0x3d79e071bd8ba8d5U,
  0xbd7b034f3a7406bdU, 0xbcb9cbb7bd381d39U, 0x3c04b7673c486a08U, 0xbd5a10e9bd8e9b5cU,
  0xbd1e10cbba7b2c1dU, 0x3c5c5d833d2e814aU, 0xba751dda3aae741eU, 0xbd95a5ccbd49e82aU,
  0x3d636be0bc8f3dc6U, 0xbce4ec2fbd685579U, 0xbc91ae733d3680faU, 0xbd1d231cbcc001dfU,
  0x3d8e0a15bc0f736dU, 0x3d29bdcebd71979eU, 0xbd97c1f6bd93e56bU, 0x3d566f5dbd0651faU,
  0x3d44a035bc8ebf7aU, 0x38886218bd3c5186U, 0x3d81b5b93dc5ada7U, 0x3da591883b3348a9U,
  0xbd3bd36b3d9bc766U, 0xbd92dabcbc32a499U, 0x3d381c64bc9f8686U, 0x3d47e8fcbd0a8dcfU,
  0xbd18b6dd3d2f2c1fU, 0x3c6fa8d83cd959f5U, 0x3d19af9cbd4d14abU, 0x3a20eadbbd88c55cU,
  0x3d8a5f25bd760cb5U, 0xbd9e8a45bd98b088U, 0xbc211d1f3caa9b16U, 0xbd96c0fe3c7850afU,
  0xbd0a79d53caa8885U, 0xbd308e173c38db64U, 0xbd2aec15bc986ad5U, 0x3d197987bd579662U,
  0x3c201f213d9083e2U, 0xbd9563283ce0bd61U, 0xbcb7e63dbd375e69U, 0x3d65526ebcc2fe40U,
  0x3ce5ede63d2298d8U, 0xbab4fd153d22b82eU, 0x3c20829dbd24c881U, 0xbdd2a5be3d87f0a9U,
  0xbe051227be012c9cU, 0x3cb8f0503cddac9cU, 0x3cd43420bd9ce75aU, 0xbccd46da3da316a7U,
  0x3d0d126e3cb1381fU, 0x3da87b2d3c937371U, 0xbd26c5533d98be53U, 0xbc320919bd4dda13U,
  0xbb3a786b3c45f36fU, 0xbd16e370bd9cde01U, 0x3c24c4aabd7ba36cU, 0x3bd9abe23c3d0dadU,
  0xbd6bb25abd80ad54U, 0x3d05bf76bc8264c5U, 0x3c96f40cbd8a0db0U, 0xbc44705dbc874ad0U,
  0xbd7efb983d239e88U, 0x3d180d9e3d66ea43U, 0x3c3637713c7d3e44U, 0xbd641a09bd8c5acdU,
  0x3d6fc35abd839bdcU, 0xbd9597bbbcae3d04U, 0xbd4b8afcbd47b188U, 0xbcc4af723c9ad7b8U,
  0x3d56cbdbbc96f91aU, 0xbd5efd7cbd4ef3a5U, 0xbdcb75783c826416U, 0xbdc29a9dbd50f1cdU,
  0xbdab13b63c54945dU, 0x3d0d8b1cbd999664U, 0x3cd917063cd7c531U, 0xbd98f4443d32f95bU,
  0xbd63635abd36f58aU, 0x3c30354d3d7087ebU, 0x3dfd296d3dae49c4U, 0xbc591ea13de1e7e2U,
  0x3ce12c0f3c60631dU, 0xbcec40b5bd3d65d7U, 0x3d5317b6bd8aee94U, 0x3d7084363c90a7c9U,
  0xbd97ac6a3d03d547U, 0xbc9b5706bd6225e8U, 0xbd37660f3b8f5175U, 0xbd629ec13d902a4aU,
  0x3c908944bc3c29dfU, 0x3bed0fe43d1fa2b5U, 0x3ba5162abb80d832U, 0x3d6e4eb43c5f0077U,
  0x3d239d22bd2315ddU, 0xbcbf7c943d8123c7U, 0xbca20bf3bd5ef59fU, 0x3d336046bd821df6U,
  0xbcb2e374bd500cf9U, 0xbd8504f5bd8346efU, 0x3cf68b963c1feb41U, 0xbd4be5b4bcca90d5U,
  0xbda60f973d2823c7U, 0x3d46c9f0ba0e7952U, 0x3dd3fd173dc03a1aU, 0x3d891ebdbb7dcdd0U,
  0xbd13da40bc29018fU, 0x3c5e6f2f3d05f5f9U, 0xbd0b9da5bba9c6b8U, 0x3c94e5683c4d6130U,
  0xbd75d4fe3cab2526U, 0xbcf4e88dbcab97aaU, 0xbc6e8bc7bca49dfdU, 0xbc3d2e103cfd13f5U,
  0xbd5768a5ba9b15f0U, 0xbc86b57d3d607346U, 0xbce5fbe13c019c06U, 0xbc858c43bcee3cf1U,
  0xbda36c39bcecbe83U, 0x3d4861ccbd0db0b0U, 0x3d4a85a93bf28494U, 0x3c8a345f3d511021U,
  0xbd8ed3873ce6e1f4U, 0x3d8501fa3d748410U, 0xbd6e85623b925b60U, 0xbca701d4bd90dc9fU,
  0xbd4e9de2bcb870f6U, 0xbb90dc703d58b366U, 0xbd3edccabd3f5ec4U, 0xbc7d5d9cbd8f1ff5U,
  0x3bfa4de0bd1f0f2bU, 0xbd49ab52bd10e15eU, 0xbd862f19bcfb985eU, 0x3c141c983d70bc58U,
  0xbd123e75bceeac30U, 0x3ceadb4839f1df00U, 0x3ccf77b5bc93b364U, 0xbc9bf7f2bd36f82eU,
  0x3d523cf13d609eedU, 0xbc9e1114bd07e3c0U, 0x3db5876dba5ac129U, 0x3c8b87af3cd07951U,
  0xbd2c95a9bc2f3b4cU, 0xbd1024cebd197b1fU, 0x3dbb3f773bf33140U, 0x3d0075c83d9dfe0dU,
  0xbd488ef7bda02b49U, 0x3d4bbf55bda8297aU, 0x3ccdb7bebd8c636bU, 0x3cac33f5bd0e9a6dU,
  0x3df5a67f3d504271U, 0x3dafdd343d1e057eU, 0xbc5686f1bd4342eaU, 0xbd8355ce3c26499aU,
  0x3d108935bccb6fadU, 0xbd865462bd34d195U, 0xbd838931bd88d9c1U, 0xba064c2e3d3814a9U,
  0x3d81dd003d0ed496U, 0xbd6bc412bd86730bU, 0xbcc9e105bbf6ecebU, 0xbcc54a753d8b1be3U,
  0xbdd25f7bbd62e64eU, 0xbdd087eebde06a78U, 0xbcf840753d0eb6b2U, 0xbd4641d3bd39d2f1U,
  0x3cc3e15bbd1b5e6bU, 0xbd20757a3db4aa33U, 0x3cb7e7a33db68e6dU, 0xb94da7513d80e991U,
  0xbab3ac5e3d64b9ffU, 0xba8c5a45bbcddddaU, 0x3dbafc0f3da16391U, 0xbd64fecdbcad6af8U,
  0x3d12f9463d545abaU, 0x3ce4aa37bd8e6344U, 0xbd66413abdb5df59U, 0x3cdaa9513cd7a7b2U,
  0x3d9c83b33d0b7a00U, 0xbd15b1063d862c15U, 0xbd0a3e103d6cf2caU, 0xbda9ff023c396aa2U,
  0x3ca864293d965f81U, 0x3d716439bd9894ccU, 0xbb607c06bcf4be09U, 0x3bcdec73bd80925dU,
  0xbd13aedaba980139U, 0x3d90b4c63d0942e2U, 0x3bcfaa3d3d221083U, 0x3d4574e2bd88c9f8U,
  0xbd73ad80bc58a8f1U, 0x3d5333713d4f0bf9U, 0xbbe24d5c3da1dacdU, 0x3da05e49bd05938fU,
  0x3d866e8f3d82b52dU, 0xbd96ccee3d6362afU, 0xbd0650a3bd7dd690U, 0xbd73f3423d1b5c2bU,
  0xbb82cbfc3cb7b696U, 0xbd91bcf93d8256f5U, 0xbc048b5c3cd36e02U, 0x3d1936d1bd6dfc78U,
  0xbdb67b03bdab9902U, 0x3c0d95c43c176f7aU, 0xbd82119c3d00376aU, 0x3d6da5b73d29fbc4U,
  0x3d3667b3bce60c68U, 0x3d2de0dc3d5d11acU, 0x3c880b6bbcdafd0fU, 0x3d7ab5ecbccf1299U,
  0x3d3e75e8bd2033cbU, 0x3d5ce3413bc05e05U, 0x3d02b3083a3085deU, 0xbd08c5aabdae54d7U,
  0x3d682fc6bd4f0135U, 0x3d72b1f7bd003b65U, 0xbd2dd8e4bda60ebdU, 0xbd087fe9bbdd5ba7U,
  0x3cd55752bc180697U, 0xbd69ba99bd3995a0U, 0xbd85027ebd8bafc7U, 0x3d393c863d06b023U,
  0xbd92bfa3bd916c7cU, 0x3cfa2b3c3b223352U, 0x3c5784d43d431313U, 0x3c97f5cfbd259b8eU,
  0xbcd4b8a93c30f3a7U, 0x3d559cd3bd830b38U, 0xbcce67843d601251U, 0xbcd6102a3ca463dcU,
  0x3c9135c83d8b7520U, 0x3d4954babd00227dU, 0x3d4acab03c24188aU, 0xbd7e2b25bd4792fbU,
  0x3c6e9ce3bb97ad2eU, 0x3d2097f03c125cafU, 0xbd2ca2ae3d806fe7U, 0xbdc3cc393d696686U,
  0xbc7b1636bd965bb6U, 0x3c9c5d103c36598cU, 0xbd405537bcad2ae7U, 0xbc824472bda0f82eU,
  0x3cc08c5b3d3fa57cU, 0xbd5a15a33d6bea14U, 0xbc54d8d33c972c7aU, 0xbd964965bd057060U,
  0xbd982275bd2eb8bcU, 0x3cc6c5423d6d5534U, 0xba96f27cbd8c0559U, 0xbd36a1bf3d0fea26U,
  0x3d83215f3d6f9a3cU, 0xbd808ecdbb168d94U, 0xbca52461bd51a94cU, 0x3d2e2ad33c4b6197U,
  0x3c3cb9603d53fae7U, 0xbd272bc53da949edU, 0x3d929db0bd6c9d38U, 0x3dac12803dc61530U,
  0x3d8bfa243dde6b1dU, 0x3d1dc6aebd36b085U, 0x3d6579b43caef4faU, 0xbd9265633d419b40U,
  0xbd3578a3bd075444U, 0xbdde8acdbd94b8dcU, 0xbd9836f5bd33e447U, 0x3d0886f3bc562cb6U,
  0xbd8866943cbc739fU, 0xbd4326ad3c1c1314U, 0x3d3a2cdcbdac57b8U, 0x3c9e406abda7e316U,
  0x3aeca540bd4f6581U, 0xbcc16e6b3d94bb79U, 0x3de991993dd3fd94U, 0xbd474ca03d469f85U,
  0xbc0479dabcbbae28U, 0xbd5f4dab3b05d8c4U, 0xbccfbbc1bcc2a5c6U, 0xbd16e38ebdda4c73U,
  0x3cdb892ebd7c46dbU, 0x3c80850bbce99b76U, 0xbd4c6bfcbd35ed79U, 0x3c8360273d45c6d4U,
  0xbd6b36303cb963efU, 0xbb5369c2bca17b49U, 0xbd72c05f3d55326cU, 0x3d7ccc173b6be3f6U,
  0xbd5cc95fbd738eebU, 0xbcc9ea21bd5b53d8U, 0x3d0b54cc3d331ebdU, 0xbcb75cb2bcd08669U,
  0x3d1b15ccbd806978U, 0x3d45f717bc826163U, 0xbd1a87203d57bf25U, 0xbcfecc643c0ac0b6U,
  0x3d8d3f07bd67f498U, 0x3d1c714b3bb0e5e0U, 0x3c51aa75bd52208fU, 0xbdda436e3d5354e9U,
  0xbdcc400bbdbca520U, 0x3cd40784bc53cc12U, 0x3d09d6853d0f4835U, 0x3c3af84b3d18165aU,
  0xbd0ee227bd893f97U, 0x3b9c5ac33d499515U, 0x3d3bc616bc12158bU, 0x3d9334eb3d17797cU,
  0x3d8970a93d8e3f2fU, 0x3d3f292bbd632b77U, 0xbd0698a63d7e2abdU, 0x3ce75730bc52ace2U,
  0xbd812802bd0faff3U, 0xb9eb383b3d990fa8U, 0x3dbcd36ebd857245U, 0x3cb6995c3d18124fU,
  0x3d296ab73d661e72U, 0xbdb10e10bd1df00cU, 0xbd70b6c1bdc5f994U, 0xbca51c013d6f3adaU,
  0xbd4a97bb3b50d327U, 0xbde36440bd6a373cU, 0x3d80800c3da7ce2fU, 0x3db16efdbd39af2cU,
  0x3d82d85d3d9576a6U, 0x3d164ce5bc06ea6bU, 0x3e0dd4aabd6dd7dfU, 0x3e0bff873e49d3ddU,
  0xbce38d4c3d41b993U, 0xbe1160eabd701a62U, 0xbca281bebd4a8d9dU, 0x3dc8f0133d840844U,
  0xbd8680fa3d84fa17U, 0xbdeddef1bdfce589U, 0xbe0e5039be0ce4a2U, 0x3e250bb3bde1bc98U,
  0x3e06c0903d82cee1U, 0xbd778fa73d131e1cU, 0xbdc6a7b2bc8c8132U, 0xbb9520d3be01a7feU,
  0x3d9081e7bd26d4cbU, 0xbd6e7f81bd9ae90eU, 0xbc4efc833d43be39U, 0xbe05a368bd346376U,
  0x3d9bdfcabde1e69cU, 0x3c8c1a873dd3784eU, 0xbd2de411bc86bbe4U, 0x3c2e6c8bbd1fbfc7U,
  0xbdb82fdcbddc8dbcU, 0x3da3235e3e1a83c3U, 0x3d94d8033e0a57daU, 0x3c16dfc5bcb5b74dU,
  0xbd75c123bc663404U, 0xbcec7af03d5909b1U, 0x3d775c50bd5d1246U, 0xbd816b6ebcfa7996U,
  0xbd4fbce43d87c9e8U, 0x37ce0000bbcc90b0U, 0xbd3b0fb1bd35addcU, 0x3adb8740bcbce25eU,
  0xbce761e4390a3c00U, 0xbc8e5520bc536ba8U, 0xbd8f80bfbcd10738U, 0xbd12b2ef3cd22564U,
  0x3b4fe680bc4dd3fcU, 0x3c0aa988bd3731f8U, 0x3d8cf856bd90b54cU, 0x3cb8fe243dbbac53U,
  0x3c97a77a3d969d28U, 0x3d06c5883d992483U, 0x3ca4c8563da15351U, 0x3c6d9038bd50b8aaU,
  0x3bde984a3d835519U, 0xbd72021a3c0467eeU, 0x3d7a6143bd8cb9fcU, 0xbbc00d53bccc8232U,
  0xbbdf97083d004d7eU, 0xbcf9d04dbd669858U, 0xbd8e0de2bd41d89aU, 0xbc86ef4cbd678bd6U,
  0x3ce7acc3bcd43b85U, 0x3d05ca72bc243471U, 0xbbd9e9383d500c4eU, 0xbc895cffbc9fe591U,
  0xbd1a46e53d16ded0U, 0x3cb4aaef3d847a9dU, 0xbce15ffcbda59c8cU, 0x3d26ef4cbd9a2a1eU,
  0xbdbd050ebd07e2e4U, 0xbc962cddbd918032U, 0x3d3908403d894ff1U, 0x3d9235db3d7c5a42U,
  0x3d3233b63d070086U, 0xbd93e4a03d60b44bU, 0x3d9f1efe3dfc5a8aU, 0xbd3027b63dbad98fU,
  0xbd1ebb1bbc1678dbU, 0xbb672f4cbc8ec7e5U, 0x3d829df7bd11574eU, 0xbcb881bc3da909d8U,
  0xbda11a94bdba7048U, 0xbd9ce5dfbd7fa4edU, 0xbc00d5b5bd84fdf5U, 0x3dcb9f683daabe90U,
  0x3bee6485bce9bdf0U, 0xbd9d92cbbd81177fU, 0xbd1982b03d53624cU, 0xbc29626c3ca750beU,
  0x3d162357bd59dba3U, 0xbd858a1ebc64310bU, 0x3d9566c2bd4c21bcU, 0x3d491f47bd685e21U,
  0xbd8765ce3c8671aaU, 0xbd5a1905bd8597a5U, 0x3c98e3c93c16227aU, 0xbd9080d33d6acfadU,
  0xbd6e4820bd0d880aU, 0x3ca25d91bd5aad48U, 0xbc80279b3d5cfefaU, 0x3cf792693ba87d03U,
  0xbd8bf625bd0b10c8U, 0x3d34ac0d3b95c079U, 0x3ceee05d3d614a9cU, 0x3d8a4b92bd6d6f8eU,
  0x3cd13f6bbd8ab773U, 0x3c8118873c5b3382U, 0x3bb7f1ed3c927ccdU, 0x3d87fc8abd8f97a0U,
  0xbd9c84593d5897c5U, 0xbb917659bcedb7b1U, 0x3d674b513da688b1U, 0xbcac58d5bcb374e4U,
  0xbda603963c8cc4b4U, 0xbc158b84b9ab8351U, 0xbcf01c11bdb7083dU, 0x3c2c2d1ebd5c1592U,
  0x3cf4ccddbd663840U, 0x3d35381fbd387e65U, 0xbd259b353d8d1d84U, 0xbd8af80e3d810c5aU,
  0x3b9419d7bd77b39fU, 0xbd7722b1bc71375aU, 0xbd4a9508bc189a33U, 0x3bacfcbdbcfeac57U,
  0xbc40cbd73d949cd7U, 0xbd761c023d88010eU, 0x3c56fec13d05b95aU, 0xbd31078bbd5411daU,
  0x3db507633dd282d4U, 0xbd7b222d3d763e67U, 0x3d8adb05bce4d7c6U, 0x3da125213a5b2c61U,
  0x3c9c0b66bcb43c19U, 0x3cc03e19bc947e03U, 0xbda0869d3d3c2e73U, 0xbdd38a8dbc894d1fU,
  0x3caa226abdbd7cbdU, 0xbdace255bd4444a1U, 0x3d44c506bd9452aeU, 0x3d56f545bdb8ef9bU,
  0x3c1d58883c475888U, 0xbd982d2ebd6b2223U, 0xbd9d95f53d0d6869U, 0x3c273e90bd9fab5aU,
  0xbc138438bda23c82U, 0xbda092e9bd8d5c8cU, 0xbd593c32bd9b530aU, 0xbd70ce713d6c5011U,
  0x3d1e84a4bce47350U, 0xbd55d0103cd7563bU, 0xbd3a0c073c3b95f8U, 0x3c2bae663cd3fafcU,
  0xbd3c4fd6bd5fa772U, 0x3d2c3347bc6e0e77U, 0xbcd362a4bc2ff94cU, 0x3b1a6a0d3c8f7e0bU,
  0x3a9d471cbc91444dU, 0x3d3772513d9b49a6U, 0xbc36ca693d1f50f4U, 0x3cfd6b94bc137e72U,
  0xbd35c3aabda656aeU, 0xbc15b229bbfbc8f0U, 0xbd3cd73e3c5f69e9U, 0xbd86ec16bc990d5eU,
  0x3c74bcf7bd8e2b82U, 0x3dab0e4d3bfa43aeU, 0x3d05e15a3d9d2027U, 0xbc9e63943d785881U,
  0xbb3e0ecabd5eafaeU, 0xbd97ef47bd90c1f9U, 0x3d4512a4bd2394c1U, 0xbcc2ab6ebd2ab35aU,
  0xbbd43e643d87701fU, 0x3d426d433dd83bfbU, 0xbd0e22003d95d82cU, 0xbd835ed2bcdb7db2U,
  0xbcb7b8f43d723fc0U, 0x3c6bddfabcb1907aU, 0xbd42f688bd130e8fU, 0xbd18fb4fbcacbd8fU,
  0xbd394e933d57ba70U, 0x3d130db8bd8c7ac0U, 0x3da91dca3ca74e94U, 0xbbd36c5e3daf8accU,
  0xbd5af0b3bd87d9b8U, 0xbdb8f02abc9f5b39U, 0x3d71e0babdd15ee9U, 0xbc076e9b3df27bafU,
  0x3d8df3a33de5f4a4U, 0xbd05a45cbcabec48U, 0xbdf32ab6bdce9837U, 0x3ca678f03cb4bbe9U,
  0x3d6c304abd0b1b83U, 0x3c39eee93d7dd559U, 0xbd13b4083ddff85fU, 0xbd5663483d0291caU,
  0xbd8cf59e3b99bbacU, 0x3c8358aabd8d9940U, 0xbcf9bf48bcaf1d17U, 0xbd602751bd99de0cU,
  0xbd835299bdb005a9U, 0x3d944523bd1d6108U, 0x3ce1b35d3ac6f405U, 0x3cdcf2c63d8b5ca9U,
  0x3cdc09463d4d5de7U, 0x3d863193bd8ddce9U, 0x3c8cb25b3d7bc1afU, 0x3cb657ce3da4b3ceU,
  0x3c2251a43c7ecd8dU, 0x3cac0b3b3dcad30aU, 0xbc185ecf3d288e6eU, 0xbd67c9c0bda7358eU,
  0xbcff7f00bd1cd0adU, 0xbd976cacbc228824U, 0xbdb28417bbcc5e8eU, 0xbc0c1682bc3f5099U,
  0x3d8a7f3a3d0f3e08U, 0x3caa87ee3d426b41U, 0xbd80a45c3d1b4187U, 0x3de9ffa7bd5ff330U,
  0x3d774c163cc88acdU, 0xbccb4c8d3d4be29aU, 0xbcfb2e3fbda148ffU, 0x3cfd82a1bd48bedfU,
  0x3c5ee8c7bb04c70cU, 0x3d2da45ebcaf927fU, 0x3da00684bc7dc3a8U, 0x3d68bcad3df2c77dU,
  0xbd20d9113dd5d39cU, 0xbb48d95cbdba8b6aU, 0xbc91fc9dbdb00ac7U, 0x3d9b5021bd65ae59U,
  0x3d8822883d6ffacaU, 0xbddea9e9bdb6a279U, 0xbd76017bbdbba849U, 0xbc93add43c858565U,
  0x3d5f80f73dd00707U, 0x3d513bb13d99e6e8U, 0x3dabcebf3d8c1656U, 0x3da3b1cf3df798abU,
  0xbd9b0b263d2b340eU, 0x3c67f6b83b3d7cdbU, 0xbc1aa438bd32e389U, 0x3d6d008bbd67c33aU,
  0x3cb1ff303d12ffe8U, 0xbdbaffb1bdfe5923U, 0xbe00ae41bdb64667U, 0xbdfab29cbdb30d49U,
  0xbdb8f0ec3955fd78U, 0xbd8194ea3cab1a20U, 0xbd21c04fbd467482U, 0x3c23c4483d97129aU,
  0x3d13d3e0bd8026e3U, 0x3d9c59ea3da8a563U, 0xbc58730a3c9c65bbU, 0x3d315822bc441183U,
  0xbd90f9823c8497ebU, 0xbd2469f13d93d61fU, 0xbc8f9ff8bccecc45U, 0xb971fccabd3b1648U,
  0x3d121b24bd2363bfU, 0xbc27a739bd914b3eU, 0xbd20b67a3d17008fU, 0xbce67730bd9fb946U,
  0x3d696bcbbd1650f8U, 0x3d4f6751bcee9024U, 0xbdbeece2bcc41710U, 0x3d4d85b5bbb30f4eU,
  0xbc141289bd924aaaU, 0x3cccea213c812c17U, 0xbda895de3d2e0f21U, 0xbd8ee9f83d5a5407U,
  0x3d929f2d3d16bf2eU, 0x3ceaafab3d9ae2bdU, 0x3d47a9503cde7b55U, 0x3c91d48cbd7bcbceU,
  0x3ccc0efcbd5d6ef0U, 0xbc6f4bde3c8445b4U, 0xbc26dff4bd42cb1eU, 0x3c70e4433d8187caU,
  0xbc5615b43c85a2b1U, 0x3d8c6db63d444dd5U, 0xbd3356e33d898c86U, 0x3d69afc13d76e418U,
  0x3d7e8726bd9ae9f3U, 0xbb81173c3d8b9a9bU, 0xbd91602abc0ec263U, 0xbd4092f8bcc8fb0bU,
  0xbd28c3863b48600eU, 0xbd1f5493bd7e06a8U, 0x3d8083473ca9f9f7U, 0xbb6c11bebd0784b5U,
  0xb9c41bd03da09902U, 0x3c0d80f33d2cd4b5U, 0xbdb9a8ea3d6fb526U, 0xbd14e767bd7b8f1eU,
  0xbd513c363c63f97aU, 0xbb106f1c3cc86373U, 0x3ca150823d6f8ba1U, 0xbcdff367bd6e7f2bU,
  0x3bfd01d8bcd46437U, 0xbd2b78acbd3193f1U, 0x3d94ab29bc09adc4U, 0x3d60058f3cec6ceaU,
  0xbd1e98d23c0ca8f4U, 0xbd704c15bda3b696U, 0x3d3f13bfbd6356dbU, 0x3d8389953d9cef01U,
  0xbd8230093d4af55bU, 0x3d01963e3d022199U, 0x3d281ccebd92776aU, 0x3d7c3236b989a924U,
  0xbd92114abcf7e032U, 0xbd0d06a83c15ea2bU, 0x3c7c40863d5b05b5U, 0xbd02459b3d930659U,
  0x3d050852bda9d65cU, 0xbd9736b3bd534933U, 0xbcc7499abc26555dU, 0x3cd04398bc76a214U,
  0xbce65f0e3d165d20U, 0xbc660ca93d8c01bcU, 0xbd4db4233cc4c6b2U, 0x3cf628913bfd09b4U,
  0xbd695b5d3d721401U, 0x3d80a82b3c777ddaU, 0xbd11607a3d019d4eU, 0xbcaf52403d717d8eU,
  0x3d5e6396bd5551c4U, 0x3d8de4d03b5c1b09U, 0x3c9ef242bcea29beU, 0xbd787c06bda78602U,
  0xbd7d01933d09b9d7U, 0xbd85df94bd8ad712U, 0xbd962ddc3a87a17fU, 0x3d088a13bd097cddU,
  0x3c7fdeef3d6c1fd7U, 0xbd4ba78dbd2679d7U, 0x3d26cea43c947d97U, 0x3de8ad3cbc1d69ffU,
  0x3da474133da01a1eU, 0x3ce3fe823c27ecd8U, 0xbd2b06aa3caa8b3bU, 0xbd06b70c3d357510U,
  0x3b929aca3cd6d38bU, 0x3c10d69b3ccb3912U, 0x3d534a433d498ab1U, 0x3d98dd8f3d8f156bU,
  0xbd986500bd2267c9U, 0x3b006b173c984b5fU, 0x3d061a63bd6cf60dU, 0xbca89d4ebda121a5U,
  0xbd90636cbd68ccc0U, 0xbd9002e9bd57a410U, 0x3c81c8693d48cb0eU, 0x3d9a179abbe4072dU,
  0xbd832456bce0e0d0U, 0x3d84fd6b3d4c5568U, 0xbd4c34f43ceabd1bU, 0x3d6a41f6bd1a271bU,
  0xbd0a424c3db87435U, 0xbda86c1e3cbaa0fbU, 0x3dae24bc3cb2e50bU, 0xbd01d55e3d094880U,
  0x3d9a5d533dad56c0U, 0xbd267c7ebcd75e6dU, 0xbd6a4273bdc77abbU, 0xbd3ebb39bcb4b193U,
  0xbd7203fb3c896590U, 0x3cf394653d117e29U, 0xbd22886abd38f1cbU, 0x3d3d9f953ccacba5U,
  0xbc55e7753d6a627dU, 0x3d9ff2733d7a3dbdU, 0x3cb6d3f63c834d48U, 0x3b7dbd4c3c5b1016U,
  0xbbf5326f3c3becb6U, 0x3b4b5d8fbd879f66U, 0x3d9b528ebd62b015U, 0x3d835d763c857e3fU,
  0xbd83538bbd8a8877U, 0xbd56c246bd6a2499U, 0xbd2c7117bd2c7373U, 0x3d2ba7d4bd53ea78U,
  0xbaa40ad7bd3c8d79U, 0xbc73b698bd4d736eU, 0x3be50dc83b5c0d86U, 0x3c271c23bc6fe467U,
  0xbd32f9c13cb676b7U, 0x3c85f651bd241743U, 0x3c86e84fbd8601fbU, 0xbdb84eaf3ce6b8beU,
  0x3bd2243a3cc15e69U, 0xbd9f7872bd7c333dU, 0x3d16cf66bda6eeebU, 0x3d9e18c53d28576fU,
  0xbd52cfee3c91ad5dU, 0xbdaafc79bd29c4e2U, 0x3d04a3663cdeab62U, 0x3d6ab9e5bbe84d89U,
  0x3cda369d3aa24fc5U, 0xbd8770c9bd177958U, 0x3d3d4f8dbd8927a5U, 0x3d43a1f5bd84d4ccU,
  0xbd777fe7bbda59ffU, 0x3d24a9633d50dbe4U, 0xbd1aa6c53c1428a1U, 0x3d11d187bd28b0edU,
  0xbbe6f7433d27495eU, 0x3cb32f653d68b590U, 0xbd8cfecd3d06d3fcU, 0xbda21c973d4b80a8U,
  0xbbc110b53d77bc43U, 0xbd2543c1bceb937eU, 0xbca5d37d3d7f1d65U, 0x3d133b533ac2d2d4U,
  0x3d01a8d23d76cab6U, 0xbd280889bd69de2fU, 0xbb8b2b02bcae68ddU, 0xbd830557bc0cac41U,
  0xbda043cdbd15e2d7U, 0x3ca7c52a3d0f79d9U, 0x3d6bb0b4bcead973U, 0x3d390735bd7807eeU,
  0x3c26b8fdbcf42749U, 0x3ca7bb273d9299b4U, 0xbd45ba9d3c41aa6fU, 0xbb106bddbd4d3b1eU,
  0x3c6eb1a3bca7863aU, 0xbc3695d1bc467104U, 0xbd3731d5bd96f334U, 0xbd7d0f05bd8bcf1eU,
  0xbd6eca013d702fdeU, 0x3d9239573d66f414U, 0xbbaa73b3bc683db1U, 0x3d2fa7e23d42a716U,
  0xbc7f87d63c214089U, 0xbd13047cbd88e1e0U, 0xbdab023b3d8b8953U, 0xbdcb2761bdab0142U,
  0x3cc819c93d3e6800U, 0x3c8a12883d1cff80U, 0x3d0333b03da0c0e1U, 0xbd484853bbe44e86U,
  0xbc39d7d73d4269bfU, 0xbb1026abbd84862fU, 0xbd0be0363d28ade6U, 0xbd9398e4bc1b6a5eU,
  0x3d8b1cd13d731838U, 0xbc790e45bd6a75a6U, 0x3d4dd805bc5de59eU, 0x3d01da603d9e6d06U,
  0xbcc2ce863b03a33dU, 0xbd147a82bd2497afU, 0x3d2bd870bcf0b7bbU, 0xbd114745bcece529U,
  0x3c9c4ef7bd9c9877U, 0xbd60e74ebd0f925dU, 0x3d340ed73d29b146U, 0x3d2781bebd94b249U,
  0x3cbdd6efbd1c99bbU, 0x3cbaca633d769b05U, 0xbd0fc0183d3412aeU, 0xbc6cf24c3ca081ffU,
  0x3d0bb8f43d8a0154U, 0xbd3481e33d68b78cU, 0xbda0a32d3cd3411eU, 0x3c4cbb473d248817U,
  0xbd381276bda90debU, 0x3d325276bcc78198U, 0xbbe534c33d553a1bU, 0xbd02363dbd83e481U,
  0x3d6ac8363cf17f33U, 0xbd20cd983d930aa6U, 0xbb4b7ce2bd3e0dd4U, 0x3d8f6d8d3d16aea2U,
  0x3d5c97273d7332fcU, 0x3cbe2b85bd7dac2aU, 0x3cceb52f3d1c12d6U, 0xbd6f5e0bbd309cdaU,
  0xbd1188e63b47adacU, 0x3ce9d4ed3d52a8d7U, 0x3d3b2d09bc83d60cU, 0x3b9d3563bd31d2f3U,
  0xb9c6f5f8bc9de5dcU, 0x3d4d4e54bdaa5d5dU, 0x3d0fd081bc30d314U, 0x3c8832b1bb3560beU,
  0xbc8f2b723d36ed24U, 0x3cc3e9793c1ed1adU, 0x3ccc68763bfa7594U, 0x3cc8b4a33d695ac0U,
  0x3d4994a73d3be85aU, 0x3c7b44be3b9c9860U, 0xbd2beb773bc6ec14U, 0xbd9b8210bc130a8bU,
  0x3d20fd22bd2239cfU, 0xbd8b2045bd4144bcU, 0xbd43fa9e3ba0c61eU, 0x3beed54abda6a894U,
  0x3bdf3e1abd11de26U, 0xbc9c4186bbde3753U, 0xbd8a30b6bd11ca47U, 0xbd233132bd5e7eddU,
  0xbcc8f1f2bbeb6138U, 0xbd2ea1d83c242a93U, 0x3c3a5158bc9dadfaU, 0x3c758eb8bb5601a0U,
  0xbd843c5abd829e83U, 0xbd5508c0bc2cb990U, 0xbd38e1423cc27964U, 0xbd0ce686bd3f8586U,
  0xbd204ca8bcc74032U, 0xbcb870623bab7550U, 0x3c7de3b8bd5b0332U, 0xbc37ab903d57464aU,
  0xbc3d1c80bb9f9a60U, 0x3c5e8ee0bd276dd9U, 0x3b6f5100bc1a9d78U, 0xbd5ddf58bcd44034U,
  0xbca98535bda62175U, 0x3d660b163d892acaU, 0x3d508b9b3cd9d3b8U, 0x3d2c410ebcb1b74dU,
  0xbcbaacc53d68b571U, 0x3c8f12c5bdb9174aU, 0x3cd5ed6f3d71e1d2U, 0xbd90790c3d384751U,
  0x3bd05a96bd9405a6U, 0xbdb013bd3c92fcd3U, 0x3d26cc493d93e775U, 0x3d2a3aa03d80443aU,
  0xbd1f83563c890f03U, 0x3c164be23c9d52cfU, 0x3cd42bc7bd3cec71U, 0x3d6b5d933da570a2U,
  0xbbf7ef4a3d8f9be5U, 0xbdbafa4fbd3a7868U, 0xbdbe8fa83cac781fU, 0xbdae0ad9bc317b38U,
  0x3ca2647bbd9f534eU, 0xbca1a1753d75c1c3U, 0x3d849a81bd4f302dU, 0x3d2ca2943d906e2eU,
  0x3d39b2b0bd5c726aU, 0x3d3d68adbd6232adU, 0x3ca0501c3c3ddfefU, 0xbd9396c6bd0e9030U,
  0xbb2166ae3d3a9f49U, 0x3ca7c7e33ce878bbU, 0x3d15f693bd19629fU, 0x3d166d2a3d479e16U,
  0x3ce3cb093ca6f4eaU, 0xbd2d0def3d0f73c0U, 0xbd53b6d13c2dd8bdU, 0xbc675d623d4aef13U,
  0x3cb3c611bc08ffbdU, 0x3d4219f4bcfac64eU, 0x3d4b8a76bd0d2719U, 0x3cefaacdbd528fa5U,
  0xbd87f447bd7ab877U, 0xbcd76e31bd3b06b6U, 0x3d89ce09bd90c451U, 0xbc5f4f753c7c71b5U,
  0x3d9614aabd2574b8U, 0x3d804edb3ceaa2b7U, 0xbd268b393b32fe32U, 0xbce9b6573c4e7510U,
  0xbd351cdbbd6f7c70U, 0xbd25e838bcfcee53U, 0xbca7dd35bd9b94e9U, 0xbbb22d653ca7de35U,
  0x3d7021823d8228b1U, 0xbdbc28aabd50d091U, 0xbdaddcd2bd4fcf9dU, 0x3d27cc3a3d9ed5b9U,
  0x3cfa20b23d60cf0bU, 0xbc960f923d8af992U, 0x3cf58d233d0d1edeU, 0x3d7130fe3a4fc5cbU,
  0x3d59d5cc3d07865fU, 0xbcfb9d513c4c4cfbU, 0xbd60dd1fbda1e910U, 0x3d36e574bb2c1be4U,
  0xbb6e6dc1bd207e9cU, 0xbd02e994bd722e9cU, 0xbbc33d00bb39afe1U, 0x3d661e71bd1428c2U,
  0x3c605ceabcdc0560U, 0xbd82fa953cafb1fcU, 0xbd8016a43d22feb5U, 0x3d2a4b86bda8ed0eU,
  0xbd24e1b23cd72a89U, 0xbd80e78e3d2e27cfU, 0xbc1d59413c18a866U, 0xbd8546a03cdab8f9U,
  0x3d8425723caaf073U, 0x3d467c5e3d116461U, 0x3d42f5733d224a2fU, 0x3d4937e13d524c3eU,
  0xbd61e04cbb8abc29U, 0x3cf37cd0bcd5da22U, 0x3d44489cbd2a8b00U, 0xbd171aa63ce94d31U,
  0xbd824b9d3d5f4cedU, 0x3d7bcf113d94700aU, 0x3c0b37c1bd0136a9U, 0xbd9f41703b1d45e9U,
  0x3c8512bdbb9dd239U, 0xbd51a79e3d3b5a7cU, 0xbd67b7c2bd755511U, 0x3d88034fbd50b1c6U,
  0x3cd546cd3d96c906U, 0xb9ea82543c48ac13U, 0x3d31fac23d8cf5a8U, 0x3c7ccd543d8a31d0U,
  0x3c1e52123d96cf28U, 0x3da2abad3d81a6acU, 0xbd4c4ad83d850758U, 0x3d08c6debc662554U,
  0xbd410337bdafcc77U, 0x3d3b643ebd3e99e0U, 0xbd65101e3d56ad53U, 0xbd9ea28dbda62915U,
  0xbd287c223cc74856U, 0xbbc85355bdbbefb3U, 0x3c706f93bd8a31ffU, 0xbd85b2efbd6a4cdeU,
  0x3a3eb880bd634ecaU, 0xbd7ba527bce2acd2U, 0x3d4a77263c758230U, 0x3d0b4c7abd2169bdU,
  0x3cd0bdd0bc1b6938U, 0xbd294ce23cd111fcU, 0xbccb3982bce08dfaU, 0xbc37e5a4bcdee8deU,
  0xbd21c0bcbcb86638U, 0xbd2b92d6bd471984U, 0xbc52357c3c4ed900U, 0x3d1d1f44bcb4426eU,
  0xbd4b32adbc1a40acU, 0xbc0c8d4dbd4d424eU, 0xbb099429bd50dda7U, 0xbcbae9183ca122efU,
  0xbd97d60bbda90677U, 0x3d8651e53c981c00U, 0x3c9d354f3d9a5ffaU, 0xba0847ad3cce5053U,
  0x3baf9d6dbcfb54d4U, 0x3ce65c093dae2d0bU, 0xbd8847cfbc898845U, 0x3d880517bd55a27dU,
  0xbd13a9c63d49a60aU, 0x3d11ba2bbc34fbe8U, 0xbc05eff43cf98acdU, 0x3d192315bd3dd27bU,
  0x3dbdfd4a3d84dc95U, 0x3caed9c13c8a2999U, 0x3d194ddbbc69ec10U, 0xbbc9f4163d1cc5d6U,
  0xbd45b88c3dd8e09eU, 0xbd2d0149bd29d5efU, 0xbddf93bfbde46809U, 0x3e0baf1abd5c3b91U,
  0x3dfe1ea43de70993U, 0xbd79bfa7bda0ac32U, 0xbda580c63c4b0ba2U, 0xbdc5837fbdd172e7U,
  0xbda77c47bcf9ce2fU, 0xbd167078bd5e15b9U, 0xbc15d8413c110a80U, 0x3c73d1bfbd96da4cU,
  0xbd3a68e6bd68ac33U, 0x3d84ef113d5cb13dU, 0xbcc212d43d04ffddU, 0xbd8a7aadbbcd567fU,
  0x3cc7cee83ca952d5U, 0xbd22a28f3d479b77U, 0xbda6a64d3d5a863cU, 0xbd4b2460bcb0af7fU,
  0xbb4424c53d3a55d6U, 0x3d561759bd72e837U, 0x3d961c7cbcc77543U, 0x3d967f473d304e48U,
  0x3d859e88bd037d61U, 0x3d6d1cee3d24c77dU, 0x3d7b939bbd930ab7U, 0x3c846906bd5504a9U,
  0x3d988b73bcb75dfdU, 0xbc42d4403d8ff940U, 0xbd9914edbc7ff590U, 0xbca3b279bd25aa6eU,
  0x3d1f6631bd4fefd4U, 0xbdb3aa24bdb248cdU, 0xbd81e4aabd38479eU, 0xbda2aca5bd746becU,
  0xbd4ff701bd36880cU, 0xbc45dd50bd76f285U, 0xbda35d8abd4fb762U, 0x3c4884473c3170daU,
  0x3d67c1c63d8f71baU, 0xbbc5bb8d3d992488U, 0xbc94be96bcc6194cU, 0xbd33f7ccbd3fef85U,
  0xbcb2bca73da693deU, 0xbcfa6857bc697a4eU, 0x3d6702d53d93fc42U, 0x3c8e2b1b3d8901beU,
  0x3d6a109a3d9267c2U, 0xbd35e6353d20de89U, 0x3da2d520bd2ea0cbU, 0xbcf6ad733d4be169U,
  0x3d2076c4bd2083c2U, 0x3d6952613c8bdef3U, 0xbca6e2153dafab2dU, 0xbc90ad523d4cc22dU,
  0xbd9ff6bfbd8df880U, 0x3d1b35093d37e1feU, 0xbcf1f07d3b8370e6U, 0x3cb8a19fbc440ae9U,
  0x3c5617dcbd9d9ef1U, 0xbdb6ec0cbd26fd34U, 0x3d315baa3d10bdffU, 0x3d42d9103ce5f3f4U,
  0xbb8de4bfbda1ddc7U, 0xbd81488b3bb21180U, 0x3ba5ff85bc47fe3aU, 0x3b8f9d133d2666f3U,
  0xbd2ff6fdbd714e62U, 0xbc31d9ef3ba4481aU, 0xbc4363cf3bd0220eU, 0x3d3231cabc935829U,
  0x3cc0b1a33ccfd182U, 0x3d66c1b33d866caeU, 0xbb0e21f3bd1f09b0U, 0xbdbae7c5bcb5e081U,
  0xbda4df2cbd89d809U, 0x3b7919643d8d44d4U, 0x3aac6f9c3caa0f8bU, 0x3d72348b3dc0a0e4U,
  0xbd8bbc343d4cad63U, 0x3d2b54ecbd118444U, 0x3d4c2b1c3cadcba5U, 0x3d6702a8bba7ffb4U,
  0xbdacc1193d7ca041U, 0xbd72de39bc859b4bU, 0x3d041d56bd2f598dU, 0xbce46150bd34cbd5U,
  0x3d034d333d283d41U, 0xbdcc354fbd9c2258U, 0xbd6b9faabc6cf288U, 0xbd29ef8b3c572db7U,
  0x3df1d6f83e2e44b6U, 0x3b86b1bf3dd5679aU, 0xbc8a614bbdd11ae3U, 0xbd9ee2aabdff69cbU,
  0xbd6ae8c5bdad89b0U, 0x3bfbec98bd69d102U, 0xbdbeb4f8bd3f2829U, 0xbd67f449bc299e9dU,
  0x3ac554d73d68b8fdU, 0x3d9ba37e3dc3601aU, 0x3db5b8e73ddceb13U, 0x3cb7ce8f3d676751U,
  0xbd0901ff3ca0871fU, 0x3ca80ff83cf5ff5eU, 0x3c8f33493d956718U, 0x3d2b762f3d1145fcU,
  0x3ce94beb3cf8d59dU, 0x3d2811dc3d783227U, 0x3b74a387bd8b797bU, 0xbdb1c825bcf9885fU,
  0xbce89c8d3cb668bfU, 0xbdb58308bdcb8ee1U, 0xbd4dd93e3c9e8138U, 0xbdac43abbd35f77aU,
  0x3d63c9913d31f1eeU, 0x3dd64f903c9d552aU, 0x3c807e063e005467U, 0x3e0ac9103ddcc11bU,
  0xbcb92e033e0c5e7bU, 0x3d34a5e4bccf9964U, 0x3c2d45bbbc08af75U, 0xbdd4175bbc0bb9f7U,
  0xbd302d9bbd96b6d5U, 0xbd218f2fbdd7b4ccU, 0xbe0bce54bce77c0dU, 0xbca0743ebddb0c7fU,
  0xbe07fc19be2a1b55U, 0x3bfe1defbd14583aU, 0xbd2dec47bd97433fU, 0xbbb3a9bfbd9e5b9aU,
  0xbc4352b2bd3b0b3fU, 0x3cfb15c63c0949abU, 0x3d2bc4fe3c1e058eU, 0xbd63ce9ebd41e17aU,
  0x3b23d9dfbd65f41bU, 0xbc0adf75bd3ddfcaU, 0xbcb2a4c2bd9a6c75U, 0x3d27efee39573cc8U,
  0xbd9c0c40bd866cb9U, 0x3d4c78e93d35a4edU, 0xbbbe923bbd9a5992U, 0x3c9875bc3a8752d4U,
  0x3d8a49353d3546f9U, 0x3c205bbf3d883f83U, 0xbc8f50dfbba26894U, 0xbd1fc5be3c965565U,
  0x3d3b6026bb050e90U, 0xbd9335933d34f43eU, 0xbd0d000dbd8560f9U, 0xbcb9e936bd346e58U,
  0x3d7172263cf21b43U, 0x3d238bbdbd640e13U, 0x3cb690693d19c91eU, 0xbd9523b3bb02e630U,
  0xbd59557d3bb658f2U, 0xbd2b1004bdab06a4U, 0xbd92e261bd74aa00U, 0x3e181331bd46ba0eU,
  0x3dea8e313ce1ebb3U, 0xbda2429dbcb5784cU, 0xbd99c38bbdc18a80U, 0x3c154115bd2aeb8aU,
  0x3d8d1d423d893955U, 0xbd8aeed9bd1c6efaU, 0x3c2f48b63d7a98bdU, 0x3d48a102bd13cfe5U,
  0x3d25c1cbbd2ae934U, 0xbcd058b03d27dd43U, 0xbd4152cabc958d15U, 0xbca0c66ebd94d909U,
  0xbd8385a23d27a2f1U, 0x3da872f0bbfeb9abU, 0xba6d3ab33d8ff6f0U, 0xbd7b74e0bd20d7f5U,
  0xbd6db4a9bd3a7582U, 0xbd30b30d3bcbbc26U, 0x3d9b49ddbc9c09dfU, 0xbb332e663c862733U,
  0xbda697813d5074b7U, 0x3d7ce04c3cb0c2bcU, 0xbcb24b29bd40ad95U, 0xbd3443c8bd80a71cU,
  0xbc958cc53c4634a4U, 0xbc9a7d4bbdc3bd49U, 0x3be41bf6bc6b63cbU, 0x3d42f042bc405bafU,
  0x3d367d48bc314cbcU, 0xbc7f9c4cbd0ff1eeU, 0xbd3541943d1bda73U, 0xbd8e5c613cacd956U,
  0x3d8ef1e33d73f3ebU, 0xbd3d6c41bcc739ecU, 0x3c22a6863d8dbf40U, 0x3ce022083d1fa60cU,
  0x3c292d533d749ddfU, 0xbc832fe0bd47f7cfU, 0x3d186363bcfc3b31U, 0xbc8cf8fabd5dcccdU,
  0xbcbddfdabd564b77U, 0xbcccf5b23c807853U, 0x3d7c1a54bd1883d9U, 0x3d0b1e09bd905c96U,
  0xbd233532bd16af36U, 0x3cd1d277bb893b39U, 0x3cd28e6e3d104863U, 0xb9961c8ebcf70d65U,
  0xbd9e6b863ce88309U, 0xbd2b9ce93d17ca55U, 0xbd2205ac3c1d9087U, 0x3b881e483d5e9bf6U,
  0x3cafa8b1bd07238dU, 0xbdaaeacf3cf0af43U, 0x3c6b4b503b8a1191U, 0xbbaa0d7e3cabc935U,
  0xbd964fdb3d719c13U, 0x3cdc637f3ce493c0U, 0x3cbc3c4e3d13ff44U, 0xbd26eb2f3d2742b0U,
  0x3d9ed943bbed478fU, 0xbd20826abd979f7cU, 0xbd24529cbbdff5d6U, 0x3ce4f27f3d680eddU,
  0x3dc72e903d76e21eU, 0xbdabb9e33d78bbbbU, 0xbd06e18cbb3b29c5U, 0xbda46a24bdc495ebU,
  0xbaafb61cbd1f7e24U, 0x3bb5a339bd71ebfaU, 0xbd52a9d3bd8d7552U, 0xbdac7aeebdde7ac2U,
  0x3c45fc64bce8a5bbU, 0x3d947a643db2dbe7U, 0x3dd78250bd35ffd0U, 0x3c745d413d97f91aU,
  0x3d9b508f3d70db03U, 0x3d2cf3393ababf34U, 0xbc8b75c63cb07fbdU, 0x3bdc434bbce61bacU,
  0xbb14b563bd69572dU, 0xbd8f23263d542257U, 0xbc6413edbda706d0U, 0x3d58572abd79d612U,
  0x3d5682883cd6245cU, 0x3d506947baf1199eU, 0x3d39c8d0bdaf61a6U, 0x3d53abbbbcb4bd69U,
  0xbd69e2c53d8610f7U, 0x3d4ce5dc3d274dc6U, 0x3d5ee1cdbcd85556U, 0xbdab28cebdbb3747U,
  0xbc0ad793bd824fbeU, 0xbcc683d1bd9418c3U, 0x3e1736b23dde5060U, 0x3c084feb3dfdf3e3U,
  0xbd9c7a70bdad633cU, 0xbdd69901bd3473eaU, 0x3dd0e492bd88cbe7U, 0x3cc9759bbc9445a2U,
  0x3dab1577bcdfeedaU, 0xbd94a43f3d533beaU, 0xbd249e613c2c9297U, 0x3dbaea24bcd8004bU,
  0xbc24b6783c19ff9cU, 0xbc1dcdcc3d4f23f2U, 0xbd30532e3c83011cU, 0xbd61d22bbd4d6551U,
  0x3ccdd48cbc549cc4U, 0x3c1ccba03c1eb658U, 0xbcbd817cbd81fbf8U, 0xbca47b703cdee4e0U,
  0xbd8b075bbd5bdff8U, 0x3c17d6d0bd6b799cU, 0x3d0d98b0bd03e6e8U, 0xba5332003cc61964U,
  0x3d65dd68bc550dc4U, 0xbd214dcbbcb5b008U, 0x3da479673da15d94U, 0xbd2fa711bbb7f064U,
  0x3da1ca053c5d8919U, 0xbcece7c03c4a4910U, 0xbd877392bd321644U, 0x3c7f1d46bdaeb827U,
  0xbd72e4ce3ca551e0U, 0x3d2c4d37bd839edaU, 0x3d44290b3d950e51U, 0xbd0451fabda8bfc7U,
  0xbccb09ddbd9fa0d3U, 0xbcf3c25d3d842b12U, 0x3d6892b4bcecb7eaU, 0x3c80bdc03d8f8d59U,
  0xbd6a304fbd9cb1c5U, 0x3d167823bd18f5b5U, 0xbd85abcbbd5547e0U, 0xbd79e492bdd2523fU,
  0x3d0f7c643d0a2212U, 0x3da09a8fbd7a7fbbU, 0xbcbadc4dbd1967d4U, 0x3a35bb863d18c63eU,
  0x3d2368493d468ebeU, 0x3cecb2a23d8d97f9U, 0x3d830c343d646c8eU, 0x3d7ebcd2bce8174aU,
  0x3d0d034b3c406051U, 0xbd7ce6633d343518U, 0xbd3e6c623b88ddf2U, 0xbdbf1211bdafb233U,
  0xbca00083bd3e05a6U, 0x3ddb9f3bbd811565U, 0xbc9ba0f53dbdd8fcU, 0x3c16e0cfbd026931U,
  0x3e0f671dbcbb72e4U, 0x3dec2de93d9f6663U, 0xbd939deabc02423bU, 0xbd5702453d704f3dU,
  0xbd6383983d1c7e9cU, 0x3d97f68bbc4a1547U, 0x3e02589abd56e075U, 0x3cedaa5b3d5e21a7U,
  0xbce201e5bcde2daaU, 0xbd987423bcce43d2U, 0x3b0fc45e3b55c4b2U, 0x3dfb05503e09d31aU,
  0xbd4a552e3db9dac3U, 0xbda2e8fdbb79002fU, 0xba146957bd37ae0bU, 0xbd03a053bd569652U,
  0xbd6156f0bcc6c0b8U, 0xbdb4ba96bd1effe2U, 0xbc51ce94bd7df7caU, 0x3d89c173bd91d698U,
  0xbd1bbc643d1640baU, 0xbe0a6ea0bba1502eU, 0xbdd20e66be09afb6U, 0xbe17ffa0be2c64ecU,
  0x3d9f70a4be0768b5U, 0x3d86f2b53d89d715U, 0x3d4d98563ced47d7U, 0x3c571ca3bccc11f5U,
  0xbd2f7072bd6e0e23U, 0x3e48ba833e45a37bU, 0x3dcd1fd83d90afe2U, 0xbcd0f3643d139c24U,
  0x3bb1d9af3c33f573U, 0xbc6bb20c3d625182U, 0x3d274020bce9b67dU, 0xbdbfbc59bd0d113fU,
  0xbd87ec313be1f34fU, 0xbc9dc7e13d335df1U, 0x3d1995603d008c9bU, 0xbdd6576abc12c657U,
  0xbddd8c27bdb19a33U, 0x3d26f62c3cc64c2fU, 0x3c21468e3d103817U, 0x3d22fa023caae836U,
  0xbd0b9a06bd47e0caU, 0x3ce49263bdcc35f2U, 0x3d0cf996bcfb9c2cU, 0x3d6f831abcc0c7d6U,
  0x3c5ffc56bd14518cU, 0xbcb8a8dc3b7d634fU, 0xbd83b336bd7510eaU, 0x3e1d5e80bd245fb3U,
  0x3da37fcd3e295e9cU, 0x3cf8924d3d23c0f4U, 0xbd975b3fbdb34a53U, 0xbdb248063d17c4b5U,
  0x3d99a35e3dafb347U, 0xbd1749453d373485U, 0xbdad7b3ebc736e03U, 0xbd1770febd36855eU,
  0x3d0703febdbdbfa4U, 0x3d7268a23c47cbf1U, 0xbceb47953dcb0adfU, 0x3d8fe1da3db9f6d1U,
  0x3d038371bd736b80U, 0x3d8512833e2b7512U, 0xbd394cd23e1ee84cU, 0xbcbb76fb3d664061U,
  0xbde946ddbd981405U, 0x3d584f27bd5eb8cdU, 0x3dd1f5953dc24eb5U, 0xbd9970eebe1d7c0fU,
  0xbdc117fbbde1120bU, 0xbe0a3195be2dd352U, 0xbd71b3693d26ea13U, 0x3d85b6ccbda55e93U,
  0x3b863a4b3d9d6254U, 0x3d76690ebd597a7aU, 0x3cb5ae2a3d294b2bU, 0xbca400ddbd68ba55U,
  0xbd989b773d3af3c2U, 0x3d02f8993ce85cfbU, 0xbca8fe30bd9bfbfdU, 0x3d3c4268bc353467U,
  0xbc8467dfbcca94d3U, 0x3d09a5863cddf6ebU, 0x3d261aa7bc9a2ad3U, 0x3bf026543984ba20U,
  0xbdbb8c8ebd59985fU, 0x3d27fa0fbc45abaaU, 0x3dcd8462bc31d1d4U, 0xbd63fc8abcfb4f09U,
  0x3db6c9db3dfda4e2U, 0x3d97a7a33d4a0a98U, 0xbd6306c1bd5bfca5U, 0x3d6611dabcd961fdU,
  0x3d2f1ca8bd895edaU, 0xbd8d2d41bbc336b1U, 0xbc73ba813d374852U, 0xbbf8cbd03d9c0dd4U,
  0x3cd13da13d6e1502U, 0xbd4df4c1bd9b536fU, 0x3c539bed3c399786U, 0x3d894ffc3c322c66U,
  0xbdbc13ecbd75cf1aU, 0xbd44086abda7e121U, 0x3d0aa3923d59321aU, 0x3c902c9a3d8dc1a5U,
  0xbd3e70f43d2ab1eeU, 0x3d68e978bcadd3adU, 0x3dc9dda73aeb3d08U, 0x3cde995e3d720e34U,
  0xbd0fc1443d0eb8abU, 0xbd892eb1bd7aeb9dU, 0xbcf69ede3d1bbee6U, 0xbd0d44173d172711U,
  0xbc1dc5d5bda672fcU, 0xbdcc02b03d7bb530U, 0xbd90ebc7bc92c978U, 0x3cf3f673bd1dfef7U,
  0x3c2d78cb3da23860U, 0xbd33a23fbd85ac09U, 0x3d381498bd4fae7eU, 0xbb2a54593d7399f2U,
  0x3cc80b803d99a8a6U, 0xbc9fec8cbd726f53U, 0x3ba3d1403d995701U, 0x3d96e6fb3d1ee94bU,
  0xbd3d3b59bd610da0U, 0xbe0b2bf93d97eb46U, 0xbde85271bde64e39U, 0x3d88c280bba1787bU,
  0xbd30ae803d315b11U, 0x3d88bad1bcaf756bU, 0xbda7bddcbd9ebedfU, 0x3d165fdfbccaa9f9U,
  0x3dd63bec3e02bd8aU, 0x3d9894383d7a2355U, 0x3cdf78183d2ea6fcU, 0xbd471f41bd53c20aU,
  0x3d3121f13b20157dU, 0x3d7265cc3da1b528U, 0xbc1361483d8d3c33U, 0xbba43710bc454bb1U,
  0xbd3aa4973c843c9dU, 0xbd9e1ecfbd84ff4bU, 0xbcf213c23d0da35fU, 0x3d7deeaa3c2af1d0U,
  0xbc17e67a3cfe03fcU, 0xbd819e923d59c906U, 0xbd47c46fbd870c2aU, 0xbd7aa337bd327ec1U,
  0x3d8c08b93d97598aU, 0x3db25981bcd92a10U, 0x3d5317453d15ccd9U, 0xbdaf732abdbff9ceU,
  0x3d3b40c93caa971eU, 0x3ced0a8bbbe15c18U, 0xbc8eee88bd0e0253U, 0xbbe85c353cab1240U,
  0xbd1a038abe16a4f0U, 0xbc06e8aebd271376U, 0x3db3c041bd82abb0U, 0xbd3edf4e3d4be34eU,
  0xbdd8f060be09dbacU, 0x3da3d772bdc9c7c6U, 0x3d26eb8d3e043ccdU, 0x3db216653dd091f1U,
  0xbc0a54eb3e0797fcU, 0xbd64b1513c9662d0U, 0xbc90e0cebd9af186U, 0x3d622a9bbd1273a3U,
  0x3c312dcebd40b9c4U, 0x3d431c753d43b9f9U, 0xbc352699bb9e40cbU, 0xbd9fd1c73cdbc148U,
  0xbc740a4c3d3650c6U, 0x3dcdd6983cf1aed2U, 0x3cd4d0c13dbbb90fU, 0xbc1d4b173d6df2f5U,
  0x3cd583c7bd14dbd0U, 0xbda7e5f2bb24cb59U, 0x3e54e4bd3e2ef48bU, 0x3e009bf03e5ddbdeU,
  0x3dc655913dcf25b8U, 0xbd4f15e3bd85eb3aU, 0x3dc8024b3dc642e9U, 0x3d81d7ab3ca9e66bU,
  0xbd889445bd71808eU, 0xbe1a5adc3d865668U, 0xbd6adefd3be38f1bU, 0xbd0b7e91bdd9fc7cU,
  0xbde7deffbd813966U, 0xbdaf707cbe16f0c1U, 0xbe57b607be500296U, 0x3dd05aa0be05af7fU,
  0x3d812fbf3da407e6U, 0xbdbf189fb9b56180U, 0xbdacae22bd214ff7U, 0xbdacaa32bb2a764bU,
  0xbd4b6f533dad276eU, 0xbcf8133d3d51bab2U, 0xbcf71fb13ce0e6c2U, 0xbd17e8ddbc662c8cU,
  0xbcc55953bd6b1282U, 0x3cf1c2e03db5c791U, 0xbd066f1e3cf0eaf8U, 0x3d1e2432bcf2667dU,
  0x3d807897bd3ef66fU, 0xbd39a0f9bcaedd1eU, 0xbcf0b3e6bd8faf86U, 0xbcd8a0c43cdc3ccdU,
  0xbdcae6e4bd95c67aU, 0xbd9acb443c6ac0caU, 0xbbfd1d83bc960b42U, 0x3cbc287cbc6d59ecU,
  0x3cd738823d80fc27U, 0xbd8c31883c786b9eU, 0x3d60d1f4bd94b292U, 0xbd85bfee3d1e9449U,
  0x3d27266e3d7487ffU, 0xbda6edc0bd8e9758U, 0x3d605499bd22d9f0U, 0xbd33d8c0bd38ea02U,
  0xbca48cb6bc3cc565U, 0xba3e2d9abd90bea4U, 0x3d91af93ba806e1bU, 0xbd6cfd39bca5815cU,
  0xbc1b027abd3907d3U, 0xbd70d8dcbdad6c53U, 0xbc52ace03d6e11e2U, 0xbcfc72c4bd60e055U,
  0xbcf3863ebd855fc4U, 0x3d66d5dc3d328659U, 0x3ab98f79bc00b33fU, 0x3d63a10f3d75fe83U,
  0xbba34be73db61f89U, 0x3ca72a153d00bc37U, 0xbcba17f7bd7d7103U, 0xbdd344563bd5a75cU,
  0xbc780ac33bc5c8deU, 0x3d558650bd725467U, 0xbd39df1dbd4b9b78U, 0xbda38bdebd7c05fbU,
  0xbd03d07dbc297ba4U, 0x3e0db5983dfbfb66U, 0xbd08419c3dda6b3eU, 0xbc655eaa3d5cf9f9U,
  0xbdbe9ee5bd0e9d59U, 0xbc27cfb7bd9d6714U, 0xbd8e939ebdb73ca9U, 0xbd9ccf753d585874U,
  0xbc4caed5bc8188c9U, 0xbdace169bd33f1c2U, 0x3dc9421f3dbba807U, 0x3d20ab273dd0e798U,
  0xbc614c0f3da41eb9U, 0xbd6e6cf7bd36dad8U, 0x3cb3921abd8b616aU, 0x3cb89a633dc053d3U,
  0x3da4e835bc6437b9U, 0x3d68155bbd600771U, 0xbd314505bb8e2e20U, 0xbe081c94bdc44670U,
  0xbd63e5f5bde08472U, 0xbcd75d3dbda5ac02U, 0x3d9da6423dc2a3c5U, 0xbcb424da3d5e51f1U,
  0xbd72689c3cc5297eU, 0x3d8113253da78f62U, 0x3d12d617bc6e44ecU, 0x3d8506c93da60f22U,
  0xbd0a424fbdb43845U, 0x3be8c8a8bd476613U, 0x3d1542c93d8edd51U, 0x3c4fdf223d8d7235U,
  0x3d777e0ebd39537eU, 0xbcbea1a33d834209U, 0x3cb868603d2ca5c6U, 0x3d76e8d7bc69a1d1U,
  0xbce8d5433d98d7ffU, 0xbdbe9741bd01220fU, 0xbcdda407bda22160U, 0xbd5286f73d2d6c02U,
  0x3cb6cbcf3dace82dU, 0xbd49b9b83d23aaa0U, 0xbd009fd63d616b62U, 0xbd5423bcbd82823dU,
  0xbc84aac53cf1e61fU, 0xbc5db8f63d1f80caU, 0xbd915a483d63ff24U, 0xbc68fc6fbd796d5eU,
  0xbd69c9d03d6472b4U, 0xbd62bd55bd8fe1a9U, 0xbc9ae8f53bd619eaU, 0xbcc936b2bcff4228U,
  0xbd10fa57bbcc6007U, 0xbd1530023d106064U, 0xbce00c01bbd335bcU, 0x3d88a0a6bcc3307cU,
  0xba67b12d3c000c00U, 0xbd3000af3da983b4U, 0x3db359af3cbb4fe5U, 0x3c62e6513d2c7673U,
  0xbd5a7d8c3d3036daU, 0x3d16150cbd3ee9e6U, 0x3d8fbbc73cdbf4b6U, 0x3d54c6293d562e93U,
  0xbca7a0993d28174fU, 0xb9c092d13c8c9729U, 0xbd06ab403d2b54e2U, 0xbcb4ea06bdbcb35aU,
  0x3d4c8e01bdc7be92U, 0x3d5f1bf93ca33bc2U, 0xbdb0c426bd62a634U, 0xbc6edc44bd16d373U,
  0x3d17b1393cc5355bU, 0x3d99963d3da130c5U, 0x3d45dc62bce3b6e5U, 0xbd8dc5b5bc257230U,
  0xbd59d922bd657733U, 0xbd734f4fbd7aac2dU, 0xbdb13bc63d0fe284U, 0x3d547a9dbc821327U,
  0x3aec0645bc986c44U, 0x3d935e5c3cfdf5ecU, 0xbd603180bd6dbcc8U, 0x3d738c3cbc704b26U,
  0xbd0bc7c83d7e9b33U, 0x3d5ce6683d21e812U, 0x3c98c0b43d4db331U, 0x3e02d30e3e06852eU,
  0xba89215a3d7530dfU, 0xbdbfc2ba3d2806deU, 0xbd2272ffbd302d5eU, 0x3de089163cb2051aU,
  0xbd2b8c223d728480U, 0xbc45e2f23d00f059U, 0x3d578872bda4e17bU, 0x3cedcba0bc42bfcfU,
  0xbc462632bd37786bU, 0xbd1b8116bdb0142eU, 0xbc7fd36bbd867243U, 0xbd2a9568bdac829eU,
  0x3dd294dc3bb7c737U, 0xbbd2e38c3bf6031eU, 0x3d2269b33c56a1a3U, 0xbb9eb8f0bb038291U,
  0x3b6c2c28bc467f66U, 0xbbdc78543c4a5261U, 0x3b6ec4c33dc5772eU, 0x3b3a63f93ce2f605U,
  0x3c11074500000000U, 0x3cc158c13d4bfd88U, 0x3cd63e593b7ea9eeU, 0xbc008ad4bcaddbe4U,
  0x3c1155393c26eb40U, 0x3ce0eae23da25da0U, 0x3c3fe70b3a283ef0U, 0x3e25e17e3ca160a1U,
  0x3d947d0aU, 0xbb28058c3cd0b267U, 0xbb2df8d73d913bdbU, 0xbaea3b6f3b1399a0U,
  0xbc9aa7803d7a743dU, 0x3b4ce6523b34cfaeU, 0x3cd19fb33c4eed4cU, 0x3d802b653d33ed9aU,
  0x3c5147d03dacd13eU, 0xbc5ee0213ca0b02dU, 0xbbddd8a13c0d79f4U, 0x3d3703f9bc589087U,
  0x3cd441ce3c476b0dU, 0xbbb881b33cbd5ad1U, 0xbc11472fbca97b19U, 0x3c2283553b281b45U,
  0xbbc809713c35f501U, 0xbbc3f9a0bcc63b39U, 0xbc24c9e000000000U, 0xbcb849973bde1c5fU,
  0x3c146347bb67f450U, 0x3b5a6260bc8ffc53U, 0x3d1210dcU, 0x3d974ffb3c1f8711U,
  0x3cf4fbc13bf071b3U, 0x3c951ca63d0ab5fdU, 0x3c477dd6bc97ca28U, 0x3c749f963dfda3d4U,
  0x3bf846bf3de8748fU, 0x3d4ec345bc60fb7cU, 0xbc356f283c96fdb0U, 0xbc60671cbc07b628U,
  0xbc1c0a733d74c3e8U, 0x3dd4ff08U, 0x3cb524b53c81ea59U, 0x3d99c7603cb36a38U,
  0xbb4b9de63db354d7U, 0x3dc3cd003d981b38U, 0xbcac110fbb7d4db9U, 0xbb019af63c537a3bU,
  0x3bf7e0dc3a90c637U, 0x3c1c06dc3db8e176U, 0x3ceab6133e3164b6U, 0x3d7069813c8f2a72U,
  0x3d3c1d423dc5a996U, 0x3bdc3fb63d85e906U, 0xbabaff793c7cfbccU, 0x3d24a34a3c8632f5U,
  0xbe7ca198bea0dfc7U, 0xbe1c975dbe4bca2eU, 0xbd5bfe2cbdd41008U, 0x3b01634cbc1153a7U,
  0x3d95de0e3d0b058eU, 0x3e24796a3dee1067U, 0x3e82e68e3e54f494U, 0x3eb797263e9badb2U,
  0x7767767767776677U, 0x7677776767776776U, 0x7767667777777767U, 0x6777776777667766U,
  0x7767766767776766U, 0x7667667766666776U, 0x6677777767777776U, 0x7766767676766667U,
  0x7667766667677677U, 0x7767766767667776U, 0x7777767777677677U, 0x7777676777777776U,
  0x6777766777776776U, 0x6676776667677777U, 0x7767676677776666U, 0x6776666677677677U,
  0x6677676766767677U, 0x7766766767676767U, 0x7776677766677777U, 0x7776777767677677U,
  0x6777777767777667U, 0x7777777777667776U, 0x7666667767677776U, 0x6666776777677767U,
  0x7667777776777767U, 0x7677777666767776U, 0x7777677677766676U, 0x7767777667667677U,
  0x6776667776767777U, 0x6676777777676677U, 0x7767776767677776U, 0x7777677767767676U,
  0x7677766776767777U, 0x7777776766676767U, 0x7776676777677667U, 0x7767767776766677U,
  0x7777676767776766U, 0x7776676677677676U, 0x7666776667666676U, 0x6767766767777667U,
  0x7767777767777777U, 0x7676777677777776U, 0x6676677767677677U, 0x6766777666766677U,
  0x7777667666767676U, 0x7767676776767767U, 0x7766777777677776U, 0x6776776777767776U,
  0x7767677667777776U, 0x7777777767767677U, 0x7667667777777677U, 0x7766676677677776U,
  0x6777677676777776U, 0x7677677776677776U, 0x7677766776767767U, 0x7767766776767676U,
  0x6777776777776777U, 0x7677776767676766U, 0x7667677776676766U, 0x7666676667777677U,
  0x7677676666666776U, 0x7676676676676767U, 0x7767777777777766U, 0x6676767777677677U,
  0x6777677767667766U, 0x7677766767676677U, 0x6777677776777777U, 0x6766677767767667U,
  0x7667777667767766U, 0x7677667777676767U, 0x7767776677676776U, 0x6666677777777777U,
  0x6767777767777776U, 0x7777767667667667U, 0x6767676776776676U, 0x7667776767776676U,
  0x6776677777766677U, 0x7666777777777766U, 0x7676677776677776U, 0x7676777767766677U,
  0x7767776766767677U, 0x7777776767777776U, 0x6667667677677767U, 0x7766676766676777U,
  0x7767676666766676U, 0x7776767776676777U, 0x6677766677767667U, 0x7676767677777677U,
  0x7777666767777767U, 0x6776777667777777U, 0x7776677776777766U, 0x7767776767767777U,
  0x7666676777766667U, 0x7676777767677776U, 0x7776767667677767U, 0x7776777677777677U,
  0x6667777666777777U, 0x6777776776767776U, 0x7666676767767667U, 0x7766777767667666U,
  0x7777776677776777U, 0x6666676677677676U, 0x7766776766667777U, 0x6777677677677667U,
  0x6777767676667776U, 0x7776777667667777U, 0x7777677767677777U, 0x7677777777667677U,
  0x6667667777766776U, 0x7776777766776777U, 0x7677676677677767U, 0x6776677777777677U,
  0x7767777767776677U, 0x7777676766776766U, 0x7766777766777776U, 0x7677777766667667U,
  0x7677777776766776U, 0x7777667766676777U, 0x7676777766767677U, 0x7777776777767777U,
  0x6667677767677677U, 0x6776777767676767U, 0x7677776776777777U, 0x7676676667666666U,
  0x7777667776666776U, 0x7677767676777777U, 0x7677677767667676U, 0x7776767667677777U,
  0x7776677767676667U, 0x7766777766766766U, 0x7777676777676666U, 0x7767776767666776U,
  0x7777767766776767U, 0x7767777677676777U, 0x7667677777777776U, 0x7766767666777767U,
  0x6667777677677677U, 0x6677767766767776U, 0x7776676777677677U, 0x6767677777776677U,
  0x7777677766676677U, 0x7677677676666776U, 0x7777676777767767U, 0x7777777777677767U,
  0x6776677767767766U, 0x7666776766777677U, 0x6777677767766767U, 0x6767667777767667U,
  0x7776776676777776U, 0x7666667766766777U, 0x6677777677767677U, 0x7767777777666676U,
  0x7676667767777766U, 0x6776766677677766U, 0x7677677667677677U, 0x6777677667767777U,
  0x7776667766777777U, 0x6676766776677776U, 0x7777767777776666U, 0x7777777777777676U,
  0x7767676767776677U, 0x7667777776666676U, 0x6777777766777677U, 0x6667677666776677U,
  0x6676677767676677U, 0x7676667776777766U, 0x7667767676777776U, 0x7676667767776766U,
  0x7767777767767677U, 0x7776777666777766U, 0x6776777667776667U, 0x7666767766677776U,
  0x7777677666776767U, 0x6677667766776777U, 0x6666777767776777U, 0x6776766777777777U,
  0x7777767677777677U, 0x7767776666676676U, 0x6777677776677677U, 0x7767767777766677U,
  0x7776676677777766U, 0x7666777777776767U, 0x7666777777676776U, 0x7776767766776766U,
  0x6767777767767677U, 0x6677777777677777U, 0x7767677767676676U, 0x7666777767667677U,
  0x7776777667766777U, 0x7677676776677777U, 0x6767676677777777U, 0x7776676677776677U,
  0x7677677767776667U, 0x7777777777776766U, 0x7766776677776777U, 0x7776677767677666U,
  0x7667667767776776U, 0x7776767777677777U, 0x7767677776766766U, 0x6766777676677767U,
  0x7777767767776677U, 0x7777776767677676U, 0x7677677776777667U, 0x7767777776766777U,
  0x7676667676666666U, 0x7676777677766677U, 0x7767767666777777U, 0x7767677677766667U,
  0x6777766776777767U, 0x7777777776676767U, 0x7777677666766777U, 0x7766677677776777U,
  0x7777767766776777U, 0x7677677777677767U, 0x7676767776776776U, 0x6777676667677677U,
  0x6777776666777677U, 0x6666677667767677U, 0x7767676776677777U, 0x7666776667776667U,
  0x7777777777766677U, 0x7767676776776767U, 0x7767666767677776U, 0x6676777767766667U,
  0x7667767667776777U, 0x6676766777767676U, 0x7777667767766777U, 0x7766777676767767U,
  0x7767777777666766U, 0x7677777666676677U, 0x7767776666777666U, 0x7777767766667777U,
  0x7777677776677776U, 0x7777777777766676U, 0x7677777767766666U, 0x7766677666767676U,
  0x7676677667776776U, 0x6776676767776777U, 0x6776776777777777U, 0x7776767677777767U,
  0x6777777766766676U, 0x7776777777676776U, 0x6776776777776776U, 0x7767777667767676U,
  0x7677676676776766U, 0x7676677777677677U, 0x6767776667766777U, 0x7777667777777676U,
  0x6776777777777677U, 0x7667677677777666U, 0x7766677667777677U, 0x7777777767766677U,
  0x6677767776776777U, 0x6666767676777777U, 0x7667777676677766U, 0x6676677777676676U,
  0x7677777777667776U, 0x7777777767766776U, 0x7676776767766667U, 0x6767777777766777U,
  0x6777677676666776U, 0x7766677776767676U, 0x7777767767767766U, 0x7776776677776777U,
  0x6666667767676776U, 0x7777777767766676U, 0x6776766767677666U, 0x7766776766767677U,
  0x7777776777767766U, 0x7667776677766676U, 0x7667777667666776U, 0x7667676677777676U,
  0x7767677777677677U, 0x6776776666767776U, 0x6766677677767777U, 0x7676677667766677U,
  0x7767766766676777U, 0x7676767767776767U, 0x7677767777667777U, 0x7677777677777677U,
  0x7677777666776677U, 0x7777766767677767U, 0x7677677777777666U, 0x6777776667767677U,
  0x7667677777767767U, 0x7666777767767777U, 0x6667767677777676U, 0x7767676667777677U,
  0x7777677766766677U, 0x6777676766677766U, 0x7667676777777667U, 0x7677766677777677U,
  0x7776677777766776U, 0x7766677777677776U, 0x7667667777767777U, 0x7767667767677667U,
  0x6667777776767776U, 0x6777777777767676U, 0x7777677676776676U, 0x7777776767777766U,
  0x7677677767766777U, 0x6776677777666777U, 0x7667677777777777U, 0x7677667677777777U,
  0x7766677766767677U, 0x7767676667677767U, 0x7677677666766777U, 0x7777766766767677U,
  0x7777676766767777U, 0x7676777677777777U, 0x6776677777777776U, 0x7767767677767667U,
  0x7777767767677767U, 0x6776766777677767U, 0x6766776676777676U, 0x7666776776767667U,
  0x6777677777677766U, 0x6776677677667767U, 0x7667776776767776U, 0x7777667777766667U,
  0x7777777677767777U, 0x7766767767777777U, 0x7767677776677677U, 0x6677667767777666U,
  0x7677777767677766U, 0x6676767677677777U, 0x7767776767776776U, 0x7676677777777677U,
  0x7767767667677777U, 0x7777677666676777U, 0x6766766767777766U, 0x7776676667767667U,
  0x7777767777766667U, 0x6677777767676767U, 0x6667676767777777U, 0x7677667776777676U,
  0x7777677767767666U, 0x7767676676666776U, 0x7777777776677666U, 0x7777676777766667U,
  0x6776666676776777U, 0x7766676777666677U, 0x7767776676667777U, 0x7766777776667767U,
  0x6777676766777777U, 0x6667666667676766U, 0x6667677767776776U, 0x7767767677776667U,
  0x7777777777777667U, 0x7677666777676777U, 0x7677777677667766U, 0x7777767777776676U,
  0x7676777777767677U, 0x7776676767677666U, 0x7777676776776677U, 0x7777777777776677U,
  0x6777667777767677U, 0x7676667777677677U, 0x7777676777667676U, 0x6776667667776776U,
  0x7777776766667777U, 0x7776777767777766U, 0x7766676767666676U, 0x6677777677676676U,
  0x7676677767667666U, 0x7777777777776677U, 0x6666776776667676U, 0x7766777677767777U,
  0x7776776767777676U, 0x7667677767767767U, 0x7777676667667677U, 0x7767767777767667U,
  0x6776776676766767U, 0x6676677676777666U, 0x7767777777677676U, 0x7766676777777677U,
  0x7667776777677766U, 0x7767776666677767U, 0x6777666776667677U, 0x7767777676677776U,
  0x7776677666777767U, 0x7766677776677766U, 0x7766776666776766U, 0x7776777676767677U,
  0x7767677766667767U, 0x7767777677776666U, 0x7777677677776676U, 0x6666777766776677U,
  0x7777667677776776U, 0x6677667777677677U, 0x7777777676777676U, 0x7666767767767676U,
  0x7677767777777666U, 0x7777776667677776U, 0x6777677767776776U, 0x7677667676667666U,
  0x6767667777767776U, 0x6676677777676777U, 0x7767767677776767U, 0x6776777666776777U,
  0x7677776767767777U, 0x7776676777667777U, 0x7677767677777767U, 0x7776667777767776U,
  0x6766676776766776U, 0x7676777777667767U, 0x6767776777776776U, 0x7776667777777767U,
  0x6777776667667677U, 0x7667776766777777U, 0x7777776776776667U, 0x7767767776677677U,
  0x6677676777676676U, 0x7676676676667767U, 0x6667667776777766U, 0x7776767777776776U,
  0x6667666667777677U, 0x7777766677677676U, 0x7776677776767777U, 0x7677677667766677U,
  0x7677767776776776U, 0x7677776777767766U, 0x6667767766777767U, 0x6777777777766777U,
  0x7777777667777677U, 0x6777766767677776U, 0x7767677777776777U, 0x7666777677777677U,
  0x7777667666776667U, 0x6677667777767677U, 0x7667777776676766U, 0x7776777667676677U,
  0x7776766667677766U, 0x7677676767667677U, 0x7776667777676676U, 0x6766677767767677U,
  0x6767667776676776U, 0x7676777776767777U, 0x6676677777777776U, 0x6777667677676677U,
  0x7667677767777667U, 0x6677777777676766U, 0x7777777676776767U, 0x6766767777777666U,
  0x7777776777766777U, 0x7777767766777767U, 0x7667777766777766U, 0x6766677777677677U,
  0x7777777767776677U, 0x7777776776777777U, 0x7767666766676777U, 0x6777777667676677U,
  0x7776766767777677U, 0x7676677776677777U, 0x6767677667776776U, 0x7766777667677777U,
  0x7777777667766677U, 0x7777777777676677U, 0x7777667777776677U, 0x7767777777767777U,
  0x6777677776767777U, 0x7766667777667777U, 0x6777776667767666U, 0x6677766777767777U,
  0x7767767776676677U, 0x7676677767677666U, 0x6677677776777776U, 0x6777767776667676U,
  0x7677676777676766U, 0x6676777677676777U, 0x7767777777767776U, 0x6777767667767667U,
  0x7767677767667677U, 0x7766776767776776U, 0x7777776676667676U, 0x6767776777767667U,
  0x7676677676776667U, 0x7667667777677677U, 0x7777777767767777U, 0x7776666677776677U,
  0x7776767777766777U, 0x6676767677666777U, 0x7776677777667677U, 0x7667767767777777U,
  0x6666677776676776U, 0x7666777677667666U, 0x6666667767667777U, 0x6766776776777677U,
  0x7676777776667776U, 0x7677777777677776U, 0x7777677777776666U, 0x6776777766777666U,
  0x7777777667776677U, 0x7767777777777777U, 0x7676676777677766U, 0x6777767777776677U,
  0x7777767767767776U, 0x6677766667777776U, 0x6776777677777676U, 0x7667776667767676U,
  0x7767667776767776U, 0x6677676677766777U, 0x7667676677767776U, 0x7767777766667676U,
  0x7777777767777677U, 0x7767776767677776U, 0x6676777777777777U, 0x7777777767667666U,
  0x6777777767766776U, 0x6676667766677777U, 0x7667767777667767U, 0x7767777677766677U,
  0x7677777777776677U, 0x7776777767666766U, 0x7777777677776667U, 0x7677766777767676U,
  0x6677667776776776U, 0x6776677666777777U, 0x7676666767777777U, 0x7677767677777677U,
  0x7677777777667677U, 0x6667777677776777U, 0x7677677777776667U, 0x7767777776766667U,
  0x6777677666767777U, 0x6677677667667676U, 0x7677666777776766U, 0x7677776777677777U,
  0x6667766767776767U, 0x7777766776677666U, 0x7777777776776766U, 0x7776767777777676U,
  0x6667667667766666U, 0x7677677766676677U, 0x7767667776677776U, 0x7776776676667667U,
  0x7777766677777677U, 0x7777677677676777U, 0x6766677776777677U, 0x6667777667777777U,
  0x7767777777776767U, 0x7676777777667776U, 0x6667777666777676U, 0x7777677776676777U,
  0x7767776666777666U, 0x7777677667777777U, 0x7676767677767767U, 0x6767767677767666U,
  0x7777676676777777U, 0x7676677667676676U, 0x7667767777777766U, 0x7666777677777777U,
  0x7677776666777677U, 0x7767767766667776U, 0x6767777777777677U, 0x7667776777776676U,
  0x6666676776777767U, 0x7776776667767777U, 0x6766667677776776U, 0x7767777767676676U,
  0x7666777667676677U, 0x6776677777666777U, 0x6677676666777777U, 0x7767776767667667U,
  0x7776667776766777U, 0x7666777777776767U, 0x7667777767677776U, 0x7677767677766677U,
  0x7677777767667677U, 0x7667767767766676U, 0x6776776767666677U, 0x7676776777776677U,
  0x7676677776777766U, 0x6676777677666776U, 0x6777777676777676U, 0x6776667777667777U,
  0x7767676767667677U, 0x6776676666776776U, 0x7677667767667777U, 0x7677777767766677U,
  0x6776776776777676U, 0x7676776776677776U, 0x7767777776676677U, 0x6767777666777777U,
  0x6777677767777666U, 0x6767667667777767U, 0x6776677777677776U, 0x7767776767767676U,
  0x7667776677776677U, 0x7677676776677767U, 0x7667777667677767U, 0x7776677776677766U,
  0x6767777677767677U, 0x7677676676677766U, 0x6776777777777777U, 0x6776667767767677U,
  0x6677666777766776U, 0x7666677777676666U, 0x7776776677677677U, 0x7777667777777667U,
  0x6777777766777667U, 0x7777777777776767U, 0x6777677767777677U, 0x7767776677776767U,
  0x7777667777766676U, 0x7676677776777777U, 0x7666776776676777U, 0x6677666676677767U,
  0x6676677777777777U, 0x6767767767677676U, 0x7776777767667777U, 0x6767667777766667U,
  0x7777677776667776U, 0x7676767777667767U, 0x6677777676677766U, 0x7777767676776777U,
  0x7776677667667776U, 0x7776767777677776U, 0x6766777777777667U, 0x7667776667767667U,
  0x7777767766777677U, 0x7677677766766776U, 0x7667676777777766U, 0x6776766677777667U,
  0x7677776777767766U, 0x7767767767677777U, 0x7667667777777677U, 0x7777767767767677U,
  0x7677667776766766U, 0x7766776767677766U, 0x6777777766777776U, 0x7777666776766766U,
  0x7777667766776666U, 0x6767666766676767U, 0x6766676677767677U, 0x7776766767777677U,
  0x6677767666767677U, 0x7676666777677776U, 0x7777677767677676U, 0x7767767767777777U,
  0x7676777766666777U, 0x7777777776777677U, 0x7777667677777677U, 0x7776776767767667U,
  0x7677676667777776U, 0x7667777777676767U, 0x7777677777777766U, 0x6666767776767667U,
  0x7777777667677676U, 0x7777777767676667U, 0x6667677776666677U, 0x7677776776776677U,
  0x7777676776776766U, 0x7676676777667666U, 0x6767666676777776U, 0x6766676777677777U,
  0x6766767766777777U, 0x7777777777767777U, 0x7767677776766667U, 0x7767766767766676U,
  0x7667676776766776U, 0x6766777676766676U, 0x7766777776776667U, 0x7667777667777677U,
  0x7667767666777677U, 0x6766676777667777U, 0x7676777667767677U, 0x7777777677667766U,
  0x7777667777766776U, 0x7676676767677677U, 0x7767777667776776U, 0x6776767677776677U,
  0x7777676777776667U, 0x7777676677766677U, 0x7677667767777667U, 0x6767766677777667U,
  0x7766666776776776U, 0x7666677676666677U, 0x6777777667667666U, 0x7677767766777777U,
  0x7777677667777777U, 0x7777676767767767U, 0x6776776766766677U, 0x7677777776667667U,
  0x6777667677777776U, 0x6777766776677766U, 0x7667766777767677U, 0x7766776676767766U,
  0x7777677667677777U, 0x6767667767777777U, 0x6667677667766767U, 0x7767677667776667U,
  0x6777667676676777U, 0x6776667776676777U, 0x7667776777777777U, 0x6666766776766777U,
  0x7767766776676767U, 0x6677777766677766U, 0x6777777767776676U, 0x7677776767767677U,
  0x7777767677667777U, 0x6676667776777677U, 0x7767777767777767U, 0x7776776767767777U,
  0x6777777767777676U, 0x7777767666766667U, 0x6767677777776776U, 0x6667777777667677U,
  0x6767667676767666U, 0x6777766776776767U, 0x7677767666667776U, 0x6776666777776677U,
  0x7777767767777677U, 0x7677776777666777U, 0x6777777676766677U, 0x7667777767777667U,
  0x6777677777766676U, 0x7676677666777677U, 0x7666776777776767U, 0x7677777677777676U,
  0x7676676767777677U, 0x7776766767677777U, 0x7766666667767667U, 0x6677777767766666U,
  0x7766667666766676U, 0x7676666667667777U, 0x7777677676777676U, 0x6777766677777776U,
  0x7777677767677767U, 0x7777776666767666U, 0x7767776767777776U, 0x7666767667777667U,
  0x7677677666767677U, 0x7676667777776667U, 0x7677676677777777U, 0x6676767666766667U,
  0x7776667767666676U, 0x7676676777777677U, 0x7777677677676677U, 0x7667777677676677U,
  0x7776666676677666U, 0x6676667767677676U, 0x6666666777677776U, 0x7777767766777667U,
  0x7777776667677776U, 0x7766776777777777U, 0x7777667777766777U, 0x7776667777767676U,
  0x6767677776777676U, 0x6777677776677777U, 0x6667777677776676U, 0x7666666776777777U,
  0x7766767666777667U, 0x7776676777677777U, 0x6777677777767677U, 0x6777677766777777U,
  0x6777676776666777U, 0x7777767777677667U, 0x7767677676677766U, 0x6777677667776767U,
  0x7667777777777666U, 0x7777767776666776U, 0x7676777777776767U, 0x6767766677666766U,
  0x7777677766766666U, 0x7777677666677767U, 0x7677777667776776U, 0x6676776767677776U,
  0x7766777676777766U, 0x7676676767677677U, 0x7667777767767777U, 0x7767676767777766U,
  0x6776677776766767U, 0x7777677777667776U, 0x7667776776777677U, 0x6777767666677676U,
  0x7767676666776677U, 0x7666776767676767U, 0x7777676777776766U, 0x6777766767766777U,
  0x6766667767776777U, 0x7776667777676776U, 0x7677777777776677U, 0x7767667676676777U,
  0x7776777666676767U, 0x6767777776777667U, 0x7777677766676676U, 0x6767766777767676U,
  0x7666766777777776U, 0x6776677767677777U, 0x7666777677677676U, 0x7666766676777677U,
  0x7767667777677777U, 0x7777777667677676U, 0x7766676676777677U, 0x7677677777667667U,
  0x6767777676776767U, 0x6777677776667766U, 0x7767777777777777U, 0x6777667777777777U,
  0x7777676767777677U, 0x6767767767677676U, 0x7777776766677776U, 0x6767677777767777U,
  0x7676677776767776U, 0x7777676767677667U, 0x7666667777676766U, 0x7667777677767777U,
  0x6776766677777667U, 0x7777676767667676U, 0x7767767677776677U, 0x7767777776777677U,
  0x6776677677766766U, 0x7776667777667777U, 0x7766777776777777U, 0x7776767677777766U,
  0x7676667777777677U, 0x7767667776667777U, 0x6677766777666767U, 0x7777677766677676U,
  0x7776667676776666U, 0x7777666777677777U, 0x6777777676777776U, 0x6777767777776777U,
  0x7776767677767677U, 0x7776776767677777U, 0x7677677777676676U, 0x7777777677777676U,
  0x6767677666766766U, 0x7676677777776667U, 0x7777777677776767U, 0x6776767667676677U,
  0x6777667777777667U, 0x7766667676767667U, 0x7667776766766677U, 0x7767767777767766U,
  0x7777676776767777U, 0x7666777677777666U, 0x6776777777777776U, 0x7777777777767667U,
  0x7666677677777677U, 0x7767777767677777U, 0x6667677667666677U, 0x6767677677766776U,
  0x7777677777667766U, 0x6676677777666677U, 0x7777777766667676U, 0x6677676776767677U,
  0x6677777767777766U, 0x7676776767677776U, 0x6777667767677677U, 0x7766777777667767U,
  0x7766666767766777U, 0x6677676766677777U, 0x6667777777667766U, 0x7676767776767776U,
  0x7776767767777667U, 0x6777776676766767U, 0x7777676767666676U, 0x6667776677666676U,
  0x7767667666766767U, 0x7777777776676776U, 0x7666776777777777U, 0x7776777667667767U,
  0x6766666666767676U, 0x7677777767677776U, 0x6776777677777676U, 0x6776776667667776U,
  0x7767777776767676U, 0x7676667677777677U, 0x6767766676676777U, 0x7667777677677776U,
  0x7776767666677667U, 0x7677776767677666U, 0x7776677766777677U, 0x7676667777667677U,
  0x7776676766667767U, 0x7677676766667776U, 0x7677767777776676U, 0x6766677667676666U,
  0x7666777777667676U, 0x7777676767667667U, 0x7776677676776677U, 0x7667677767677667U,
  0x7667677766666777U, 0x7776667676667676U, 0x7767767777767676U, 0x7777766767766767U,
  0x7777777767677776U, 0x6676776767667767U, 0x7667676666676677U, 0x7766677666677677U,
  0x7767767767776776U, 0x6666777677776767U, 0x7767767667777767U, 0x7777677777776777U,
  0x7777766766677667U, 0x7677777677676777U, 0x7767767777666777U, 0x6676677776677667U,
  0x6777677776676776U, 0x7776677776666667U, 0x7766777776777766U, 0x7777776677777777U,
  0x7767677667766767U, 0x6777776677667677U, 0x6766777776777776U, 0x6767677677767777U,
  0x7667767766776767U, 0x6777666776776777U, 0x7667677776766676U, 0x7766766767767667U,
  0x7677766677777676U, 0x7776766767777767U, 0x7666677667677677U, 0x7767766776767776U,
  0x6767777767676766U, 0x6767667776676767U, 0x7676777777776677U, 0x7776676777776677U,
  0x7766667667767667U, 0x7767777767766767U, 0x6767767667766667U, 0x7667766776666667U,
  0x6777767677676766U, 0x7676776777676767U, 0x7777766767777776U, 0x7766767776767667U,
  0x6776777777677777U, 0x7667776767766676U, 0x7677677767677777U, 0x7766677777767667U,
  0x7776667777777766U, 0x6676677767666776U, 0x6666777766666776U, 0x6767677676677777U,
  0x7777776777666667U, 0x7777767676677676U, 0x6666767677677677U, 0x7777777776677767U,
  0x7776677677666676U, 0x6676677767677767U, 0x7667777777776776U, 0x7776767776776666U,
  0x7776777776677667U, 0x6776676766776777U, 0x7777676667676767U, 0x7777677677767676U,
  0x7677777676766767U, 0x7776676777677777U, 0x7776767666777777U, 0x7767777776777777U,
  0x7776776677777777U, 0x7676776767676676U, 0x7677677777677666U, 0x7676667767767676U,
  0x7777677676777676U, 0x7777677776777777U, 0x7766677676776776U, 0x7777666676777767U,
  0x7776776766677777U, 0x7677777677777676U, 0x6677776677666777U, 0x6667776777677767U,
  0x7677676777766776U, 0x6676766777677776U, 0x7667777767777676U, 0x7776777667777777U,
  0x7677676766667677U, 0x7776777776777766U, 0x7777677767766676U, 0x6667677767667677U,
  0x6776676766777666U, 0x7766667777677776U, 0x6677777777776776U, 0x7676777777677676U,
  0x7677776777667676U, 0x7677767777677666U, 0x6777666776677676U, 0x7776676767767676U,
  0x7667677766677676U, 0x7667667767777777U, 0x7676677766767666U, 0x7777767676777676U,
  0x7776667766676677U, 0x7676776767776776U, 0x7767677777767667U, 0x6767677667777776U,
  0x6777677767767676U, 0x6676667777776776U, 0x7677677767666666U, 0x6776666777776677U,
  0x7676777777767776U, 0x7777777766667777U, 0x7676677677776777U, 0x7766767767667767U,
  0x7777777777767776U, 0x7776677677777777U, 0x7767767676776776U, 0x6777766777767767U,
  0x7767776767777677U, 0x7667677776777777U, 0x7767677677777776U, 0x7677777677766777U,
  0x7667767666776767U, 0x7766667777766776U, 0x6667676777777776U, 0x7776766767777677U,
  0x7776677776677667U, 0x6677777667766676U, 0x6777677777666676U, 0x7767777777677767U,
  0x7767777777767766U, 0x7776776677677767U, 0x7777767766766777U, 0x7676767677767677U,
  0x7767667776776777U, 0x6777777766676766U, 0x6767677776777777U, 0x7677776777767776U,
  0x7777666767776667U, 0x7677677776677677U, 0x7776777666677766U, 0x7677767676767677U,
  0x6677767766777676U, 0x6767677777667767U, 0x7667676777676676U, 0x6667776766767667U,
  0x6666777776667767U, 0x7666677676667667U, 0x7767667776677676U, 0x6667767677767777U,
  0x7676777776767767U, 0x7677676666677777U, 0x7666776777676667U, 0x7767667676766677U,
  0x6777676667676777U, 0x6776667666677766U, 0x7767776777666666U, 0x6766767767667776U,
  0x6667767676776777U, 0x7777777767767776U, 0x7666676777666767U, 0x7667766677676677U,
  0x6677676777676676U, 0x6777677777767777U, 0x7776767776677676U, 0x6777776677766777U,
  0x7666677767777766U, 0x7777677667677776U, 0x6776677667677776U, 0x7767777677766777U,
  0x7667667777776776U, 0x7666776776666777U, 0x7776677676667776U, 0x7777777767677777U,
  0x7777776767676777U, 0x7777776767766666U, 0x6677677667776677U, 0x7676766667777677U,
  0x6777777766766676U, 0x6767776777677766U, 0x6666777777766667U, 0x6776676776776767U,
  0x7777776766676777U, 0x7776677766766776U, 0x7767777767777677U, 0x7677776667767776U,
  0x7766777766766677U, 0x6676677677776777U, 0x7676676777677776U, 0x7766667677777676U,
  0x6677767777666676U, 0x7766777777667667U, 0x7676676677676767U, 0x7666666766767676U,
  0x7767677777677776U, 0x7776676666667666U, 0x7767777777767776U, 0x7676776676777677U,
  0x7776667767777666U, 0x7677776767777777U, 0x6777777767776766U, 0x6766677667767666U,
  0x6777777666777667U, 0x7676667776667776U, 0x7667677776677766U, 0x7767667776767677U,
  0x7676677767777666U, 0x7766767767777677U, 0x6777677776776667U, 0x7767666677677677U,
  0x7776676666767766U, 0x7676676676666776U, 0x6776777777777676U, 0x7777767766777677U,
  0x7777667777777766U, 0x7677676676767677U, 0x7766767777677776U, 0x7766776766667777U,
  0x6777677776766777U, 0x7776677666677766U, 0x7767677777766776U, 0x7776666777677667U,
  0x7767677767776777U, 0x6677676667776676U, 0x7776677777776667U, 0x7767767776677666U,
  0x6776766776766767U, 0x7767677777766777U, 0x6767777766767776U, 0x6777667777777677U,
  0x7777767776777677U, 0x6776667677767777U, 0x7776767677766677U, 0x7676766776767667U,
  0x6777677776767776U, 0x6767677767667766U, 0x7677677777767766U, 0x6776776667767677U,
  0x7777667777667777U, 0x7776667767676666U, 0x7767767667677776U, 0x6667667776667677U,
  0x6677666767667767U, 0x7776666767766777U, 0x7666766677667776U, 0x7777676677677777U,
  0x7677776776767677U, 0x6767776667677777U, 0x7767767677777677U, 0x7767766767767677U,
  0x6777667766766777U, 0x7676677767767676U, 0x6666766776667776U, 0x6776767777666776U,
  0x7767776767776777U, 0x6777676767677666U, 0x7767777776776777U, 0x7767776666667767U,
  0x7777767676666677U, 0x7676667777776767U, 0x6677776776677677U, 0x6666677776777766U,
  0x7677777767677777U, 0x6776666766676776U, 0x6767766677767677U, 0x7676767767766667U,
  0x7776677767666766U, 0x7676766777767766U, 0x7777776777676776U, 0x6766776667777667U,
  0x6677667766766776U, 0x6777776776677776U, 0x7676777776667767U, 0x7777667677667677U,
  0x6767677766677667U, 0x6676777766677677U, 0x6677776776776677U, 0x7776767777666777U,
  0x6767777667776667U, 0x7677767766777776U, 0x6777776776767776U, 0x7667677777766676U,
  0x6776766677766777U, 0x7776677676676776U, 0x7677776766777777U, 0x7776766777766677U,
  0x7776777677677677U, 0x7777767767777776U, 0x7777767676767666U, 0x6667767677767677U,
  0x7777767666776677U, 0x7676767766776776U, 0x7766776766777667U, 0x6777667776777777U,
  0x6777677777777677U, 0x7777767767676776U, 0x7767777776776767U, 0x6767777767667677U,
  0x6777767777776766U, 0x7677677677677766U, 0x6677776667676777U, 0x7777677767676677U,
  0x6767676666676766U, 0x7777776676677776U, 0x6766677667666666U, 0x7776777777777767U,
  0x7776766777666777U, 0x7667677777677766U, 0x7766677777767766U, 0x6776767767776677U,
  0x7766767767776767U, 0x7667677767677767U, 0x6776677777776666U, 0x7766767676767666U,
  0x7777777667766776U, 0x7777667766677677U, 0x7777776776776677U, 0x7766766667676677U,
  0x7776677766766666U, 0x7766776777677776U, 0x6767777776677777U, 0x6766677767777766U,
  0x7776777776766777U, 0x6677777776776776U, 0x7676776776677776U, 0x7777776777776777U,
  0x7677766667776767U, 0x7776777777777776U, 0x6777676767666677U, 0x6776777777767676U,
  0x7776667777666776U, 0x7776667777667666U, 0x6766777777767777U, 0x7766776766777767U,
  0x7767677667767776U, 0x7676776767677766U, 0x7676766777676776U, 0x6767777677767677U,
  0x7677766777776776U, 0x6777666776767676U, 0x7666767777777676U, 0x7777777676767667U,
  0x7677776777676766U, 0x7677776767777777U, 0x6767776677667667U, 0x7776766667666676U,
  0x7766677766777777U, 0x7777777776777666U, 0x7677667777667667U, 0x6777767777667776U,
  0x6767677777677767U, 0x7777677777766677U, 0x7676777677766777U, 0x6767776776767677U,
  0x7777767666766776U, 0x7777676767777777U, 0x7777777776677777U, 0x7667767676777677U,
  0x7767766667767777U, 0x7777767767667666U, 0x6777767677777767U, 0x7777767776776777U,
  0x7767667766667776U, 0x7777677777776677U, 0x7767677667767767U, 0x7676677677677677U,
  0x7677777677767777U, 0x7777777767777676U, 0x7677667677676666U, 0x7766777777777777U,
  0x7777677777777767U, 0x6777667777777667U, 0x6666766776776767U, 0x6777776767777777U,
  0x7777777767767776U, 0x7777767766777777U, 0x7777777777667676U, 0x6777776767767776U,
  0x6677677776767776U, 0x7667667677666677U, 0x7767777667777776U, 0x7766666777776767U,
  0x7777766767666776U, 0x7777767767767777U, 0x6667776676776777U, 0x6666767667777677U,
  0x7767677776776677U, 0x7677667777676777U, 0x6667777767776776U, 0x7767777776777776U,
  0x7776776767676667U, 0x7766676777767677U, 0x6777777677776667U, 0x7767666766677767U,
  0x7766677676766676U, 0x7677667777666776U, 0x7766677677667777U, 0x7767667777767767U,
  0x6667766767677767U, 0x7676776666677777U, 0x7677676777677767U, 0x7667766766767776U,
  0x7777777776776777U, 0x7666667776676777U, 0x7776777666777766U, 0x7666766677777677U,
  0x7776776666777767U, 0x7767676667677777U, 0x7767776667777767U, 0x7767777677766677U,
  0x7777777766766776U, 0x7676666776777777U, 0x7666777676777666U, 0x7666666777667677U,
  0x7777777777766666U, 0x6767777777677776U, 0x7777677777676777U, 0x7767777767767677U,
  0x7777777777766676U, 0x7677777677666676U, 0x7676677777777767U, 0x7776766667767677U,
  0x6777677766777676U, 0x6777776767677776U, 0x7767666777776676U, 0x7676777777777676U,
  0x7776677776677777U, 0x7676767777777777U, 0x6667676777667766U, 0x7667776777777677U,
  0x6777767677677777U, 0x7776766777766676U, 0x7677767777767667U, 0x7767766766676677U,
  0x7666776776677776U, 0x7777667766666776U, 0x7767777767776676U, 0x7766777767777767U,
  0x7777777767767677U, 0x7776667767777776U, 0x7676667777776667U, 0x7677767677667776U,
  0x7777666777766766U, 0x6677677767777677U, 0x6667667677677676U, 0x7677767767767676U,
  0x6676767767777776U, 0x7777776667667776U, 0x7777676767767667U, 0x7677677777666777U,
  0x7677667767676777U, 0x7777677767667676U, 0x6677666767767776U, 0x6767777676677767U,
  0x7767777667667666U, 0x6776666767676767U, 0x7677767777677677U, 0x6766677776776676U,
  0x7767677777767776U, 0x6676767677667767U, 0x7666777766776776U, 0x7676776677776767U,
  0x7677666666776766U, 0x6777677667677777U, 0x7767777776677766U, 0x7667777667767666U,
  0x7777777777777777U, 0x7676666676767767U, 0x7677777666767676U, 0x7777666667777777U,
  0x7676676677777677U, 0x7667777676776767U, 0x6677677776767776U, 0x7767777677676776U,
  0x7677676777776676U, 0x7677676767666777U, 0x7677777776666777U, 0x7776777777777667U,
  0x7776777767676776U, 0x7666777676767776U, 0x7777667666667777U, 0x7667776767676777U,
  0x7767677766766776U, 0x7776676676677677U, 0x7766766766677677U, 0x7776767776777677U,
  0x7767667667676676U, 0x7677776777667766U, 0x7767766766676677U, 0x7777676776677667U,
  0x6667677776666776U, 0x7776777677777677U, 0x7666777776677776U, 0x7777767777677667U,
  0x7677767767677777U, 0x6777777766667766U, 0x7676667777776667U, 0x7777676776777667U,
  0x7766777677667676U, 0x7776667777776777U, 0x6767777776767766U, 0x7776766777777777U,
  0x7677777776777767U, 0x6766776666667777U, 0x7777776776776676U, 0x6777777776666667U,
  0x7676767776766766U, 0x7666767777777767U, 0x7677767677667666U, 0x6767777767776677U,
  0x6777767776777677U, 0x7776777776677776U, 0x7777676677776776U, 0x7766777766767777U,
  0x6776777776666677U, 0x7776677677777777U, 0x6676776777766676U, 0x7776766777677676U,
  0x6777777766676777U, 0x7767777766677776U, 0x7777776766667677U, 0x7766766777667677U,
  0x7677677666776776U, 0x7767677767677677U, 0x7667776777767777U, 0x6777667776677677U,
  0x7776777677777766U, 0x6767776677667667U, 0x7777677767676677U, 0x6767777777776766U,
  0x7667776767777776U, 0x6767776777677676U, 0x7766777667776766U, 0x7676676766777777U,
  0x6777677677777777U, 0x7777777677767776U, 0x6776767777767667U, 0x7667777767766666U,
  0x6677777766767676U, 0x6666676777676667U, 0x7666776777777777U, 0x7777677676776777U,
  0x7777776777676767U, 0x6677776666667667U, 0x7677667767677666U, 0x6767777777667767U,
  0x7767777776676777U, 0x7677777677777667U, 0x7667667776677676U, 0x7777777767767677U,
  0x7777667666767666U, 0x7777677767767777U, 0x7777676776777677U, 0x7677767777676777U,
  0x7777676666776767U, 0x7676676766667776U, 0x7767777777776676U, 0x6676777666776676U,
  0x7776776777777767U, 0x7777676767777766U, 0x7677777767667677U, 0x6667777677777667U,
  0x6777666776777676U, 0x7777777777776777U, 0x7767777777766776U, 0x7667776667777777U,
  0x7667776677777767U, 0x7666777677677777U, 0x7677677777767777U, 0x6766776677677766U,
  0x6676777676766776U, 0x7676767777677677U, 0x6767777677676777U, 0x7766677767677767U,
  0x7777677776776766U, 0x7767667777676776U, 0x7767777667767677U, 0x7767776777676777U,
  0x6777766766777776U, 0x7777677776677677U, 0x7776777677777776U, 0x6777777676777777U,
  0x7766777667667767U, 0x7666677666667667U, 0x7766667776776677U, 0x7667676767777766U,
  0x6767777776767776U, 0x7767777676667767U, 0x6767777777777777U, 0x7776776676677677U,
  0x6767766777777776U, 0x7677776767776676U, 0x6777677677766676U, 0x6777767776777766U,
  0x7766777776676677U, 0x6766767777667777U, 0x7766777776777776U, 0x7776776777676767U,
  0x7776777667766676U, 0x7777767677677676U, 0x7776777676677766U, 0x7767677767766677U,
  0x6677777776767676U, 0x6667677767667777U, 0x7767777776777777U, 0x7776766676777676U,
  0x7777776767676776U, 0x6766667767776776U, 0x7776676677776676U, 0x7766767677767677U,
  0x7777667776667666U, 0x7676677777777666U, 0x7676666767676776U, 0x7766767767667667U,
  0x7777767767777777U, 0x6777776777677677U, 0x7777666777676666U, 0x7666767777767667U,
  0x7776676776766777U, 0x6767667776676666U, 0x7776767767777777U, 0x7766776677677677U,
  0x7776777776677677U, 0x7776776767777677U, 0x7766767677776667U, 0x7667766767777777U,
  0x7767677777666776U, 0x7776677677777667U, 0x6677776776667676U, 0x6766767777777677U,
  0x6776767767676667U, 0x7677777767767676U, 0x7677667777776676U, 0x7666766776667677U,
  0x7777666766766766U, 0x7776766676667767U, 0x7667666777677777U, 0x7776767677766777U,
  0x6667777777677667U, 0x7666767767667767U, 0x7777677767776776U, 0x7767676767667776U,
  0x7676677766666776U, 0x7676676777776776U, 0x7777677777667766U, 0x7676667767767776U,
  0x6676777767766676U, 0x7777677667767776U, 0x7777776767776677U, 0x7667767676777676U,
  0x7767677766767676U, 0x6677677767676777U, 0x6767777767677677U, 0x6766777777777777U,
  0x7677666767777777U, 0x7776776767667776U, 0x7766667667777677U, 0x7676777767776677U,
  0x7777676777677766U, 0x7776676776766667U, 0x7766777777777777U, 0x7777766777777777U,
  0x6777776767676777U, 0x7776776766777776U, 0x7777777776676777U, 0x7776776777777667U,
  0x6777777777777766U, 0x6667766777676677U, 0x7766777767776776U, 0x6777767777677776U,
  0x7677776777777776U, 0x7767767767677766U, 0x6776777777777776U, 0x7776667767767766U,
  0x7767777777767676U, 0x6676677776666677U, 0x6767677766777766U, 0x6777777766676676U,
  0x7766767777777677U, 0x7676666776667776U, 0x7777777777677666U, 0x7666767776776677U,
  0x7777677766666776U, 0x6766677776666667U, 0x7766776677666766U, 0x6776677767677677U,
  0x6667677776676677U, 0x6766777767677766U, 0x6677777666777666U, 0x6777766676777677U,
  0x7767677677667777U, 0x7776666777767777U, 0x6667776777776676U, 0x7676776666777676U,
  0x7677677776767777U, 0x7777777766767776U, 0x7677776767767767U, 0x6677776777776777U,
  0x7666776776766677U, 0x7776776666667777U, 0x7777766677667676U, 0x7677767676667677U,
  0x6766776667676677U, 0x7767677767676777U, 0x7767677777766676U, 0x7677677777767777U,
  0x7777767776766676U, 0x7677677677667776U, 0x7667777777767776U, 0x7667667776676677U,
  0x6777776667677776U, 0x6777677766667777U, 0x7677677766776676U, 0x7677677777777776U,
  0x6777666766767766U, 0x7666667677676777U, 0x7776777767777777U, 0x7767677776676677U,
  0x7677667677767766U, 0x6676776776777766U, 0x7767677767676777U, 0x6767777776666766U,
  0x6677767776776676U, 0x7776667767776776U, 0x7767767767676766U, 0x6776767777666676U,
  0x6766667767776777U, 0x7666767767666677U, 0x7677667667776666U, 0x7666776777776676U,
  0x7677777676777777U, 0x7676766677766677U, 0x6666776777777777U, 0x6777777676777676U,
  0x7776776667676777U, 0x7767677767677677U, 0x7777767676667777U, 0x7766776767677777U,
  0x7777777776777777U, 0x6677776777766677U, 0x6667777777677667U, 0x7766677677776767U,
  0x7777677776767777U, 0x7677677767777776U, 0x7677677777777776U, 0x7767777776777777U,
  0x6676766777677777U, 0x7776677677677767U, 0x7677767777777767U, 0x7776676776676777U,
  0x7777777777776777U, 0x6776776666667777U, 0x6776766777777677U, 0x7667766767777676U,
  0x7777667676777766U, 0x7777766767677777U, 0x7767776677777776U, 0x7777677676777766U,
  0x6677777777777777U, 0x6776777766666677U, 0x7777676766666677U, 0x7767677667767676U,
  0x6677667676677777U, 0x7676777777677677U, 0x7767677777777777U, 0x6667767676776777U,
  0x7776776667766776U, 0x7767767667767676U, 0x7777766677776677U, 0x7767667676766667U,
  0x6776766676777767U, 0x7776677767677676U, 0x6776677766777677U, 0x7676677777666677U,
  0x7767776777777777U, 0x7767767677767767U, 0x6776676776676777U, 0x6677677776666666U,
  0x7776667766767667U, 0x7666767777676677U, 0x6777777766677777U, 0x6767766677776667U,
  0x7666666767666777U, 0x7666777777677777U, 0x7677677777777666U, 0x6667777677666676U,
  0x7776677767767776U, 0x7666666776667776U, 0x7777777677776777U, 0x7777667776676776U,
  0x7767776777677676U, 0x6766677777777677U, 0x7777777777666776U, 0x6777776777767677U,
  0x6767767676776677U, 0x6676767677777777U, 0x6766777677677677U, 0x7776767677777767U,
  0x6677766777667766U, 0x6766666667777766U, 0x6777677776767676U, 0x7666777776767667U,
  0x7667777767667776U, 0x7777776777677777U, 0x7666777767777666U, 0x7666666776767776U,
  0x7777677767676777U, 0x6767677666767777U, 0x7677666776776767U, 0x6767777777766776U,
  0x6767676776777777U, 0x7676676777767776U, 0x7667677767776777U, 0x6766767777676677U,
  0x7677677777777676U, 0x7777777777666676U, 0x7767776666667666U, 0x7677776767777777U,
  0x7677677676767667U, 0x7776677677777767U, 0x7777777677767776U, 0x7777767776776676U,
  0x7777777777677676U, 0x7776667766766677U, 0x6767777777666777U, 0x7667766777777676U,
  0x6667666676676776U, 0x7676677777776776U, 0x6677677777776777U, 0x6776767677767777U,
  0x7777676667676777U, 0x7777666676667677U, 0x7777766767766666U, 0x7766777767666677U,
  0x7676766776767777U, 0x7676677676677677U, 0x7767776777777777U, 0x6777767677767776U,
  0x7776777777677776U, 0x6776776767677776U, 0x6777676767776766U, 0x7767777666777777U,
  0x7776667766776767U, 0x7766676676677777U, 0x7667767766676777U, 0x7666766766767677U,
  0x6667677776677766U, 0x6767777677677676U, 0x7767766667777667U, 0x7767677777677677U,
  0x7677666776776667U, 0x7676677677667676U, 0x7667767777767676U, 0x7767776677777666U,
  0x6667777666767767U, 0x7677776667777777U, 0x7776677666767767U, 0x7667676767676777U,
  0x6776677677666777U, 0x7676777666676676U, 0x6677776777667776U, 0x6676677777677667U,
  0x6777667776776776U, 0x7766767777776766U, 0x7666667677676767U, 0x6767676676776667U,
  0x6767677667676777U, 0x7776676777676667U, 0x7777777776777676U, 0x6767767776766677U,
  0x7777776767776777U, 0x7777777677667767U, 0x7677676777777667U, 0x6677777677667667U,
  0x7777776776766676U, 0x7676767667677777U, 0x6677767777676777U, 0x6767667677777667U,
  0x7676777767777767U, 0x7667677767667777U, 0x7677676776776767U, 0x6777777776777677U,
  0x7776677776766776U, 0x7766666776777767U, 0x7767776776767666U, 0x6776667776776677U,
  0x6677776766666777U, 0x6777667766676667U, 0x6777767777777676U, 0x7776666777777777U,
  0x7777676776766776U, 0x7677767777667776U, 0x6677777767677776U, 0x7776767777767776U,
  0x7777776767667677U, 0x7776777667677776U, 0x7776777776676777U, 0x7667776767667677U,
  0x6767677677666766U, 0x7666767777766767U, 0x6667777677777776U, 0x6676667767666667U,
  0x7777777776677777U, 0x6767767767676676U, 0x7767677677676767U, 0x6767777667767677U,
  0x6767777766766776U, 0x7666667677677776U, 0x7666776767766767U, 0x7766677777667677U,
  0x7676777767777677U, 0x7677777776677676U, 0x7666677666667676U, 0x7767667676776767U,
  0x7776667766667677U, 0x7666677677766666U, 0x7667776777677766U, 0x7776666776767676U,
  0x7766776767677777U, 0x7677776677667776U, 0x7676676776777677U, 0x6767776667766667U,
  0x6666777766777677U, 0x7777776666676677U, 0x7666767776777766U, 0x6767776666666777U,
  0x6767676677777777U, 0x6667766666677767U, 0x7677676676776667U, 0x7777777666777766U,
  0x6676667776767776U, 0x7766677777677767U, 0x6766766767677776U, 0x7767776677766667U,
  0x6667676767677667U, 0x7676766776777676U, 0x7667677676677677U, 0x7666777776776777U,
  0x7777667767776776U, 0x7776777666666677U, 0x6667766777767776U, 0x7776677766667677U,
  0x7767777667767767U, 0x7767767677777766U, 0x7767667766677777U, 0x7767666776767677U,
  0x7776667777767767U, 0x7676777776677776U, 0x7667767766777766U, 0x7766777776767676U,
  0x7667776766767776U, 0x7777777766777766U, 0x7767767777766666U, 0x6766776776667677U,
  0x6767677776676766U, 0x7776667767777777U, 0x7777767677777776U, 0x7776676777767666U,
  0x7677777777677777U, 0x7766777767677766U, 0x7776777767776777U, 0x6767777767676667U,
  0x6677677776767666U, 0x7776677667676777U, 0x6667777677667667U, 0x6776777667776776U,
  0x6776777777777677U, 0x7677767767676777U, 0x7776667766677667U, 0x7777667676776777U,
  0x7777777667766767U, 0x6676677767677776U, 0x6667667767677777U, 0x6776767667776767U,
  0x7766676667676667U, 0x7777677677667776U, 0x6767767767676666U, 0x6677767767667776U,
  0x7777667776767676U, 0x7676676667767676U, 0x6767777776767777U, 0x6666677777776777U,
  0x7777777777676676U, 0x7677776777777677U, 0x6776676667776676U, 0x7766767766667776U,
  0x7676776766776776U, 0x6677777766667766U, 0x6767767677676777U, 0x7676767766776667U,
  0x6767767766776667U, 0x6677766776677667U, 0x7667677777676767U, 0x7667776676776767U,
  0x6777776677677776U, 0x6666677777677777U, 0x6777777677676666U, 0x7766766666776677U,
  0x6777777677676677U, 0x7777777766767776U, 0x7777677677767676U, 0x7667776667777766U,
  0x7777677766776766U, 0x7777777676676767U, 0x7667676766677667U, 0x7766767677667677U,
  0x6677776666777677U, 0x7667677767776767U, 0x7767666777776677U, 0x7767767676777777U,
  0x6776677666767676U, 0x7676677767777676U, 0x6666777677776776U, 0x7777767667777777U,
  0x7677777676776677U, 0x7776777777777776U, 0x7676767666766777U, 0x7767766777767776U,
  0x7667777776676767U, 0x7677677777767676U, 0x7777776777776776U, 0x7776767677777767U,
  0x7777777667777677U, 0x7676777777666777U, 0x6766677777677667U, 0x7777777766767677U,
  0x7776777666776766U, 0x6766677776767667U, 0x7677767777776776U, 0x6777767776666676U,
  0x7676776767767667U, 0x6676666767776666U, 0x7667677777677767U, 0x6777776777666666U,
  0x7677676666676676U, 0x7667667776776777U, 0x7776667767667776U, 0x7776777777777676U,
  0x7767777666767676U, 0x7676676776776766U, 0x7667676777677667U, 0x7767777767767777U,
  0x7776677766777677U, 0x7767676767777776U, 0x7767767777777776U, 0x7776777767777777U,
  0x7676767776767667U, 0x7777777676777777U, 0x7777777777766676U, 0x6777767777777676U,
  0x6767666666767666U, 0x7676677777676767U, 0x7667676777667767U, 0x6776767776777777U,
  0x6777766667766677U, 0x7777777677776767U, 0x7777677776776777U, 0x7767767767777677U,
  0x7777776776776666U, 0x7677776676776777U, 0x7767767677777776U, 0x6766766666777677U,
  0x6777777676777677U, 0x7667777767677767U, 0x6777677777776767U, 0x6767777777767677U,
  0x7767776667666777U, 0x7767677667767777U, 0x6766777676677666U, 0x7777667777777776U,
  0x7777676776677676U, 0x7766776767677666U, 0x7766667667776676U, 0x7777666777766676U,
  0x7666676676766666U, 0x7676677777777776U, 0x7777677767777667U, 0x6667777666677676U,
  0x7677777677767777U, 0x6666667777767676U, 0x6776666767776666U, 0x7767677666666667U,
  0x6777677776666676U, 0x7666767667676777U, 0x6677767666676776U, 0x6676766676777777U,
  0x6676776666667767U, 0x6777777766677676U, 0x7677777777677676U, 0x7776777767777667U,
  0x7667767766676777U, 0x7677677677677777U, 0x7766676777667776U, 0x7676667676676777U,
  0x7776777767766667U, 0x7777776767777766U, 0x6777777767676677U, 0x6766777766777766U,
  0x7677677767666777U, 0x7676666777767677U, 0x7667767677776766U, 0x6766677766766777U,
  0x7776777676676766U, 0x7676777677776777U, 0x7677677666777676U, 0x6766777767767676U,
  0x6767677766666767U, 0x7767776776677777U, 0x7777777776777766U, 0x6667776777677777U,
  0x6666767766666676U, 0x6766767767677677U, 0x6777767777667677U, 0x7767777767667767U,
  0x7767677677766777U, 0x7777676766667677U, 0x6767776766677776U, 0x6776677777676776U,
  0x6677776767776666U, 0x7776676666677666U, 0x6677777776667677U, 0x7667676666777667U,
  0x7777667676767776U, 0x6676677776666676U, 0x6667767676667776U, 0x7776767667767667U,
  0x7767777777777677U, 0x6776766676677666U, 0x7667766776767666U, 0x6677767767767676U,
  0x6677767667667776U, 0x6776667777667677U, 0x7666777777767776U, 0x6776677776766667U,
  0x7776776777767677U, 0x7676667767767676U, 0x7667766776767766U, 0x7667767767666677U,
  0x7677776666677766U, 0x6767667677676677U, 0x7676776677677776U, 0x6666767676767676U,
  0x6777777767777667U, 0x7667777777677776U, 0x7666767777677677U, 0x6777676677777777U,
  0x6777667766767666U, 0x7676676767666777U, 0x7777776676676767U, 0x6776767677676677U,
  0x6666677777677677U, 0x6766777767667777U, 0x6767667776676766U, 0x7667767676766676U,
  0x6677777776667776U, 0x7676666677677677U, 0x7677777766677766U, 0x7676667667767777U,
  0x7776776767676766U, 0x7767767767666776U, 0x7677677776677676U, 0x7766677777676766U,
  0x6766677777777776U, 0x6676677677776677U, 0x6667677776766776U, 0x6776677677777776U,
  0x7667667766667777U, 0x7776777777676676U, 0x7777777767767767U, 0x6677777667666777U,
  0x7777676776767676U, 0x7776766777777777U, 0x6667767667767676U, 0x6667777767777766U,
  0x7667767766767677U, 0x7777776767677767U, 0x6667676777766667U, 0x7767776677777677U,
  0x7777776777667777U, 0x7666777776767777U, 0x6767677777667676U, 0x6767767766667676U,
  0x7777767666677666U, 0x6766676777776766U, 0x7776677767776767U, 0x7766677666777676U,
  0x6676676766777766U, 0x7666667776777667U, 0x7677777677777766U, 0x7676766777666767U,
  0x7776677777676677U, 0x7666766667677777U, 0x7667776777676677U, 0x7666677777676776U,
  0x6677777677767766U, 0x7776667667677777U, 0x7776777767777776U, 0x7777667766776767U,
  0x7677777767676667U, 0x7777677766777776U, 0x7777676677676676U, 0x6666767766767776U,
  0x7667677767777777U, 0x7776766776677677U, 0x7777777776767777U, 0x7776767676777777U,
  0x7777666766677766U, 0x7667677767677767U, 0x7677667677767677U, 0x7777767666676666U,
  0x7777777666666667U, 0x7666677776677676U, 0x7667777776777776U, 0x7766776777766777U,
  0x6777777766777676U, 0x7777776766767667U, 0x7677667777676667U, 0x7667766667667677U,
  0x6777666777766777U, 0x6676677777776776U, 0x7677776777666776U, 0x7776777777667777U,
  0x7777677767776667U, 0x7667777666767777U, 0x6777667777777677U, 0x6766767666666777U,
  0x7766666776766777U, 0x6676677777767766U, 0x7777777777677677U, 0x7766767766667676U,
  0x7677776677667667U, 0x7677777666676766U, 0x7777777777767677U, 0x7776677677767676U,
  0x7776777776776676U, 0x7767777766677676U, 0x7767766677777666U, 0x6767766767777667U,
  0x6776777777777777U, 0x6777777776667776U, 0x6667767667766667U, 0x7776777766677677U,
  0x7776677776766676U, 0x7677767767777766U, 0x6677676676777767U, 0x6677777776776777U,
  0x7766777667667667U, 0x7777777667677667U, 0x6767776677667666U, 0x7677676777777677U,
  0x7776677667766776U, 0x7776677777677777U, 0x6666777766777666U, 0x7767767677776667U,
  0x7677677667677776U, 0x6776677677777776U, 0x7777677677776677U, 0x7766766777677777U,
  0x7777666776766667U, 0x7677767777777676U, 0x7766676767776677U, 0x6777776777667767U,
  0x6777777776667677U, 0x7777767766767767U, 0x7776677667766677U, 0x6767777777666677U,
  0x7667777767776666U, 0x6676667777777667U, 0x7677677777777777U, 0x6777667777776677U,
  0x7777777677677677U, 0x6777777676677676U, 0x7767667677677676U, 0x6776667666676676U,
  0x7677677676666767U, 0x7676677677777776U, 0x7767677677776677U, 0x7777767767767777U,
  0x6667777667677667U, 0x7667677777667776U, 0x6676677767676777U, 0x7666777777777677U,
  0x7767777776766767U, 0x7676777777677767U, 0x6667777767777776U, 0x7676776777767677U,
  0x7777767767777677U, 0x7777767667666676U, 0x7676676776777777U, 0x7776676666667666U,
  0x7767677776676766U, 0x7676777776677676U, 0x7667766777666776U, 0x7776777667676677U,
  0x7776677667676677U, 0x7776666777777776U, 0x6767677766676677U, 0x6777766677667777U,
  0x6777777766666776U, 0x7766776777767677U, 0x7667667777767776U, 0x7776767766776676U,
  0x6767777776676667U, 0x6676676777776666U, 0x6776667766676677U, 0x6766677777776677U,
  0x6776777777766766U, 0x7677667677677777U, 0x7766666777767766U, 0x6666667776667776U,
  0x6677777666776777U, 0x7777766767677677U, 0x7667677777777667U, 0x6677677666777777U,
  0x7777777776676776U, 0x7677676777677676U, 0x7766777777667766U, 0x7776766777677677U,
  0x7767777677676677U, 0x6776777767767766U, 0x6777777777676677U, 0x7766677767766776U,
  0x7777776677767766U, 0x7677777677677667U, 0x7777777677777777U, 0x7776666777776677U,
  0x6777777767776677U, 0x6677677677667676U, 0x7767777677776777U, 0x7677766776676667U,
  0x7777766766666777U, 0x7777677667776777U, 0x7777777777777766U, 0x6667777667777676U,
  0x7767666767777767U, 0x7777777767776676U, 0x6676776777777776U, 0x7677777766776677U,
  0x6777677777676767U, 0x6676777767667777U, 0x6777777777767776U, 0x6776666666667766U,
  0x7777677767667667U, 0x7777766767676766U, 0x7777677666777677U, 0x6666676777677677U,
  0x7676776777767777U, 0x7677677677667777U, 0x7776767777766766U, 0x7777777777667777U,
  0x7766667767776667U, 0x7766776767777777U, 0x7777677767676667U, 0x7777777667766766U,
  0x7776677776766766U, 0x6676667767676677U, 0x7677676676677776U, 0x6777776777777776U,
  0x6777777767767766U, 0x7777767767767767U, 0x7676677667676676U, 0x6766776777766767U,
  0x6777667677666677U, 0x7666766777776777U, 0x7677777776777766U, 0x6667777776767777U,
  0x6777777777777777U, 0x7677677767677776U, 0x7767666677777677U, 0x7766767677677767U,
  0x6667677766767776U, 0x6677677777677676U, 0x7676776777767776U, 0x6776777677667767U,
  0x6767767767777677U, 0x6766776766677776U, 0x7766767666776676U, 0x7677767766767667U,
  0x7777677766676767U, 0x7777666776776767U, 0x7677766776767676U, 0x6767777777767776U,
  0x7777777667777766U, 0x7767767767776776U, 0x7777676776776767U, 0x7767677767677767U,
  0x7677667776767766U, 0x7776767767667776U, 0x7767766777777767U, 0x7776777777777667U,
  0x6777777776777767U, 0x7676776667667777U, 0x7767776677776767U, 0x6767777766767777U,
  0x7776777776676776U, 0x6766677777777767U, 0x7667677766777777U, 0x6676767667766677U,
  0x7777776766777676U, 0x7766777676666776U, 0x6677667666777776U, 0x6667677776766677U,
  0x6767677676766776U, 0x7676777777677667U, 0x6677777676777766U, 0x6677776776677767U,
  0x7677776767667677U, 0x6777776777767776U, 0x7667777767776677U, 0x7777777667767667U,
  0x7776667776766676U, 0x7776777777676677U, 0x7767667776776776U, 0x7766776676777767U,
  0x6777767767667777U, 0x6776777767666777U, 0x6767676677677677U, 0x6667777667676667U,
  0x7776777666766676U, 0x6666676766766667U, 0x6767677767777676U, 0x6766777666677677U,
  0x6776777667667677U, 0x7777776677677776U, 0x6666766777666667U, 0x6767777777766676U,
  0x7676667777666776U, 0x7676667767666676U, 0x7667676676767676U, 0x7767767677767767U,
  0x7666777777676767U, 0x6766776777676776U, 0x7777676667667777U, 0x7667776777667776U,
  0x7776666666767777U, 0x6776777767767777U, 0x7666777766767776U, 0x6667766677767676U,
  0x7777667767667776U, 0x7676677777766776U, 0x7777677767776766U, 0x7766767677767776U,
  0x7677777776776676U, 0x7667777767677677U, 0x7766776767777667U, 0x7776767676677666U,
  0x7677777777777677U, 0x7777676667666776U, 0x7677677667776667U, 0x7667776666776677U,
  0x7777667776776777U, 0x7676677776677776U, 0x6777766777677777U, 0x7677777676767677U,
  0x7676677776776767U, 0x7776676767667776U, 0x7677676767777666U, 0x6776676667767776U,
  0x6677667676766776U, 0x6666776777677676U, 0x7667677677667666U, 0x7766776776776777U,
  0x7777776767766776U, 0x7766777677677676U, 0x6776777777777677U, 0x6667776767667677U,
  0x7766767677777767U, 0x6776777766766767U, 0x7667667776767676U, 0x7776767776677667U,
  0x7676777777667677U, 0x7677776766777677U, 0x7776667766777777U, 0x7777777677777767U,
  0x7767677766766766U, 0x6776677767777777U, 0x7776677767677777U, 0x6676667677676766U,
  0x7777677767676777U, 0x7767676767777677U, 0x6776676677676677U, 0x7766766777766777U,
  0x7767677777677776U, 0x6776667777766677U, 0x7677667677677666U, 0x6766777777766676U,
  0x7777676777667777U, 0x7776766766777677U, 0x6777767666677666U, 0x7767777777667676U,
  0x6776767676666666U, 0x7676667776666677U, 0x6777776777767677U, 0x6777677767666677U,
  0x6667766676677767U, 0x7766766777767777U, 0x7777677777677766U, 0x7777777776666776U,
  0x6766666767776676U, 0x7676767677676776U, 0x7777777677766667U, 0x6766677777677767U,
  0x7776676677667666U, 0x6677767777666676U, 0x6776667677677666U, 0x7777766767677676U,
  0x6676676766767777U, 0x6667777777767777U, 0x7667777776677766U, 0x7776766667666666U,
  0x7767677677676676U, 0x7777776767777677U, 0x6666667777777676U, 0x7777676667767767U,
  0x6666676666767677U, 0x7676677777677676U, 0x6677676777677777U, 0x7777767777777777U,
  0x7677777677777677U, 0x7777766767676676U, 0x7677776667777676U, 0x7766676667766677U,
  0x6776666776777676U, 0x7676667767676767U, 0x7667776666777676U, 0x7776776777776777U,
  0x7777777767677776U, 0x6766777667677777U, 0x7777676776676676U, 0x7666766767777767U,
  0x7677667766676667U, 0x7766777667777766U, 0x7676766776777676U, 0x7667667767667767U,
  0x7776776667667677U, 0x7676776777666776U, 0x7766676776766776U, 0x7667776777767767U,
  0x7777676766766776U, 0x7667677767776776U, 0x6677667776777776U, 0x6666667677677767U,
  0x7767776777777767U, 0x7777676766777777U, 0x6666677766667776U, 0x7667767676666677U,
  0x7777677777676776U, 0x7666767776677677U, 0x6766767776677767U, 0x7777776677777666U,
  0x6777777777777776U, 0x7767767767677677U, 0x6767676777776676U, 0x6766776667667676U,
  0x6776676666766777U, 0x6766766777666677U, 0x7777767776767776U, 0x7776777776677777U,
  0x6667766767677777U, 0x6776777677677776U, 0x7667677676777667U, 0x6766677776767667U,
  0x7676767776776676U, 0x7676677677677767U, 0x6767677677776777U, 0x7676767777777777U,
  0x7666766766767667U, 0x7667677677676776U, 0x6777667677676677U, 0x6777767677767666U,
  0x7767677776767776U, 0x6677777777667677U, 0x7666776777777766U, 0x6677667676767777U,
  0x7777777776677677U, 0x7766666767776776U, 0x7776777676676777U, 0x7676667666777677U,
  0x6677677677666777U, 0x7776777777676677U, 0x7767677676666776U, 0x7767776677766676U,
  0x7777767677777776U, 0x7767766776766776U, 0x6677676767776676U, 0x6677677676777667U,
  0x7677777766766766U, 0x7677676767667667U, 0x6667777677677766U, 0x6777667766777677U,
  0x6777776667677777U, 0x7776777767767777U, 0x6667777776776777U, 0x7666677766767766U,
  0x7776766766766766U, 0x6766677677776777U, 0x7667676666777766U, 0x7777667677777777U,
  0x6766777777677677U, 0x7666777667766777U, 0x6676666776677677U, 0x6666676776767677U,
  0x7766766767766776U, 0x7676776776777677U, 0x6667777677677776U, 0x6676777667767777U,
  0x6777776666776677U, 0x7766766666676667U, 0x6677777767676677U, 0x7666767767667766U,
  0x7667666767766766U, 0x7666777777677676U, 0x7677767766677676U, 0x7676767677677666U,
  0x7667677766677677U, 0x6776776767676777U, 0x6776676766666677U, 0x6777777676777677U,
  0x7676677767777677U, 0x6767767777676776U, 0x6777677767776766U, 0x6666777666777666U,
  0x6777766767767667U, 0x6777777777776676U, 0x7767677676667676U, 0x6666776767667667U,
  0x7676667767767766U, 0x7777667767677777U, 0x6766666776677676U, 0x7677667777777677U,
  0x6776777666766766U, 0x7677777767777666U, 0x6776667777767667U, 0x7767666767767676U,
  0x7677766677766777U, 0x7777666767777767U, 0x7677667776766777U, 0x6776667776777676U,
  0x6777667667667776U, 0x7777676666776776U, 0x7776767677676777U, 0x7766776666766677U,
  0x7777676677766677U, 0x6666677777776777U, 0x7767767676777776U, 0x6766676777777767U,
  0x7666767677776677U, 0x6766766767677676U, 0x7767677767766777U, 0x7777767777767676U,
  0x7767777777666667U, 0x6666677766677777U, 0x7766767767777767U, 0x7776777776766776U,
  0x6677777767777777U, 0x6767777777677676U, 0x7777767777677667U, 0x7767777776667676U,
  0x6677676676676777U, 0x6666677776767767U, 0x6777777777667766U, 0x6677767667777777U,
  0x7776777667667766U, 0x7677766767677777U, 0x7676777767777777U, 0x6766776767666767U,
  0x6766776776767666U, 0x7667667777676766U, 0x6667777777777766U, 0x7676776666677766U,
  0x6677766667777767U, 0x6776766767677776U, 0x7677667667676677U, 0x7677777676677677U,
  0x7677677667766776U, 0x6767676777677767U, 0x7777676767766776U, 0x7767777666777666U,
  0x6767777767777776U, 0x6766776766767777U, 0x6676777666677677U, 0x7666666776667776U,
  0x6767667766766776U, 0x6667666766667676U, 0x7776767677667776U, 0x6676667677777676U,
  0x6776666767767666U, 0x7667777666677777U, 0x7767777667677676U, 0x7777776676777777U,
  0x6677666767776776U, 0x7677777777776767U, 0x7666777667667677U, 0x6767777777677776U,
  0x6677666767776776U, 0x7777766777767676U, 0x7766776776777666U, 0x6667677767767677U,
  0x6776667776766776U, 0x7676676777777666U, 0x7667676677677776U, 0x6776666776777667U,
  0x7767777667777767U, 0x7767776766667777U, 0x6767677667766676U, 0x7676677777767777U,
  0x7767667777766776U, 0x7676677677776777U, 0x6667767777767776U, 0x7777776677777766U,
  0x7766677767676766U, 0x7776677766677766U, 0x6777676667677777U, 0x7777667777767667U,
  0x7766777777767766U, 0x7666776777676776U, 0x6666766777767766U, 0x7777767677677777U,
  0x6677776767776777U, 0x7677776677777776U, 0x7777776767776677U, 0x6767766777776777U,
  0x7667676776776777U, 0x7767667766677766U, 0x7667677677777666U, 0x6777766767777777U,
  0x7777777667777776U, 0x6776776777776666U, 0x6777677776767677U, 0x6667777676767677U,
  0x6767677776776767U, 0x6677667677676777U, 0x7766777777766766U, 0x7776776777776676U,
  0x7766766666767777U, 0x7766767777667666U, 0x7777677777776676U, 0x7677776666777677U,
  0x7777766766677677U, 0x6677667776677776U, 0x7767766777777676U, 0x6677767776777677U,
  0x7767676776666777U, 0x6677667666667766U, 0x7677667767776677U, 0x7776777776676766U,
  0x7677677767677777U, 0x7666667666767776U, 0x7676767777777767U, 0x6776776767677667U,
  0x7776666677767766U, 0x6777676677667677U, 0x7677777777777666U, 0x6667677677766776U,
  0x7777667676677767U, 0x7767677767667677U, 0x7777777677677676U, 0x7777776777777777U,
  0x7777766767676776U, 0x7777767767677777U, 0x7777676777767776U, 0x7666677677776776U,
  0x7777667777767676U, 0x7677667676777767U, 0x7667676777766766U, 0x7777767777777777U,
  0x7677676776766767U, 0x6677776776776677U, 0x6777677767777777U, 0x7667666666777677U,
  0x6767667777666676U, 0x7666676677677767U, 0x7777776767767766U, 0x6766777776777667U,
  0x7677666766776666U, 0x7777767766666777U, 0x7667776777777677U, 0x6777767777766667U,
  0x7777667767767766U, 0x7676676667667766U, 0x6776767777767676U, 0x7677667667677776U,
  0x7666677766777777U, 0x7777777767777776U, 0x7777777676777677U, 0x7766777667667676U,
  0x7677676776766766U, 0x7677667766777677U, 0x6766777677776666U, 0x6766777776767776U,
  0x7676666667667777U, 0x6776767767777676U, 0x7677667666677677U, 0x7767667777777767U,
  0x6677677677667776U, 0x7666666676677667U, 0x6777777677677766U, 0x6766777777766767U,
  0x7676677777666776U, 0x7776777767677776U, 0x7676776776767767U, 0x7677677776677666U,
  0x6666767766767667U, 0x6776666767676667U, 0x6666777767677676U, 0x6676777767776677U,
  0x6676676667766777U, 0x7767766767677776U, 0x7777676677667776U, 0x7666777776767777U,
  0x6676767777667676U, 0x7666667776677777U, 0x7777667667666776U, 0x6766667666777677U,
  0x7676767667777677U, 0x6766767667677676U, 0x7767777776777676U, 0x7677667767776777U,
  0x7777677766776767U, 0x7766767676767777U, 0x6667777777766676U, 0x7776667766777677U,
  0x7777767776767766U, 0x7677766777677776U, 0x7676677766766777U, 0x7777777777667677U,
  0x7767776766767777U, 0x7667766767677767U, 0x7767667777676776U, 0x7777777677767767U,
  0x7677777677666777U, 0x7667767767766666U, 0x6777777676776677U, 0x7666776766767676U,
  0x7777667776766767U, 0x7766777677677777U, 0x7767776777776767U, 0x6767777767777777U,
  0x7777677667776766U, 0x6766777766767776U, 0x7777777766677677U, 0x6777776767777766U,
  0x6677777677676666U, 0x7766767777777676U, 0x6767777777767776U, 0x7766767777777677U,
  0x7767777777677766U, 0x6777766777767766U, 0x7677676767766777U, 0x7776767777767777U,
  0x6777677776666776U, 0x7776767676767777U, 0x7676776767676676U, 0x7776777777677776U,
  0x7766766677666677U, 0x7676777766677666U, 0x6777777777777677U, 0x6677776777777777U,
  0x6776667766766676U, 0x7666767777676767U, 0x7766667666667777U, 0x7776777777767767U,
  0x6766767777776777U, 0x7777777667666767U, 0x6677667767677677U, 0x6666677766767767U,
  0x7777677766667777U, 0x6666677677667777U, 0x7777777776776766U, 0x7767766776776667U,
  0x7767677767776677U, 0x7777767677667766U, 0x6776677767776767U, 0x7767777776676676U,
  0x6667667676766777U, 0x7776677767667676U, 0x7767677777766776U, 0x6777766777766777U,
  0x6676676766676676U, 0x6667776767776766U, 0x6677677767767777U, 0x7767677767677777U,
  0x6777677766776766U, 0x7776767677677767U, 0x7767676777767777U, 0x6676767777776677U,
  0x7777776777666676U, 0x7767776767667776U, 0x7667677776777677U, 0x6777677766667676U,
  0x7777667667666776U, 0x7677676766777677U, 0x7776677776776777U, 0x6766766677677777U,
  0x7776777767677767U, 0x6766776767666776U, 0x6667767767777777U, 0x6767776677667676U,
  0x6777666766777677U, 0x7666776777677777U, 0x7767777767676766U, 0x7767667767777667U,
  0x7677776666677777U, 0x6677776767767676U, 0x7777676666767677U, 0x6777777677766777U,
  0x6677767666776766U, 0x7777766767676777U, 0x7667777777777776U, 0x7767677767676667U,
  0x7766766767677676U, 0x7777777767677666U, 0x6767677777676776U, 0x7777777767667667U,
